"
$
%
&
'
(
)
+
,
-
.
/
0
1
2
3
4
5
6
7
8
9
:
;
=
A
B
C
D
E
F
G
H
I
J
K
L
M
N
O
P
R
S
T
U
V
W
Y
Z
[
]
a
b
c
d
e
f
g
h
i
j
k
l
m
n
o
p
q
r
s
t
u
v
w
x
y
z
|
°
Ö
á
â
í
ā
ī
Ś
ū
ə
ɦ
ɪ
ɾ
ʊ
ʱ
ˈ
ː
ί
α
δ
ν
ο
ς
ό
अ
अं
आ
आं
इ
इं
इ़
ई
ईं
उ
उं
ऊ
ऊँ
ऊं
ऋ
ए
एँ
एं
ऐ
ऐं
ऑ
ओ
ओं
औ
क
कं
का
कां
कि
किं
की
कु
कू
कृ
के
कें
कै
कॉ
कॉं
को
कों
क् 
क्के
क्क्न
क्ट
क्टू
क्त
क्ता
क्ति
क्यो
क्यों
क्र
क्रां
क्रि
क्री
क्लि
क्श
क्ष
क्षा
क्षि
क्षी
क्षु
क्षे
क्ष्य
क्स
ख
खं
खा
खि
खी
खु
खू
खे
खो
ख्न
ख्य
ख्या
ख्यि
ग
गं
ग़
गा
गाँ
गां
गि
गी
गु
गू
गे
गै
गो
गों
गौ
ग्य
ग्र
ग्रं
ग्रा
ग्री
ग्रु
ग्रे
ग्ला
ग्ले
ग्वे
घ
घं
घा
घि
घी
घु
घू
घो
च
चं
चा
चि
ची
चु
चू
चे
चें
चै
चो
चों
चौ
च्च
च्चा
च्छा
च्छी
च्छु
च्छे
छ
छा
छू
छे
छो
ज
जं
ज़
ज़ी
ज़्या
जा
जि
जी
जु
जू
जें
जै
जो
जों
ज्ञा
ज्य
ज्या
ज्यी
ज्यु
ज्यों
झ
झा
झु
झे
झौ
ट
टा
टि
टी
टे
टें
टों
ट्टा
ट्य
ट्रो
ठ
ठं
ठा
ठि
ठी
ड
ड़
ड़ा
ड़ि
ड़ी
ड़े
ड़ें
ड़ो
ड़ों
डा
डां
डि
डी
डु
डे
डॉ
डो
ड्य
ड्यों
ढ
ढ़
ढ़ा
ढ़ो
ढा
ढाँ
ढां
ढि
ण
णा
णि
णी
णु
ण्ड
ण्डि
ण्ण
त
तं
तः
ता
तां
ति
ती
तीं
तु
तृ
ते
तें
तो
तों
तौ
त्का
त्कृ
त्ख
त्त
त्ता
त्ति
त्ती
त्थ
त्था
त्न
त्प
त्पा
त्म
त्मा
त्मि
त्य
त्यं
त्या
त्यु
त्ये
त्यों
त्यौ
त्र
त्रा
त्रि
त्री
त्रु
त्रों
त्व
त्वों
त्‍त
त्‍व
थ
था
थि
थी
थीं
थे
थ्या
द
दं
दा
दि
दी
दु
दू
दृ
दे
दें
दो
दों
दौ
द् 
द्दे
द्दों
द्ध
द्धि
द्धों
द्भा
द्य
द्यो
द्र
द्रा
द्रि
द्री
द्रो
द्वा
द्वि
द्वी
द्वे
ध
धा
धि
धी
धु
धे
धो
धों
ध्द
ध्य
ध्या
ध्रु
न
नं
नः
ना
नां
नि
नी
नीं
नु
नू
नृ
ने
नै
नो
नों
नौ
न् 
न्टा
न्त
न्ति
न्तु
न्तु् 
न्त्र
न्त्रि
न्त्री
न्द
न्दी
न्दु
न्दू
न्दो
न्द्र
न्द्रा
न्द्री
न्ध
न्धु
न्न
न्नौ
न्म
न्मा
न्मी
न्मों
न्य
न्या
न्यू
न्सा
न्स्ट
न्हीं
न्हे
न्हें
न्हों
प
पं
पा
पाँ
पां
पि
पी
पीं
पु
पू
पूं
पे
पें
पै
पैं
पॉ
पो
पों
प्ट
प्त
प्ति
प्पा
प्य
प्र
प्रा
प्रि
प्रे
प्रै
प्रो
प्रौ
प्ला
प्ले
फ
फ़
फ़ि
फ़ी
फ़े
फ़् 
फ़्ट
फा
फि
फु
फू
फे
फै
फ्राँ
फ्रां
फ्री
ब
बँ
बं
बा
बाँ
बां
बि
बी
बु
बू
बे
बें
बै
बैं
बॉ
बो
बौ
ब्द
ब्दी
ब्ब
ब्बि
ब्र
ब्रि
ब्लि
भ
भं
भा
भां
भि
भी
भु
भू
भे
भो
भौ
भ्य
भ्र
म
मं
मा
मां
मि
मी
मु
मुं
मू
मृ
मे
में
में‌
मै
मो
मों
मौ
म्न
म्प
म्पू
म्प्र
म्ब
म्बि
म्बे
म्भ
म्भि
म्म
म्मि
म्य
म्या
म्यां
म्यु
म्र
म्रा
म्‍ब
य
यं
या
याँ
यां
यि
यी
यु
यू
ये
यें
यो
यों
र
रं
रा
रि
रिं
री
रु
रू
रे
रें
रैं
रो
रोँ
रों
र्क
र्ग
र्गी
र्घ
र्च
र्चा
र्चे
र्ज
र्ज़
र्ज़ा
र्जा
र्जि
र्जी
र्ट
र्टि
र्टी
र्ण
र्णि
र्त
र्ता
र्ति
र्थ
र्थि
र्थी
र्द
र्द्ध
र्द्र
र्ध
र्धा
र्ना
र्प
र्फ़
र्भ
र्म
र्मा
र्मि
र्मी
र्मों
र्य
र्या
र्र
र्रा
र्रों
र्व
र्वं
र्वा
र्वां
र्वी
र्वो
र्श
र्ष
र्षा
र्षि
र्षों
र्स
ल
लं
ला
लाँ
लां
लि
लिं
ली
लीं
लु
लू
ले
लै
लैं
लॉ
लो
लों
लौ
ल्कि
ल्ट
ल्टा
ल्टी
ल्त
ल्प
ल्पा
ल्म
ल्में
ल्य
ल्या
ल्यों
ल्ली
ल्ले
ल्ल्वों
ल्सि
ल्‍प
व
वं
वा
वाँ
वि
विं
वी
वीं
वृ
वे
वें
वै
वों
व्य
व्यं
व्या
व्यु
व्र
व्‍या
श
शः
शा
शां
शि
शी
शु
शृं
शे
शै
शो
शों
श्चि
श्मी
श्य
श्र
श्रि
श्री
श्रे
श्व
श्वं
श्वि
श्वी
श्‍यी
ष
षा
षि
षी
षों
ष्क
ष्का
ष्ट
ष्टा
ष्टि
ष्ट्र
ष्ट्री
ष्ट्रों
ष्ठ
ष्ठि
ष्ण
ष्णा
ष्णु
ष्म
ष्य
स
सं
सा
सां
सि
सिं
सी
सु
सू
सृ
से
सै
सॉ
सो
सों
सौ
स्कृ
स्क्री
स्ट
स्टा
स्टॉ
स्ट्रे
स्त
स्ता
स्ति
स्तु
स्तृ
स्ते
स्त्र
स्त्रि
स्त्री
स्थ
स्था
स्थि
स्प
स्म
स्य
स्यों
स्रो
स्ला
स्लि
स्व
स्वी
स्सा
स्सों
ह
हा
हाँ
हां
हि
हिं
ही
हीं
हु
हुँ
हू
हे
है
हैं
हॉ
हो
हों
ह्म
।
०
१
२
३
४
५
६
७
८
९
॰
অ
অং
অ্য
অ্যা
আ
ই
ইং
ঈ
উ
উঁ
ঊ
ঋ
এ
এঁ
ঐ
ও
ক
কং
কা
কাং
কি
কিং
কী
কু
কূ
কৃ
কে
কো
কৌ
ক্টো
ক্ত
ক্তা
ক্তি
ক্য
ক্যা
ক্র
ক্রা
ক্রি
ক্রী
ক্রো
ক্লি
ক্লো
ক্ষ
ক্ষা
ক্ষাং
ক্ষি
ক্ষী
ক্ষে
ক্ষ্যে
ক্স
ক্সা
ক্সি
খ
খা
খি
খী
খে
খো
খ্য
খ্যা
খ্রি
গ
গা
গি
গী
গু
গৃ
গে
গো
গৌ
গ্নে
গ্ন্যু
গ্য
গ্যা
গ্র
গ্রা
গ্রি
গ্রী
গ্রে
ঘ
ঘা
ঘি
ঘু
ঘে
ঘো
ঘ্র
ঙ
ঙা
ঙে
ঙ্ক
ঙ্কা
ঙ্কি
ঙ্কে
ঙ্গ
ঙ্গা
ঙ্গি
ঙ্গী
ঙ্গু
ঙ্গে
ঙ্গো
চ
চা
চাঁ
চি
চিং
চী
চু
চে
চো
চ্চ
চ্চা
চ্চি
চ্ছি
চ্ছে
চ্যা
চ্যু
ছ
ছা
ছি
ছু
ছে
ছো
ছৌ
জ
জা
জি
জী
জু
জে
জৈ
জো
জ্জ্ব
জ্ঞ
জ্ঞা
জ্য
জ্যি
জ্যে
জ্যো
ঝ
ঝা
ঝি
ঝু
ঞ্চ
ঞ্চা
ঞ্চে
ঞ্জ
ঞ্জা
ঞ্জি
ঞ্জো
ট
টা
টি
টিং
টু
টে
টো
ট্ট
ট্টে
ট্য
ট্যা
ট্যে
ট্র
ট্রা
ট্রি
ট্রো
ঠ
ঠা
ঠি
ঠে
ঠো
ড
ড়
ড়া
ড়ি
ড়ী
ড়ু
ড়ে
ড়ো
ডা
ডি
ডু
ডে
ডো
ড্র
ড্রো
ঢ়
ণ
ণা
ণি
ণী
ণু
ণে
ণ্ড
ণ্ডে
ণ্য
ণ্যে
ত
তঃ
তা
তাং
তি
তী
তু
তূ
তৃ
তে
তৈ
তো
ত্ত
ত্তি
ত্তু
ত্ত্ব
ত্ত্বা
ত্ত্বি
ত্ত্বে
ত্থ
ত্থা
ত্ন
ত্ব
ত্বা
ত্বে
ত্ম
ত্মা
ত্মি
ত্মী
ত্য
ত্যা
ত্যি
ত্যু
ত্যে
ত্র
ত্রা
ত্রি
ত্রী
ত্রে
ত্র্য
ত্র্যে
থ
থা
থি
থু
থে
থ্য
থ্রু
দ
দং
দা
দাঁ
দি
দী
দু
দূ
দৃ
দে
দৈ
দ্দী
দ্ধ
দ্ধি
দ্ধে
দ্ব
দ্বা
দ্বি
দ্বী
দ্ভ
দ্ভা
দ্ভি
দ্ভু
দ্ভূ
দ্ম
দ্য
দ্যা
দ্যু
দ্যো
দ্র
দ্রা
দ্রু
দ্রে
দ্রো
দ্র্য
দ্র্যে
ধ
ধা
ধাঁ
ধি
ধী
ধু
ধে
ধ্য
ধ্যা
ধ্যু
ধ্যে
ধ্রু
ধ‍্যে
ন
না
নি
নী
নু
নূ
নৃ
নে
নৈ
নো
নৌ
ন্)
ন্ট
ন্টা
ন্টি
ন্টে
ন্ড
ন্ডা
ন্ডি
ন্ডে
ন্ডো
ন্ত
ন্তি
ন্তী
ন্তু
ন্তে
ন্তো
ন্ত্র
ন্ত্রা
ন্ত্রি
ন্ত্রী
ন্ত্রে
ন্থে
ন্দ
ন্দা
ন্দি
ন্দু
ন্দো
ন্দ্র
ন্দ্রি
ন্দ্রী
ন্দ্রে
ন্ধ
ন্ধা
ন্ধী
ন্ধু
ন্ধ্য
ন্ধ্র
ন্ন
ন্না
ন্ব
ন্মা
ন্মু
ন্মে
ন্মো
ন্য
ন্যা
ন্স
ন্সি
প
পঁ
পা
পাঁ
পি
পী
পু
পূ
পৃ
পে
পো
পৌ
প্টা
প্টে
প্ত
প্তা
প্তি
প্পা
প্র
প্রা
প্রি
প্রে
প্রো
প্ল
ফ
ফা
ফি
ফু
ফে
ফো
ফৌ
ফ্র
ফ্রা
ফ্রি
ব
বং
বা
বাং
বি
বিং
বী
বু
বু্দ্ধ
বৃ
বে
বৈ
বো
বৌ
ব্দ
ব্দী
ব্দে
ব্ব
ব্য
ব্যা
ব্যাং
ব্র
ব্রা
ব্রি
ব্রু
ব্রো
ব্লি
ভ
ভা
ভাং
ভি
ভী
ভু
ভূ
ভৃ
ভে
ভো
ভৌ
ভ্য
ভ্যু
ভ্র
ভ্রা
ম
মা
মাং
মি
মী
মু
মূ
মৃ
মে
মো
মৌ
ম্ 
ম্,
ম্ন
ম্প
ম্পা
ম্পি
ম্পূ
ম্পে
ম্প্র
ম্প্রী
ম্ব
ম্বা
ম্বী
ম্বে
ম্ভ
ম্ভি
ম্ম
ম্মা
ম্মি
ম্মু
ম্য
ম্যা
ম্রা
য
য়
য়া
য়ি
য়ী
য়ু
য়ে
য়ো
য়্যা
যা
যু
যে
যো
যৌ
য্যে
র
রং
রা
রি
রিং
রী
রু
রূ
রে
রো
র্ক
র্কি
র্কে
র্গ
র্গা
র্গি
র্গে
র্গ্যা
র্ঘ
র্ঘ্য
র্চ
র্জ
র্জা
র্জি
র্জু
র্ট
র্টি
র্টে
র্ড
র্ডে
র্ণ
র্ণা
র্ণি
র্ণী
র্ত
র্তা
র্তি
র্তী
র্তু
র্তৃ
র্থ
র্থি
র্থী
র্থ‌
র্দ
র্দি
র্দ্র
র্ধ
র্ধা
র্ধি
র্ধে
র্ধ্ব
র্ব
র্বা
র্বি
র্বে
র্বো
র্ভ
র্ভা
র্ভি
র্ভু
র্ভে
র্ম
র্মা
র্মা‌
র্মী
র্মে
র্ম‌
র্য
র্যা
র্যু
র্শ
র্শা
র্ষ
র্ষা
র্ষি
র্ষে
র্স
র্সি
র্সে
ল
লা
লি
লিং
লী
লু
লে
লো
লৌ
ল্ড
ল্প
ল্পি
ল্পে
ল্ম
ল্মি
ল্য
ল্যা
ল্যে
ল্লি
ল্লী
ল্লে
শ
শা
শি
শী
শু
শে
শৈ
শো
শ্চি
শ্না
শ্ব
শ্বি
শ্বে
শ্মী
শ্য
শ্র
শ্রী
শ্রু
শ্রে
ষ
ষা
ষি
ষু
ষে
ষো
ষ্ট
ষ্টা
ষ্টি
ষ্টী
ষ্ট্য
ষ্ট্র
ষ্ট্রী
ষ্ট্রে
ষ্ঠ
ষ্ঠা
ষ্ঠি
ষ্ঠী
ষ্ণ
ষ্ণা
ষ্ণু
ষ্প
ষ্ম
স
সং
সা
সাং
সি
সিং
সী
সু
সূ
সৃ
সে
সৈ
সো
স্ 
স্ং
স্ক
স্কা
স্কৃ
স্ট
স্টা
স্টি
স্টী
স্টে
স্ট্রা
স্ট্রি
স্ট্রে
স্ট্রো
স্ত
স্তা
স্তি
স্তু
স্তৃ
স্ত্র
স্ত্রী
স্ত্রে
স্থ
স্থা
স্থি
স্থু
স্প
স্পা
স্ব
স্বা
স্বা‌
স্বী
স্ম
স্মা
স্য
স্যা
স্যে
স্রা
হ
হা
হি
হিং
হী
হু
হৃ
হে
হো
হ্নে
হ্ম
হ্য
হ্যা
হ্যে
হ্রা
ৎ
০
১
২
৩
৪
৫
৬
৭
৮
৯
అ
అం
ఆ
ఆం
ఇ
ఇం
ఈ
ఉ
ఉం
ఋ
ఎ
ఎం
ఏ
ఐ
ఒ
ఓ
ఔ
క
కం
కా
కాం
కి
కిం
కీ
కు
కుం
కూ
కృ
కె
కే
కేం
కై
కొ
కొం
కో
క్ 
క్,
క్క
క్కు
క్కొ
క్టో
క్తి
క్తు
క్నా
క్య
క్యం
క్యా
క్యు
క్ర
క్రాం
క్రి
క్రీ
క్రై
క్ష
క్షం
క్షి
క్‌ 
క్‌స
ఖ
ఖం
ఖా
ఖి
ఖో
ఖ్య
ఖ్యం
ఖ్యా
గ
గం
గా
గాం
గి
గిం
గీ
గు
గృ
గె
గే
గో
గౌ
గ్ 
గ్గ
గ్గి
గ్గు
గ్డ
గ్న
గ్నే
గ్భా
గ్రా
గ్రాం
గ్రీ
గ్రె
గ్లం
గ్లా
గ్లీ
గ్లే
ఘ
ఘం
ఘి
ఘు
ఘో
చ
చం
చా
చి
చిం
చీ
చు
చూ
చె
చెం
చే
చై
చో
చ్చ
చ్చి
చ్చిం
చ్చు
చ్చే
చ్ఛా
చ్య
జ
జం
జా
జి
జీ
జు
జూ
జెం
జై
జో
జౌ
జ్ 
జ్ఞా
జ్య
జ్యం
జ్యా
జ్యాం
జ్రా
జ్‌మ
ట
టం
టా
టి
టీ
టు
టుం
టూ
టె
టే
టై
టో
టోం
ట్ 
ట్కా
ట్ట
ట్టం
ట్టా
ట్టి
ట్టు
ట్టూ
ట్టె
ట్నం
ట్యం
ట్రా
ట్రో
ట్ల
ట్లా
ట్లు
ట్‌బా
ట్‌సొ
ఠ
ఠీ
డ
డం
డా
డి
డిం
డు
డుం
డే
డై
డో
డ్ 
డ్,
డ్చు
డ్జె
డ్డ
డ్డా
డ్డీ
డ్డు
డ్మిం
డ్య
డ్యు
డ్రా
డ్రై
డ్ల
డ్లు
డ్‌గే
ఢ
ఢా
ఢి
ణ
ణం
ణా
ణి
ణిం
ణు
ణే
ణ్వ
త
తం
తా
తి
తీ
తు
తుం
తూ
తృ
తె
తే
తై
తో
త్ 
త్,
త్కృ
త్త
త్తం
త్తా
త్మా
త్మి
త్య
త్యం
త్యే
త్ర
త్రం
త్రా
త్రి
త్రు
త్ర్య
త్ర్యం
త్ర్యా
త్వ
త్వం
త్వా
త్స
త్సా
త్‌ 
త్‌లో
థ
థా
థి
థ్ 
ద
దం
దా
ది
దిం
దీ
దు
దూ
దృ
దే
దై
ద్ 
ద్,
ద్-
ద్:
ద్ద
ద్దం
ద్ది
ద్దు
ద్ధ
ద్ధం
ద్ధా
ద్ధి
ద్ధిం
ద్ధు
ద్భ
ద్య
ద్యు
ద్ర
ద్రం
ద్రా
ద్రీ
ద్వా
ద్వి
ద్వీ
ద్వై
ధ
ధం
ధా
ధి
ధిం
ధీ
ధు
ధుా
ధూ
ధ్;
ధ్య
ధ్యం
ధ్యా
న
నం
నా
ని
నిం
నీ
ను
నుం
నూ
నృ
నె
నే
నై
నో
న్ 
న్,
న్-
న్కు
న్తో
న్న
న్నం
న్నా
న్ని
న్నీ
న్ను
న్నె
న్నై
న్నో
న్మ
న్మా
న్య
న్యా
న్లు
న్సీ
న్స్,
న్‌ 
న్‌ఫ
ప
పం
పా
పాం
పి
పిం
పీ
పు
పూ
పె
పే
పై
పొ
పొం
పో
పౌ
ప్తు
ప్ప
ప్పి
ప్పిం
ప్పు
ప్ర
ప్రా
ప్రాం
ప్రి
ప్రీం
ప్ల
ఫ
ఫి
ఫు
ఫ్ఘా
ఫ్ట్‌వే
ఫ్రా
బ
బం
బా
బాం
బి
బీ
బు
బూ
బె
బెం
బే
బై
బొ
బౌ
బ్డే
బ్దం
బ్ది
బ్యా
బ్ర
బ్రా
బ్రి
బ్రె
భ
భం
భా
భి
భిం
భు
భూ
భౌ
భ్య
భ్యు
మ
మం
మా
మాం
మి
మిం
మీ
ము
ముం
మూ
మె
మెం
మే
మై
మైం
మొ
మో
మౌ
మ్ 
మ్మ
మ్మూ
మ్య
మ్యా
మ్రా
మ్‌,
య
యం
యా
యాం
యి
యిం
యీ
యు
యూ
యో
ర
రం
రా
రి
రిం
రీ
రు
రూ
రె
రెం
రే
రై
రొ
రో
రోః
ర్ 
ర్)
ర్,
ర్:
ర్కె
ర్కొ
ర్కొం
ర్క్ 
ర్క్‌టి
ర్గ
ర్గం
ర్గా
ర్గీ
ర్ఘ
ర్చు
ర్జా
ర్జె
ర్టి
ర్టీ
ర్టు
ర్ణ
ర్ణం
ర్ణా
ర్ణిం
ర్త
ర్తా
ర్తి
ర్తిం
ర్తె
ర్థ
ర్థా
ర్థి
ర్థ్యం
ర్దూ
ర్ధి
ర్ప
ర్పా
ర్పు
ర్భ
ర్మి
ర్మిం
ర్మే
ర్య
ర్యం
ర్యా
ర్రి
ర్ల
ర్లు
ర్వ
ర్వం
ర్వా
ర్వీ
ర్వో
ర్వ్య
ర్శ
ర్శిం
ర్ష
ర్షం
ర్షా
ర్షి
ర్సిం
ర్సీ
ర్‌)
ర్‌ల
ర‌
ల
లం
లా
లాం
లి
లిం
లీ
లు
లె
లెం
లే
లై
లో
లౌ
ల్ 
ల్,
ల్గి
ల్తా
ల్దీ
ల్ప
ల్పం
ల్పిం
ల్పు
ల్పే
ల్పో
ల్యం
ల్ల
ల్లా
ల్లి
ల్లిం
ల్లీ
ల్లు
ల్లూ
ల్లె
ల్లో
ల్వా
ల్వే
ల్స్ 
ల్‌ 
ల్‌కా
ళ
ళం
ళా
ళి
ళు
ళూ
ళ్ల
ళ్ళ
ళ్ళు
వ
వం
వా
వి
విం
వీ
వీం
వు
వుం
వూ
వృ
వె
వే
వై
వో
వ్య
వ్యా
వ్య‌
వ్వ
వ‌
శ
శం
శా
శి
శీ
శె
శే
శై
శో
శ్,
శ్చి
శ్మీ
శ్ర
శ్రా
శ్రీ
శ్లో
శ్వ
శ్వా
శ్‌ 
శ్‌ల
ష
షం
షా
షు
షే
ష్ 
ష్కు
ష్ట
ష్టం
ష్టి
ష్టు
ష్ట్యా
ష్ట్ర
ష్ట్రా
ష్ణ
ష్ణా
ష్పం
స
సం
సా
సాం
సి
సిం
సు
సూ
సె
సే
సై
సౌ
స్ 
స్,
స్.
స్క
స్కృ
స్ట
స్టా
స్ట్ 
స్త
స్తా
స్తాం
స్తీ
స్తు
స్తుం
స్తూ
స్తృ
స్త్ర
స్త్రం
స్త్రీ
స్థ
స్థా
స్థి
స్థీ
స్థూ
స్థ‌
స్య
స్యం
స్రా
స్రి
స్లా
స్లిం
స్లే
స్లో
స్వ
స్వా
స్వీ
స్వే
స్సా
స్సీ
హ
హం
హా
హి
హిం
హు
హె
హే
హై
హొ
హో
హ్నా
హ్మ
హ్రా
హ్వా
ṅ
ṇ
ṣ
ṭ
Ἰ
–
—
‘
’
“
”
†
′
₹
▁
e▁
र▁
,▁
র▁
th
के▁
లు▁
▁ভা
an
▁के▁
లో▁
▁ভার
s▁
में▁
భార
য়▁
in
▁में▁
న▁
ও▁
d▁
ది.
ত▁
er
त▁
భారత
भार
▁అ
ক▁
on
क▁
దేశం
ন▁
the▁
न▁
గా▁
▁এ
en
और▁
క▁
▁ও▁
ar
की▁
య▁
▁ভারতে
al
▁है
▁ప్ర
ল▁
st
का▁
ల▁
টি▁
y▁
य▁
లు,▁
▁অ
di
से▁
తీయ▁
▁বি
at
▁भार
▁ప
তীয়▁
or
▁और▁
భారతదేశం
▁আ
ed▁
▁अ
యి.
▁সা
▁the▁
▁है।
ను▁
▁স
In
ल▁
▁వ
▁হ
and▁
ने▁
దేశా
▁ভারতের▁
of
▁की▁
▁ఇ
▁ক
a▁
▁स
▁రా
▁প্র
re
▁क
▁మ
য়।
ion
▁का▁
త▁
ই▁
it
▁प
ని▁
▁উ
Indi
▁से▁
▁పా
▁ভারতীয়▁
ic
▁हैं
▁1
▁ভারত▁
ing
▁त
▁ఆ
গুলি
of▁
▁को
▁క
র▁ম
al▁
या▁
▁వి
▁প
t▁
तीय▁
▁సం
▁সালে
om
▁भारत▁
దేశ
র▁অ
to
▁ब
ఉన్నా
১৯
an▁
19
రు.
ত▁হ
ur
एक▁
▁త
র▁স
as▁
था▁
▁స
থেকে
in▁
भारत▁
భారతీయ▁
▁ব
ec
▁आ
▁కా
কটি▁
ing▁
▁प्र
కు▁
▁দে
es▁
▁रा
తో▁
▁শ
er▁
इस
▁జా
জন
ou
▁हैं।
▁భారత
▁(
ion▁
▁उ
▁భారతదేశం
▁রা
to▁
▁सं
:▁
▁করে
is
▁भारत
రు▁
তিক▁
s,▁
▁जा
లలో▁
▁এবং
ly▁
कार▁
00
▁নি
st▁
▁कि
ఉన్నాయి.
▁বা
th▁
▁वि
నికి
▁১৯
ent
▁को▁
▁ఉం
রকা
il
या।
ది▁
ত।
Th
▁हु
వ్యవ
ম▁
em
▁पर▁
▁దేశం
▁পা
h▁
जन
▁ర
ছে।
am
साथ
కూడా
র▁মধ্যে
ol
१९
మొద
ধান▁
ul
▁भारतीय▁
ర▁
মহা
is▁
देश
వ్యవస్థ
২০
▁Th
भाषा
చింది.
▁সং
India▁
তার▁
s.
दक्षि
▁2
র▁এ
ri
▁के▁साथ
▁ఎ
▁হি
li
दक्षिण
▁ఒ
ন।
for
म▁
▁జ
র▁উ
as
▁तथा▁
▁ద
করে
ern
पर▁
▁మా
পরি
ow
बाद
▁సా
র▁প্র
ra
रूप
▁అధి
▁ই
ent▁
▁के▁अ
▁జాతీయ▁
▁না
el
20
మైన▁
রণ
by▁
कर▁
రైలు▁
সংখ্যা
▁The▁
▁ने▁
లను▁
▁থেকে
India
जिस
▁దేశా
▁এই▁
ir
बसे▁
▁పే
▁হল▁
con
भी▁
▁వా
দের▁
यह
చ్చింది.
▁মা
of▁the▁
▁ग
తో▁కూ
▁সালে▁
Indian▁
▁र
నాభా
ক্ষম
ch
▁व
పు▁
দেশে
si
▁हो
ప్రాంతా
),▁
op
ता▁है।
లు.
ব্যব
su
रण
హిందూ
য়ে▁
ag
▁ए
▁భారతీయ▁
রতে
du
▁सा
▁ఉంది.
▁ভাষা
ov
भारत
0▁
ত▁হয়।
wi
शास
;▁
দেশ
ea
▁19
ఉన్న
নের▁
▁and▁
है।
డిన▁
বৃহ
et
▁इस
పెద్ద
ভূমি
un
भारतीय▁
భాష
▁পরি
ex
▁कर
ర్గాలు▁
▁শতাং
wh
▁के▁बाद
లకు▁
▁হয়।
's▁
▁के▁लि
లోని▁
জাতীয়▁
रकार▁
▁చ
ভাবে
iv
▁म
▁మధ్య
▁দেশে
ic▁
▁श
উপ
ist
▁भारत▁के▁
క్కువ
কে▁
en▁
राज
చిన▁
গণ
de
▁है,▁
యాలు▁
নৈতিক▁
in▁the▁
अधि
రువా
ন▁ও▁
or▁
राज्य
వాణా
পূর্ব
was▁
▁१९
▁ఈ
রমা
,▁and▁
▁तक▁
▁చే
▁প্রা
,▁the▁
रिक▁
▁২০
cl
सबसे▁
▁అయి
▁উপ
ear
▁न
▁దక్షి
▁সম
im
▁ప్రపం
দক্ষি
ut
क्षेत्र
క,▁
বৃহত্ত
ac
धर्म
కటి
য়েছে
ong
पूर्व
కాంగ్రె
যুক্ত
ab
या▁ग
జకీ
র▁আ
sp
सेना
దిన▁
শিয়া
ang
००
ధాన▁
▁একটি▁
oc
▁इ
నది.
▁বিশ্বে
rom
▁एक▁
నాలు▁
▁শতাংশ
ad
ई▁
న్ని▁
-এ
ation▁
देशों
ప్రదా
ঞ্চল
o▁
धान
భారతదేశంలో▁
দশ
▁A
सम
ముఖ్య
ন▁করে
est
▁यह
మొదటి
ব্যবস্থা
ce▁
▁भारत▁में▁
రణం
রাষ্ট্র
us
बंध
లో▁అ
র▁বি
ig
मुख
▁చెం
সরকা
pl
▁दि
▁శ
▁জ
ere▁
▁पा
▁అధికా
▁এই
ern▁
▁प्रा
▁తరువా
জনসংখ্যা
with▁
न▁में▁
▁పరి
ন্যান্য
▁In
लग
▁రాష్ట్రా
রিক▁
ha
शासन▁
▁వచ్చింది.
র▁মধ্যে▁
has▁
हिन्दी
ল্লেখ
par
ई।
,▁మ
▁কো
ver
चीन▁
ఉత్త
▁১
co
तक▁
ఏర్ప
▁অব
from
ते▁हैं।
కూడా▁
ঞ্চলে
भारत▁में▁
కేంద్ర
তি▁
ed▁by▁
री▁
క్రీడ
দক্ষিণ
ill
शिया
క▁సం
ধান
ma
सार▁
గల▁
ধিক▁
es
▁करो
గా,▁
ফলে
ich▁
▁सम
చిన్న
বৃদ্ধি
tion
▁है▁
జరి
মাল
com
)▁
తర▁
র▁ভা
ro
कर
తి▁
শাস
all
था।
త్యధి
স্বাধী
ally▁
दश
దారు
▁দি
ation
ना▁
నగ
▁যা
res
सद
నిమా
▁ভারতে▁
▁of▁
▁जन
నుండి
▁সরকা
be
▁कर▁
ప్పటి
)।
ca
▁के▁अनु
భారతదేశ
কাপ
um
▁के▁लिए
మంత్రి
ক্ষমতা
which▁
▁बहु
రాలు▁
ক্ষেত্রে
and
,▁और▁
రిత్ర
ছিল
cont
अंग्रे
రెండు
টব
es,▁
उत्त
లతో
তম
mo
कारण
లతో▁కూ
তান্ত্রি
rit
किस्ता
లుగు
তে▁
s▁of▁
केंद्र
లో,▁
নিক▁
ical▁
ग▁
వాణా▁
প্রতি
le▁
चुना
సినిమా
যদি
ud
जाति
సియా
যোগ্য
at▁
तथा▁
స్కృతి
রে▁
ult
तंत्र
స్థానం
▁ন
y,▁
तिक▁
▁కో
▁করে।
ate▁
नाम
▁ని
▁বিশ্ব
ies▁
निर्मा
▁పం
উত্ত
its▁
या▁है।
▁భార
একটি▁
sh
व्यव
▁రైలు▁
এবং
India's▁
▁भारत▁की▁
▁శా
কালে
lar
▁में▁भारत▁
▁పార్టీ
কেন্দ্র
os
,▁जिस
▁ప్రభు
গত▁
ter
न▁के▁
▁భారతదేశ
ছাড়া
to▁the▁
निक▁
,▁ఇ
ত,▁
cent
नी▁
,▁త
পশ্চি
der
बहु
ఉప
বিশ্বে
est▁
भाषाओं
కోవ
বৈচি
oun
भूमि
గిన▁
ভিন্ন
se
महा
గీతం
মরিক▁
were▁
मंत्री
జకీయ▁
য়েছে।
wor
मान▁
ఢిల్లీ
রমাণু
mar
सरकार▁
దేశానికి
র▁সঙ্গে
on▁
▁ज
ద్ధి▁చెం
লিক▁
id
▁मि
నడి
ল্লেখযোগ্য
ted▁
▁ह
పతి
শন▁
are▁
▁अप
బహు
হিনী
econ
▁करोड़
భిన్న
০০
form
▁हुआ
ముఖ
▁র
larg
▁है▁और▁
రణ
▁এছাড়া
ain
अधिक▁
రాష్ట్ర
▁এশিয়া
from▁
ग्रेस
లు,▁ప
▁সালের▁
gen
चुनावों
ల▁జా
ওয়া
ts▁
प्रमुख
విధ
ক্রিকে
▁In▁
बना
సింది.
গুলি▁হল▁
e.
बीच
సౌక
জনপ্রি
for▁
मान
స్వతం
ট▁
gh
मैदा
హదారు
তন্ত্র
lat
ली▁
▁అనే
তান্ত্রিক▁
low
व्यवस्था
▁కలి
দ্বীপ
ure
ष्ट्रीय▁
▁కాలం
নীতি
सित▁
▁జనాభా
ফুটব
ial▁
स्वतंत्र
▁దక్షిణా
বায়ু
ing▁the▁
▁देश
▁పాకి
বাহ
ism
▁२
▁పేరు▁
মধ্য
ity▁
▁के▁दश
▁ప్రముఖ
মালা
min
▁राज्यों
▁రకా
মে▁
pp
▁वर्ष
,▁ఈ
রাজ্য
00▁
201
..
র্কিন▁
ar▁
उप
ఇండి
র্থনৈতিক▁
end
कॉंग्रेस
ఇండియా
র্বত
ass
थी।
ఒక▁
র▁একটি▁
cre
द्वारा
కాంగ్రెసు
শিল্প
ed
नहीं
క్కువగా▁
সঙ্গী
es.
निर्माण
క▁వా
স্থাপ
ive▁
नेतृ
చీన▁
স্বাধীন
per
या,▁
చైనా
▁চ
ve▁
योग
జనాభా
▁ত
Hin
रूप▁में▁
టుంది.
▁রাষ্ট্র
ment▁
लय▁
ట్టణా
▁১৯৯
%▁
लोक
తము
,▁যা
Ch
विश्व
తర
-এর▁
ay
समा
తాబ్దం
ঐতি
and▁the▁
सैन्य
తావ
কংগ্রে
bec
हैं।
తావరణం
কারী
e,▁
▁मु
త్యధిక▁
ত▁অ
econom
▁के▁प
ధాన
থেকে▁
i▁
▁के▁अनुसार▁
ధానమంత్రి
দেশের▁
overn
▁के▁बाद▁
న,▁
পর▁
reg
▁राज
నడిపిం
পূর্ণ
ter▁
▁राज्य
న్నాయి.
ফুটবল▁
af
▁हैं,▁
పరి
বাস
ak
,▁भारत▁
పార్టీ
যদিও▁
ary▁
कार्य
పాల
যুক্তি
bo
गण
పాలి
র-
ct
त▁कि
పెద్ద▁
র্তমা
nor
धान▁
ప్రాచీన▁
র্বতমালা
▁B
धानमंत्री
ప్రాంతాలు▁
র▁ও▁
a,▁
न्याया
బితా
র▁ফলে
centur
पाकिस्ता
బెంగా
সংস্কৃ
in▁19
माणु
భారతదేశం▁
সাবে
mill
म्राज्य
మార్గాలు▁
▁গ
tr
या▁जा
మొత్తం
▁তা
y.
र-
రిహ
▁লা
▁India▁
रब
రిహద్దు
▁উৎ
रमाणु
రైల్వే
▁দেশ
CE
रूप▁से▁
లవు
▁প্রতি
ast
र्थिक▁
లుగా▁
অন্যান্য
ame▁
लर▁
లు▁(
ইউ
anc
स▁
లోని
ক্রিকেট
any▁
संख्या
లో▁జరి
খেলা
ated▁
▁धर्म
ల▁జాబితా
গণতান্ত্রিক▁
ed▁by▁the▁
▁पूर्व
వంటి
চার
gr
▁या▁
వాణా▁సౌక
চীন
n▁
▁हि
స్వాతం
চীন▁
stit
▁के▁बीच
▁అం
ডলা
tra
▁के▁रूप▁में▁
▁భాష
ধর্ম
angu
▁प्रति
▁ల
নে▁
anguag
▁विश्व
▁లో
পরমাণু
ely▁
▁सरकार▁
▁హిందూ
বা▁
govern
,▁जो
▁అభి
বৃহত্তম
por
0▁के▁दश
▁ఇవి
মন্ত্রী
sub
200
▁ప్రజ
য়ন▁
up
अप
▁ప్రస్తు
য়ের▁
bu
ईसा
▁ప్రపంచ
র,▁
ir▁
ओर▁
▁రాజ్యా
র্কিন▁ডলা
pop
काल▁
▁వ▁శ
র▁(
pr
कास
▁వ▁శతాబ్దం
র▁মা
Hindu
क्षेत्री
%),▁
র▁অব
ch▁
क्षेत्रीय▁
,00
র▁প্রধান▁
e▁of▁
ताब्दी
,▁19
ল▁ও▁
fir
दर▁
,▁అ
শক্তি
i,▁
द्वीप
,▁ఇం
শীয়▁
incl
धिका
,▁క
শেষ
languag
धीरे
,▁భారతీయ▁
সম্প
minist
नेतृत्व
01
সেবে
og
पश्चि
ఉంది.
১.
ong▁
भाज
ఎన్నో
৫০
sc
मध्य
కారం
▁খ্রি
year
या▁और▁
కాలు▁
▁জাতীয়▁
▁I
युक्त
కుటుం
▁দা
dec
रका
కు▁పై
▁নে
fl
रंप
కు▁పైగా▁
▁অনু
it▁
र▁पर▁
కేంద్రపాలి
▁নির্বা
pri
शेष
కేంద్రపాలిత▁
▁বছ
popul
सबसे▁ब
క్షరా
▁ভারত
qu
हले
క్షరాస్య
▁রাজ
stitut
క▁వ్యవస్థ
▁২০০
the
▁ना
గంగా▁
কংগ্রেস
worl
▁ने
గా▁19
কেন্দ্রী
▁S
▁मा
చుకోవ
কেন্দ্রীয়▁
Sou
▁में
జాతీయ▁
ক্ষর
duc
▁१
జాస్వా
গঠ
ed▁in▁
▁अन्य
జాస్వామ్య
গঠি
ext
▁एशिया
టాయి.
গুলির▁
first▁
▁के▁चुनावों
టారు.
ছিল▁
includ
▁के▁लिये
టిలో▁
ছিল।
lig
▁बना
డవ
জন্য
north
▁रहा
డు▁
থম
part
▁शताब्दी
ణ▁
থাকে
rat
196
తున్న
দেশি
sy
ई▁है।
త్రం▁
ধ্রুপ
▁M
उत्तर▁
దేశం▁
নশী
Asi
कई
ధించిన▁
প্রজা
ance▁
का▁और▁
నప్పటి
বস
ans
कि▁
నవ
বাংলা
dur
कुछ
నవి
বিক▁
eg
कुल▁
నాయ
বৃহত্তম▁
elec
गर▁
నిక▁
বেশ
ous▁
गंगा
నిర్వ
বৈচিত্র্য
sou
गणराज्य
నులు,▁
ম,▁
spec
चार▁
నుండి▁
মান▁
str
च्च▁
న్నారు.
যুক্তরা
ther▁
टिश
పూ.
রাষ্ট্র।
we
ता▁
ప్రధాన▁
র▁ক
west
ती▁है।
ప్రపం
র▁হা
w▁
दोनों
బెంగాలీ
র▁অধি
1▁
न,▁
బ్రిటి
র▁মধ্য
India.
न▁के▁साथ
భాగం
র▁সম
be▁
ना▁जा
భారతదేశానికి
শাসি
became▁
निभा
భారత▁
সদ
dh
ने▁का▁
మతా
সামরিক▁
erv
ने▁की▁
మలు▁
স্বাধীনতা
e▁and▁
बढ़
ము.
১▁সালে▁
gh▁
बर▁
ముఖ్యమైన▁
▁কা
ment
बंधन▁
మూడు
▁কি
mor
ब्रिटिश
రత
▁পু
mod
भूमिका▁
రస
▁অন্য
ough▁
राष्ट्रीय▁
రంగా
▁এক
stem
लगभ
రైళ్ల
▁দেখা
system
वायु
రోడ్డు
▁প্রধান▁
s▁and▁
स,▁
ర్వీసు
▁হিসাবে
ast▁
सभा
లతో▁కూడిన▁
▁হিসেবে
av
स्कृति
లు▁అ
-অ
art
स्थान▁
లు▁ఎ
উড
contin
स्थित▁
లు▁ప్ర
ক।
creas
स्वतंत्रता
లు▁భారతదేశంలో▁
করা
enc
లో▁మా
কাল▁
fe
▁देशों
లో▁జరిగిన▁
কাশ
gener
▁भी
ల్లో▁
কাংশ
have▁
▁से
వంట
গুলো
io
▁हा
వాణా▁సౌకర్యా
ঘাট
into▁
▁इसके▁
సర్వీసు
চলি
ion▁of▁
▁के▁वि
సాంప్రదా
ঞ্চলিক▁
ish▁
▁यह▁
స్తారు.
টিশ
me
▁सबसे▁
హదారులు,▁
থিবী
pre
▁हुए
–▁
দুই▁
pro
▁१९९
▁ఏ
ধারণ
so▁
,▁अ
▁క్రీ
ধানমন্ত্রী
them
ईसा▁पूर्व
▁చిన్న
ন,▁
th▁centur
काल
▁సినిమా
নিক
,▁which▁
गति
▁అభివృ
নৃত্য
Cong
च्च▁न्याया
▁అయిన▁
পতি
Congres
जिन
▁ఆర్ధి
পশ্চিম
Em
जी▁
▁ఇది▁
পাঁচ
also▁
ट▁
▁ఎన్నో
পৃথিবী
bl
ठबंधन▁
▁కను
বছ
been▁
ती▁हैं।
▁చరిత్ర
বাদ
but▁
ते▁हैं
▁పేరు
বাহিনী
cast
त▁की▁
▁ప్రతి
ব্রিটিশ
comm
थिया
▁ప్రధానమంత్రి
ভাগ
dition
धिकारिक▁
▁ప్రధాన▁
ভার
ed▁to▁
धुनिक▁
▁ప్రపంచం
য়,▁
fic
ने▁के▁
▁ప్రభుత్వం
য়▁বি
had▁
ने▁में▁
▁ప్రస్తుతం
র।
me▁
पूर्ण
▁మధ్య▁
রও▁
most▁
प्रमुख▁
▁మార్గాలు▁
রব
ni
भाजपा
▁రాజకీయ▁
রাজ
ok
भूमिका▁निभा
▁వచ్చి
র▁সা
on▁the▁
मिल
▁వివిధ
র▁অন্য
over
मेरि
▁సభ
লনা
ph
यास
).
লবায়ু
relig
युद्ध
লিয়ন▁
such▁
रक्षा
,▁గో
লোক
रह
.పూ.
ল▁অ
ay▁
रंपरा
17
সব
ans▁
लन▁
47
সভা
cor
लगभग▁
;▁మ
সাগ
ding▁
लित▁
ఆర్థి
সিন্ধু
dev
विधान
ఆర్ధి
১৯৯
ef
शासित▁
ఈ▁
▁বৃদ্ধি
eng
समाज
ఉంటుంది.
▁বৈ
increas
स्थाप
ఉత్తరా
▁ব্যা
ions▁
हुआ
ఉన్నారు.
▁যদিও▁
maj
है▁
ఉపఖం
▁অঞ্চল
more▁
▁पु
ఒకటి
▁অন্যদি
ne
▁अमेरि
కత
▁অবস্থি
num
▁अरब
కంగా▁
▁আই
our
▁उत्त
కంటే
▁এটি▁
ome▁
▁और▁अ
కంపె
▁করা
pol
▁किया।
కంపెనీ
▁বর্তমা
rul
▁के▁नेतृत्व
కాలం
▁ভারতীয়▁উপ
serv
▁के▁प्र
కాంగ్రెసు▁పార్టీ
▁ভারতের▁প্র
s,▁and▁
▁के▁चुनावों▁में▁
కింద
▁রাজ্য
stat
▁के▁साथ▁
కీ,▁
▁২০১
such▁as▁
▁प्रकार▁
కులు▁
-এর▁দশ
tw
▁भारत▁का▁
కుంటారు.
.৮
with
▁संबंध
కేవ
আই
world
▁साल▁
కేంద్ర▁ప్రభుత్వం
ইল
▁b
▁हथिया
కేంద్రపాలిత▁ప్రాంతాలు▁
ইংরে
South▁
000
కేవలం
ইংরেজি
ant▁
కోర్టు
উত্তর-
coun
करण
క్కువ▁
ঐতিহ্য
clear
क▁में▁
క్యాలెం
কাধিক▁
dom
की।
క్యాలెండ
কিস্তা
ep
को▁
క్రమా
কূল
gre
गांधी
క్షణా
কৃষি
government▁
जनजाति
క్షరాస్యత▁
কেন্দ্রশাসি
grow
डॉलर▁
గరి
কেন্দ্রশাসিত▁অ
igh
तथा
గలు▁
ক্ষণ
largest▁
तर▁
గరికత
ক্ষেত্র
lim
तिहा
గాంధీ
ক▁অ
me▁minist
तीस
గా▁ఏర్ప
গত
million▁
दक्षिण▁में▁
గా▁వ
গঠন▁করে
pe
देशी
గుర్తిం
গতভাবে
prime▁minist
ना▁प
గ్లాదే
চিত▁হ
ric
ने▁वा
చబ
চ্চিত্র
south
पश्चिम
చారు.
জাতি
two▁
पालि
చాల
জীব
ural▁
प्रदेश
చాలా
জেপি
▁D
प्रधानमंत्री
చి,▁
ণবিক▁
Congress▁
प्राचीन▁
చిన
ণিজ্য
Emp
प्लेट
చ్చు.
তম▁
after▁
भाव
జన
তাব্দী
ant
म,▁
జన్మ
তিহা
ber▁
मत▁
జంబూ
তৃতীয়▁
beg
यन▁
టర్ల
থাকে।
cult
या▁गया।
ట్టమొదటి
দর্শ
comp
राष्ट्र
డతా
দুটি▁
diver
राजनी
డా▁
ধর▁
e-
र▁आ
డింది.
নও▁
ever
लावा
డిన▁ప్ర
নদী
ed▁the▁
वल▁
డుకు
নাম
ence▁
वाद
ణిజ్య
নীয়▁
etwe
वादी
తకాలు▁
ন্তর্জা
etween▁
विधान▁
తం,▁
ন্তর্জাতিক▁
e▁in▁
वीं▁शताब्दी
తి,▁
ন্দোল
e▁the▁
शांति
తీయు
পূর্বা
is▁the▁
शुरू
తుంది.
পূর্বে
ld▁
सबसे▁बड़ा
తెలుగు
প্রাণী
modern▁
समय▁
దక్షి
বর্ধ
no
स्तृत▁
దన
বহু
od
हरी
దాదా
বাসী
sin
हर▁
దాయం
বৈশি
soc
▁द्वारा
దినాలు▁
বৈশিষ্ট্য
speci
▁भा
దేశాలలో▁
ভক্ত
tec
▁भाषाओं
ద్ధతి
ভাগে
to▁be▁
▁य
ద్వారా
মার্কিন▁ডলা
tradition
▁सेना
నది▁
মিটা
urb
▁हिन्दी
నలో▁
মুস
vi
▁195
నగరా
মোট▁
%▁of▁
▁196
నడిపించ
য়▁অ
▁अम
నాగరికత
রমাণবিক▁
1.
▁एवं
నాలుగు
র্বাধিক▁
India,▁
▁के▁आ
నుకటి
র্যন্ত
Un
▁के▁नेतृत्व▁में▁
నుంచి
র▁অন্ত
arm
▁गए
నేపా
র▁উপ
ational▁
▁पार्टी
న్,▁
র▁এক▁
ber
▁बहुत▁
న్నిక
র▁ভারতে
both▁
▁महा
న్యాయ
লচ্চিত্র
caus
▁में▁ब
న▁ప్ర
লাভ
e▁of▁the▁
▁संघ
న▁స
লিয়ন▁মার্কিন▁ডলা
fol
▁हुआ।
పాదన
লোমিটা
ish
%▁या▁
పురు
শ▁শ
nu
పురుషు
শাসন
pt
,▁१९
ప్రదాయాలు▁
সমা
ru
,▁जिसमें▁
ప్రపంచ
সংক্রা
region
1▁में▁
ప్రారం
সংস্কৃতি
this▁
బడతా
সঙ্গীত▁
their▁
अंग्रेज़ी
బంగా
সাধারণ
t▁of▁
आर्थिक▁
బంగ్లాదే
স্থাপত্য
▁C
इन▁
బహుళ
হিন্দু
▁Af
इसके▁
భాషా
২৮
▁In▁the▁
ई▁और▁
మతి
২০০
202
उन
మంది▁
৪.
Brit
ऋतु
మాఖ్య
৭%
Bud
क,▁
మాబా
▁যু
Pak
काम
మాల
▁শিল্প
Pakist
काल▁में▁
మిళం
▁সে
app
की▁डॉलर▁
ముద్ర
▁অঞ্চলে
ament
केन्द्र
ముద్రం
▁অর্থনৈতিক▁
ation▁of▁
केवल▁
ముంబై
▁উল্লেখযোগ্য
class
क्षेत्र▁में▁
మేన
▁এর▁
divers
गत▁
మైనది.
▁এছাড়াও▁
ev
जरा
మొట్టమొదటి
▁ও▁আ
erg
जलो
మొత్తం▁
▁নাম
from▁the▁
जलोढ़
మొదలై
▁পর্বতমালা
gl
जीव
యింది.
▁পরিণ
k▁
ड़ोसी
య▁నాగరికత
▁পাকিস্তা
lif
ता▁है,▁
రంగం
▁বহু
many▁
ता▁है▁
రంగా▁
▁ভাষায়▁
ous
त्पाद
రాష్ట్రపతి
▁শতাংশ।
port
दक्षिण▁एशिया
రిగా▁
▁সক্ষম
ral▁
दृष्टि
రుపు
▁সহ
rib
द्योगि
రైళ్లను▁
▁সংর
sid
धिकार▁
ర్,▁
▁সরকার▁
that▁
ध्यम
ర్యక్రమా
▁হয়▁
und
निर
లకు
▁হিন্দু
with▁the▁
न▁का▁
లను
▁১৯৭
▁India's▁
परमाणु
లన▁
)▁ও▁
▁India▁has▁
पर्व
లతో,▁
আজ
पहा
లను▁క
ইন্দো
50
पीय▁
లిగి
উড▁(
Buddh
प्रैल▁
లు:▁
এল
Eur
फल▁
లు,▁కు
কগুলি
all▁
भरा
లు,▁మ
কর
ari
भिन्न
లు▁భారతదేశ
করণ
a▁and▁
मन▁
లేదా
করে।
between▁
मालय▁
లో▁ఏ
কের▁
et▁
यर▁
ల్,▁
ক্রমে
economic▁
युग
వత్స
ক্রয়
ed▁a▁
यूरो
వరాలు▁
ক্রিকেট▁বিশ্ব
ell
यूरोपीय▁
వీటిలో▁
ক্ষরতার▁
election
रम्भ
వెనుకటి
ক্ষিত▁
es▁of▁
रहा
వైవి
খাতে
exp
राज्यों
వ్యాపా
গিতা
har
र्थव्यवस्था
శాఖ
গুরু
ist▁
र▁कर
శెలవు
গুলির▁মধ্যে
il▁
लवायु
శ్రమలు▁
গোষ্ঠী
land
लाख
సరిహద్దు
গ্রহ
lit
लाँकि
సంప్రదాయాలు▁
ঘল▁
ob
लीन▁
సర్వీసులు▁
চনা
olog
वरी
సార
চারে
on-
वंश
సాంస్కృతి
জয়ী
pow
विज
సాంప్రదాయి
জলবায়ু
rol
व्यापा
స్తాన్▁
জনপ্রিয়▁
rea
सफल▁
స్త్రీయ▁
জোট
tim
स▁के▁साथ
స్థానంలో▁
ঞ্চলগুলি
war
संघ
స్లామాబా
ণ▁
western▁
संयुक्त
స్వతంత్ర
ত▁ভারতের▁
world's▁
संस्कृति
హిమాల
তৃত্বে
years▁
साम्राज्य
హించింది.
ত▁ও▁
▁E
सेवा
హిందీ
ত▁হয়েছে
▁It▁
स्वरूप
▁"
দক্ষিণ▁এশিয়া
,0
हयोग
▁7
দান▁
,▁and▁the▁
हरा
▁ఇం
দাল
18
हुए
▁ఉన్న
দেশিক▁
Con
२.
▁ఉన్నాయి.
ধারা
Ind
–▁(
▁ఐ
ধ্যুষি
abl
▁-
▁గ
ধ্রুপদি
anges▁
▁ईसा▁पूर्व
▁గాంధీ
ন-
began▁
▁कुछ
▁ద్వీ
নগ
clear▁
▁गांधी
▁పూ
নিজ
cour
▁भाषा
▁ప్రాచీన▁
নিয়
constitut
▁वा
▁మూడు
নেতৃত্বে
danc
▁व्यवस्था
▁రెం
ন্ডিয়া
east
▁स्था
▁రెండు
পরিব
east▁
▁अप्रैल▁
▁లో▁
পার
ect
▁अब
▁వీటిలో▁
পৃথিবীর▁
fer
▁अमरी
▁స్వాతం
প্রযুক্তি
flu
▁इसी
▁–▁
প্রজাতন্ত্র
her
▁उन
▁(వెనుకటి
প্রাচীন
hum
▁उस
▁18
বিধান▁
ics▁
▁की▁ओर▁
▁197
বিংশ▁শ
ilit
▁के▁कारण
▁199
বুদ্ধ
imal
▁के▁अन्त
▁26
ভাব
influ
▁गया।
▁అతి
ভৌগো
int
▁दिया।
▁అతి▁
মুঘল▁
istor
▁नदि
▁అత్యధిక▁
মুসল
ited▁
▁प्रतिश
▁అధిక▁
মে▁আ
kh
▁प्राप्त
▁అధికారం
ম্পানি
lea
▁राष्ट्र
▁అనేక▁
ম্প্রদা
large▁
▁वर्षों
▁అభివృద్ధి▁చెం
যথা
liter
▁सक
▁ఆక్ర
য়তা
o-
▁सरका
▁ఆధా
য়▁এ
ot
▁संविधान
▁ఆర్ధిక▁వ్యవస్థ
যুগে
ough
▁संस्कृ
▁ఇతర
যুক্তরাষ্ট্রী
peop
▁समय▁
▁ఇతర▁
যোগিতা
since▁
▁से▁बढ़
▁ఇది
রণে
subcontin
▁हुई▁
▁ఎన్ను
রণ্য
ther
▁२००
▁ఒక▁
রত
ubl
);
▁కలిసి
রস্কা
ugh
,▁क
▁కాలంలో▁
রুষ
ure▁
,▁भारत▁ने▁
▁చేయ
রেখা
urban▁
15
▁జాతి
রের▁
▁By▁
6.
▁తరువాతి
রেশন▁
"▁
71
▁తరువాత▁
র্গত।
,▁India▁
अव
▁దక్షిణాసియా
র▁জন্য
1,▁
इन
▁దేశంలోని
র▁নেতৃত্বে
199
इंडि
▁దేశంలో▁
র▁অন্যান্য
;▁and▁
उपमहा
▁పద్ధతి
র▁অন্তর্গত।
;▁the▁
उपमहाद्वीप
▁పాత్ర
র▁অন্যতম
BCE
ए▁गए
▁పాకిస్థా
র▁মতো
British▁
ए▁जा
▁భారత్▁
র▁সঙ্গে▁ভারতের▁
Com
एक▁सं
▁భారతదేశంలో▁
লে▁বি
Chin
कसित▁
▁మత▁
লে▁বিবে
Mugh
क्रम
▁మహా
লোমিটার▁(
S$
क्षेत्र▁को▁
▁రకాల▁
শুরু
US$
क▁आ
▁రాజు
স,▁
a.
क▁और▁
▁రైలు▁సర్వీసులు▁
সফ
ain▁
गुप्त
▁వాతావరణం
সম
aw
घीय▁
▁శాస్త్రీయ▁
সংক্রান্ত
able▁
घोष
▁సభ్యు
সম্পর্ক
devel
घोषणा
▁సమ
সরকারি
develop
चला
▁సంకీ
সাহি
during▁
चीफ
▁సంస్కృతి
সাংস্কৃ
ement
छोटे
▁సాధిం
সাংস্কৃতিক▁
ett
छोड़
▁సామ్రా
স্থানীয়▁
follow
जब
",▁ఈ
হিন্দি
general▁
जहाँ
%▁ఆక్ర
১৭
histor
जिसके▁
,000
২.
ient▁
जैसे▁
,000▁
৪%
ically▁
तांत्रि
,000▁=
৪৫
increased▁
ते▁
,000▁=▁1
৬%
ire▁
ते▁हुए
,▁కృ
is▁a▁
थे।
,▁కో
▁ও
krit
दर्श
,▁నిర్వ
▁কাপ
long
दान▁
,▁భారతదేశం
▁গ্রা
mid
दार▁
,▁వి
▁জনসংখ্যা
mus
देखा
,▁197
▁দ
not▁
देव
,▁ఇతర▁
▁ধ
occ
देश▁में▁
,▁ఇంగ్లీ
▁বে
over▁
धानी
,▁ఇంగ్లీషు
▁ম
parli
धिक▁
,▁ఇతర▁ఖ
▁শি
perio
धीरे▁
,▁ఇతర▁ఖని
▁সি
sty
नव
,▁ఇతర▁ఖనిజా
▁সু
supp
नाम▁से▁
,▁ఈశా
▁ইউ
though▁
ना▁जाता▁है।
,▁ఈశాన్య
▁উত্ত
▁F
निवा
,▁కన్న
▁ও▁অন্যান্য
निरपे
,▁తమిళం
▁ও▁১৯৯
,▁a▁
निरपेक्ष
,▁నిర్వహ
▁কর্তৃ
2.
नेमा
,▁నిర్వహణ▁
▁কিলোমিটার▁(
4▁
न▁कि
-ఢిల్లీ
▁কোটি▁
5.
न▁ग
-లా
▁জন▁
5▁
पंजा
-ఢిల్లీ-లా
▁থেকে▁
8▁
पालिका▁
-ఢిల్లీ-లాహో
▁নির্বাচিত▁হ
Beng
पुर्त
.3
▁পর্যন্ত
Europ
पुर्तगा
.7
▁প্রচলি
Ma
पूर्वी
0%),▁
▁প্রযুক্তি
Mughal▁
पूर्व▁में▁
02
▁প্রাচীন▁
Pun
प्रभाव
0▁జ
▁বাণিজ্য
Punj
प्रयास
004
▁বিভিন্ন
Punjab
प्रारम्भ
0▁మంది▁
▁বিশেষ
aj
प्रौद्योगि
0▁జనవ
▁বিস্তা
age▁
बंगा
0▁జనవరి
▁বিশ্বের▁
alit
बहुत▁
0▁జనవరి▁26
▁মানু
anis
बार▁
▁যায়।
andh
भारत▁के▁
2,
▁রাজনৈতিক▁
anskrit
भारत▁का▁
25
▁শক্তি
ately▁
भारत▁की▁
3,
▁শহ
ations▁
भिया
30▁
▁সাহি
ce
माजि
4%
▁হয়ে
caste▁
माध्यम
42
▁হলে
countr
मानसू
5,▁197
▁১৯৫০
culture
मिल▁
50▁జనవరి▁26
▁১৯৮
dic
मुख्य
62
,৬
during▁the▁
यक▁
7,
,▁ভারতীয়▁
emerg
यन
,▁ভারত▁
empl
या▁गया▁
9▁రాష్ట్రా
,▁আ
enni
या▁गया▁है।
:▁సం
,▁ক
ennium
यों▁की▁
,▁তা
fi
र,▁
CEE
,▁নে
general▁election
रुआ
CEE▁7
-আ
ian▁
रों▁का▁
CEE▁7/
-ভার
including▁
र्यट
ఇతర▁
ion.
र्वोच्च▁न्याया
ఇండియా▁
later▁
ल,▁
ఇండియా▁కంపెనీ
;▁যা
milit
लगा
ఉంటాయి.
উচ্চ
mark
लना
ఉండ
উল্লেখযোগ্য
millennium
लय
ఉండటం
উৎ
non-
ली,▁
ఉత్తర
উৎসব
now
लोगों
ఉత్తర▁
এই▁
new▁
ल्तन
ఉత్తర▁భార
এবং▁
northern▁
वर्ग
ఉత్తర▁భారతం
ও▁ভারত▁
nuclear▁
वर्त
ఉపయో
কক্ষ
number▁
वर्ष
ఉపఖండ
কভাবে
offic
विदेशी
ఉపయోగి
করতে
ong▁the▁
विय
ఎక్కువగా▁
কল
ority▁
विस्ता
ఎన్నిక
কলা
ound▁
विश्व▁का▁
ఎన్ను
কেন্দ্রে
publ
शक्ति
ఏర్పడ్డా
কেন্দ্রীয়▁সরকা
parliament
शील▁
ఏర్పడ్డాయి.
ক্রম
power▁
शुरुआ
కత్వం
ক্রমে▁
rate▁
संविधान▁
కమైన▁
ক্রয়ক্ষমতা
ris
संसद
కరణ
ক্রয়ক্ষমতা▁সম
sur
साम
కళ
ক্ষণে
s,▁the▁
सिनेमा
క▁అ
ক্ষ▁
sig
सिंह
కా-ఢిల్లీ-లాహో
ক্ষরতার▁হা
ten▁
स्थापना
కాగా▁
ক্ষেত্রে▁
tur
ह▁
కాలే
ক▁ও▁
than▁
होता
కాహా
গঠন▁করে।
thr
०,
కాంగ్రెస్▁
গান্ধী
themat
०▁
కాంగ్రెస్▁పార్టీ
গুরুত্ব
ultan
१४
కాహార▁
গুরুত্বপূর্ণ
work
१८
కినీ
ঘট
y,▁the▁
२०
కిలో
ঘটে
,▁wh
५०
కిందకు
ঘাট▁পর্বতমালা
3▁
▁200
కిందకు▁వచ్చింది.
চলচ্চিত্র
An
▁घा
కిలోమీ
চালি
Himal
▁था।
కిలోమీటర్ల
চারটি▁
Himalay
▁थी।
కిలోమీటర్లకు▁పైగా▁
চিত▁
Indu
▁दो
కు,▁
জনপ্রিয়।
India▁and▁
▁ध
కుమా
জিডি
Pakistan
▁भूमिका▁निभा
కుల▁
জিডিপি
Sanskrit
▁मी
కుంటూ
ঞ্চল▁
Si
▁मैदा
కుటుంబ
ট্রফি
The▁
▁मो
కుటుంబా
ঠে।
among▁
▁लाख
కు▁పైగా▁జనాభా
ণিজ্যি
ash
▁सैन्य
కూడా▁క
তীয়
as▁a▁
▁अभिया
కూడా▁ఉన్నాయి.
তের▁
ates▁
▁अव
కూడా▁హిందూ
ত▁প্র
ation,▁
▁अपने▁
కేతి
ত▁হয়
car
▁अप्रैल▁19
కొని▁
ত▁হয়▁
cit
▁आर्थिक▁
కొన్ని
থম▁
col
▁उत्पाद
కొన్ని▁
থাক
classical▁
▁उसके▁
కోట్ల
থেকেই
cook
▁और▁19
కోబడతా
দস্য
cording▁
▁करोड़▁
కోబడతారు.
দ্বারা
dr
▁की▁सबसे▁
కోర్టులు▁
দ্বীপে
dire
▁के▁नाम▁से▁
క్కన▁
নব
disp
▁के▁स
క్టోర
নশীল▁
ean▁
▁जनजाति
క్టోరల్▁
নাধী
eh
▁जनसंख्या
క్టోరల్▁కాలే
নিম্ন
ed▁on▁
▁ने▁भारत▁के▁
క్రీడలలో▁
নির্বা
ed▁on▁the▁
▁परंपरा
క్రీడలు▁
নুমা
er.
▁पर्व
క్షరాస్యత▁8
নুমানিক▁
ered▁
▁पश्चि
క్‌సభ
নের▁কা
ers▁
▁प्रमुख
క్▁రైల్వే
ন▁(
ese▁
▁प्राचीन▁
క్▁స
ন▁অ
es▁and▁
▁बढ़
క్▁సభ
পরী
e▁in▁the▁
▁मिलि
క▁ఎన్నిక
পরে
fam
▁मुख्य
క▁వాణిజ్య
পর্বতমালা
fin
▁शक्ति
క▁వారస
পরিমা
feat
▁सद
క▁వారసత్వా
পিপি
for▁the▁
▁संस्कृत▁
క▁సంస్క
পীয়▁
gra
▁साम्राज्य
క▁సంస్కరణ
পেক্ষ
ies.
▁से▁अधिक▁
ఖ్యంగా▁
পেক্ষা
into▁the▁
▁है▁,▁
గమ
পোশা
influenc
▁होता▁है।
గలు
প্রধান▁
ing,▁
▁हो▁जा
గంగా
প্রায়▁
in▁India▁
%▁है।
గంగా▁అభివృద్ధి▁చెం
প্রাচীনতম
land▁
గంగా▁అభివృద్ధి▁చెందు
ফেডা
leg
గంగా▁అభివృద్ధి▁చెందుతున్న
ফ্রিকা
lin
,▁य
గల▁దేశం
বর্তী
mon
,▁जिसका▁
గల▁ప
বর্ষ
mov
00▁ईसा▁पूर्व
గాన్ని▁
বলি
main
0▁के▁दशक▁
గా,▁అ
বাদী
mathemat
1,
గా,▁ఉత్తరా
বিদ
major▁
గా▁భా
বিভাগ
military▁
గా▁వి
বিশি
nat
ia
గా▁భావి
বিংশ▁শতাব্দী
ned▁
अने
గుబా
বিশিষ্ট
no▁
अन्य
గువ
বিশ্বের▁
other▁
अर्थव्यवस्था
గుబాటు
বৈচিত্র্যে
ose▁
अंग्रेजी
గువ▁సభ
বৈচিত্র্যম
owever
अनेक▁
గువ▁సభను▁
ব্যবহৃ
people▁
अपनी▁
గెలు
ভাব▁বিস্তা
period▁
आग
గెలుచుకోవ
ভূখ
polit
आधिकारिक▁
గెలుచుకోవడం
ভৌগোলিক▁
prov
आगमन▁
గోళి
মহাদেশ
prime▁minister▁
इंदि
గోళిక▁
মাত্র
ron
इंदिरा
ఘర్ష
মান্ত
religi
इंदिरा▁गांधी
ఘర్షణ
মালয়▁
riv
इस▁
చయి
ম্প্রতিক▁
ribut
उसे▁
చవి
ম্রাজ্যে
ritor
उनकी▁
చయిత
য়ারি
sch
ऊँची
చారిత్ర
য়েকটি▁
sol
ऋतु▁(
చాలనే
য়ে▁গঠি
some▁
एन
చించిన
য়োজ
scri
एशिया
చించినట్లు
য়▁ব্যবস্থা
social▁
ओं▁के▁
చిన్న▁చిన్న
যায়ী
through▁
ओं▁को▁
చూడం
যুদ্ধ
under
कह
చూడండి
রপেক্ষ
uslim
का,▁
చెన్నై
রয়েছে
▁G
कारी
చెప్పు
রাজ্যে
▁Al
कृषि
చెందిన▁
রাষ্ট্রে
▁In▁19
क्रिय▁
చే▁
রিখে
%.
क्षण
చే▁ని
রিত▁
-largest▁
गठबंधन▁
చే▁నియ
রূপে
00▁BCE
गंगा▁के▁
చే▁నియమిం
রোধ
गीत▁
చే▁నియమించబ
র্থনীতি
26
गुजरा
చ్చని▁
র্যাদা
2011▁
चना▁
జరుపు
র▁সংখ্যা
चल
జల▁
র▁হ
Ar
चली
జంబూ▁ద్వీ
র▁অধিকাংশ
Comp
चल▁
జనతా
র▁আগে
Del
चीन
జనతా▁పార్టీ
র▁উৎ
Delh
जलवायु
జాద
র▁মর্যাদা
En
ज▁के▁
జాతీయ▁ర
র▁মাধ্য
Empire▁
जनसंख्या
జాతీయ▁రహదారులు,▁
র▁সরকা
Hinduism
जिन्हें
జాదరణ
লাভ▁করে
Is
जिनमें▁
జిక,▁
লীয়▁
Indo-
जिसमें▁
జ్య▁సభ
ল▁আ
Indian▁subcontin
जून▁
జ్యాంగం
শব্দ
Muslim
ट▁में▁
టీవ
ষণা
South▁Asi
टिबं
టైటి
ষেবা
Wor
टिबंधी
ట్లాడే
সমৃ
World▁
टेली
ఠభూ
সহ
ap
ड़े▁
ఠభూమి
সংবিধান▁
ack
डालर▁
డమ
সংস
agric
णाम
డవ▁స
সংস্কা
agricult
णामस्वरूप
డవ▁సహ
সরকার▁
alis
तना
డవ▁సహస్రా
সাগরে
ank
तमिल
డవ▁సహస్రాబ్ది
সাধারণতন্ত্র
arch
तांत्रिक▁
డానికి
সেনা
area
तीन▁
డివి
স্থাপি
art▁
तुलना
డి▁ఉం
হকি
at▁the▁
त्येक▁
డిన▁ప్రభు
০-এর▁দশ
bas
त्रण
డి▁ఉంటాయి.
১৯৮
bir
त्रिम
డు"
৩৫
by▁the▁
त्रिमण्ड
డుకుంటూ
৪৭
chang
त▁कर▁
డుగలు▁
৬.
consi
त▁संघ
డుకుని▁
৬▁
contribut
थी▁और▁
ఢాకా-ఢిల్లీ-లాహో
▁মহা
control
दल
ఢిల్లీ▁
▁মৌ
dance▁
दृष्टि▁से▁
ణతం
▁স্বাধীনতা
day▁
देख
ణతంత్ర
▁২
ded▁
देखा▁जा
ణతంత్ర▁రా
▁অনুযায়ী
dle▁
द्योग
ణతంత్ర▁రాజ్యం
▁অন্যদিকে
dep
धानमंत्री▁ब
ణాన▁
▁আঞ্চলিক▁
dit
नाग
ణులు▁
▁আদাল
di▁
निम्न
తను▁
▁আন্তর্জাতিক▁
diversity▁
निवे
తమై
▁আন্দা
domin
नीय▁
తరం
▁আন্দোল
eig
नेह
తర్జా
▁আবা
ey▁
ने▁से▁
తల▁
▁ইন্ডিয়া
early▁
ने▁का▁प्रयास
తంలో▁
▁উঠে
ed▁with▁
नैतिक▁
తర్జాతీయ▁
▁এই▁স
ement▁
नों▁पर▁
తిరు
▁এবং▁
ensu
नौसेना
తిరుగుబాటు
▁এশিয়ান▁
government
न्दू▁धर्म
తి▁వే
▁করতে
has▁been▁
न्दोलन▁
తి▁వేగంగా▁
▁করেন।
human▁
परि
తులు▁
▁কোম্পানি
ies,▁
पहले
తూర్పు
▁কোটি▁বছ
ire
पहुँ
త్మా▁గాంధీ
▁খ্রিষ্ট
illion▁
पंजाब
త్మా▁గాంధీ▁
▁তথ্য
inv
पास
త్మా▁గాంధీ▁నాయ
▁দিয়ে
loc
पाँच
త్రమే
▁দেয়।
language▁
पूरा
త్రిక▁ఎన్నిక
▁নিদর্শ
mad
पूरे
త్ర్య▁సమ
▁পরিণত▁হয়।
man
पेक्षा
త్ర్య▁సమరం
▁প্রধানমন্ত্রী
majority▁
प्राप्त
త్వ▁శా
▁প্রায়▁
ood
प्रौद्योगिकी▁
త్వాన్ని▁
▁বলে▁বিবে
olv
फैली
దగా▁వ
▁বর্তমানে
omet
फ्रीका▁और▁
దరా
▁বাহিনী
orig
बंधों
దవి
▁বা▁
out▁
बौद्ध
దక్షిణాన▁
▁বিগত▁
per▁
ब्रिटिश▁
దరాబా
▁বিজেপি
pres
भाग
దాయి.
▁বিলিয়ন▁মার্কিন▁ডলা
plac
भारत▁को
దావ
▁ভারতীয়▁জাতীয়▁
political▁
भाषाएं
దాదాపు▁
▁ভারত▁একটি▁
public▁
मत
దాయంలో▁
▁ভারত▁তার▁
rural▁
मंत्रिमण्ड
దికి
▁মাইল
reat
मिला
దినా
▁মানুষে
righ
मृद्ध
దింది.
▁রাষ্ট্রপতি
s▁(
मैदानी▁
దుగా▁
▁সঙ্গে
t,▁
मोह
దేశపు
▁সংবি
tech
मौर्य
దేశంలో▁
▁সংস
territor
य-
దేశం▁రూ
▁সংরক্ষণ
thir
य▁में▁
దేశం▁రూపాం
▁সরকার▁গঠন▁করে।
th▁and▁
ये▁
దేశాల▁
▁সামরিক▁
trans
रहे
ద్ధతు
▁সালের▁ক্রিকেট▁বিশ্ব
ular▁
राजनीतिक▁
ద్ధం▁చేయ
▁হয়েছে।
ures▁
रीक्षण
ద్యుత్▁
▁হয়ে▁
wom
रूस▁के▁साथ
నగణ
▁১৯৪৭
y▁of▁
र्ज▁
నగరాలు▁
$২
▁in▁
र्यटन▁
నగరాల
%)
%,▁
लड़ा
నప్పటికినీ
लंबे
నప్పటికీ,▁
,▁ভারতের▁
)▁and▁
ला,▁
నవి.
,▁ই
0.
लिक▁
నాలను▁
,▁এ
3.
लेकर▁
నాలను▁గెలుచుకోవడం
,▁গ
9.
लोकप्रि
నిపు
,▁পশ্চিম
वर्ण
నిర్మిం
,▁বৈ
BJ
वर्षों
నిక▁సా
,▁য
BJP
विकास
నిపుణులు▁
,▁শি
Constitut
विभिन्न
నిర్వహించింది.
,▁সা
East▁
विवाद
నెల
,▁২০০
Engl
विस्तृत▁
నేక▁
,▁যা▁
European▁
विदेशी▁क
నేరే
-বি
Ganges▁
वियत▁संघ
నేపాల్,▁
-সা
Hindu▁
शन▁
నేపాల్,▁భూ
-অধ্যুষি
India,▁the▁
शस्त्र
నేపాల్,▁భూటా
-বিরো
Indus▁
शासित▁प्रदेश
న్నది.
-বিরোধী
Jain
शिक्षा
న్యాయవ్యవస్థ
νδ
Jan
शुष्क
న▁అ
অনে
Neh
श्मीर▁
న▁ఉ
অংশ
Nehru
श्रीलं
న▁వ్యవస్థ
অ্যাড
Plat
षण
పక్షం
ইতিহা
United▁
सरका
పట్టణా
ই▁প্র
West
सामाजि
పడిన▁
ই▁ভারতের▁
as,▁
सांस्कृ
పద్ధతు
ইউনিয়
ago
सांस्कृतिक▁
పబ
উথ
aint
सिंधु
పశ్చి
উদ্ভি
al,▁
से▁एक▁
పతి,▁
উত্তর▁ভারতে
als▁
सोवियत▁संघ
పాడుకుంటూ
উত্তর-পূর্ব
amm
स्तर▁पर▁
పాలిం
এন
ani
स्थान▁पर▁
పాదనకు
এফ
ancient▁
स्थिति
పాలన▁
এস
as▁the▁
स्लिम▁
పిక్‌▁
এলভি
a▁f
हायक▁
పీఠభూమి
এসএলভি
censu
हिन्दू▁धर्म
పుట్టి
ওঠে।
cial▁
हिमालय▁
పెద్ద▁దేశం
ওয়ায়▁
cru
हुआ।
పెద్ద▁నగరాలు▁
কক্ষে
cu
हैं▁
పేరు▁
কল▁
cur
है▁जो
పేర్కొ
কাপে
central▁
२००
పేర్లు
কালী
coast
४.
పొందిన▁
কাল▁থেকেই
dam
४७
పోయింది.
কৃতিক▁
de▁
६२
ప్రజాస్వామ్య
কেন্দ্রি
dra
६५
ప్రస్తు
কের
ds▁
▁o
ప్రధాన▁పట్టణా
কে▁উ
decad
▁आं
ప్రపంచము
কোনও▁
depend
▁इंडि
ప్రపంచములో▁
ক্টোব
dif
▁की।
ప్రాయ
ক্ষার▁
dis
▁कॉंग्रेस
ప్రాంతీయ▁
ক্ষিণা
div
▁भ
ప్రాంతాల్లో
ক▁থেকে
e,▁and▁
▁भी▁
ప్రారంభిం
ক▁দেশ
equ
▁वीं▁शताब्दी
ప్రిల్▁
ক▁প্র
especi
▁शा
బడ్డీ
ক▁শি
eth
▁ही
బంగారు
খনো
ew
▁1947
బంగారు▁ప
খানে
economy▁
▁198
బంగారు▁పతకాలు▁
খাতের▁অব
ed.
▁अनु
బంగ్లాదేశ్‌ల
খাতের▁অবদান▁
emoc
▁अप्रैल▁195
బ్రిటీ
খ্যাগ
end▁
▁आदि
బ్రిటిషు
খ্যাগরি
ents▁
▁आधिकारिक▁
బ్రిటిష్▁
গ।
ess
▁आधुनिक▁
భక్తి
গড়ে
especially▁
▁इन▁
భరత
গণি
fig
▁उप
భాగాన్ని▁
গড়ে▁উঠে
grew▁
▁एव
భాగం▁
গান্ধী▁
growth▁
▁एवं▁
భారతదేశం▁2
ঘটনা
hea
▁कश्मीर▁
భారతదేశానికి▁
ঙ্গোপ
hig
▁कर▁दि
భారత▁రైల్వే
চতু
ic,▁
▁किया▁जा
భారత▁రైల్వేశాఖ
চন্দ্র
indu
▁के▁बाद▁भारत▁
భాషలు▁
চলচ্চিত্র▁শিল্প
ing▁a▁
▁के▁बीच▁
భౌగోళిక▁
চালনা
long▁
▁के▁विकास
మధ్య
চালু
literac
▁जब
మన
চারব্যবস্থা
marri
▁जाती
మరో
চিত▁হয়।
nolog
▁तथा
మర్థ్యం
চুক্তি
occup
▁देश▁है।
మర్థ్యం▁కలి
চ্ছিন্ন
of▁India▁
▁देशों▁में▁
మాజిక,▁
ছে▁এবং
origin
▁नदियाँ
మాఖ్య.
জন▁
ought▁
▁नाम▁
మిళ
জরা
ound
▁परमाणु
మీదగా▁వ
জনতা
our▁
▁पाकिस्ता
ముఖ్యంగా▁
জনসংখ্যার▁
paint
▁पुरु
ముడి
জানু
part▁
▁प्रधानमंत्री▁ब
ముస్లిం
জানুয়ারি
parliamentary▁
▁प्रतिशत▁
ముద్రతీ
জিক▁
party▁
▁बहुमत▁
ముద్రం,▁
জুড়ে
population▁
▁भारतीय▁समाज
మెరి
জোট▁(
roc
▁भारत▁एक▁
మెరికా
জ্যোতি
ry▁
▁भारत▁ने▁
మే.
ট,▁
raph
▁भारत▁पर▁
మొత్తం▁1
টি।
religious▁
▁मध्य
మొదల
টি▁কেন্দ্রশাসিত▁অ
river▁
▁मिल
మొదలగు
ণ।
secon
▁में,▁
మౌర్య
ণিক▁
sett
▁में▁आ
మౌర్య▁సామ్రా
ণিজ্যিক▁
scul
▁में▁भारत▁में▁
యాళం
তটি▁
sculpt
▁में▁भी
యిన▁
ত▁ভারত▁
served▁
▁रहे
యు▁మార్గాలు▁
তৃতীয়▁শ
stri
▁रहा▁है।
ర,▁
তৃতীয়▁শত
sum
▁राज्यों▁की▁
రపడిన▁
তেলু
suppor
▁वर्त
రమైన▁
তেলুগু
ta▁
▁सत
రవాణా▁సౌకర్యా
ত্যক্ষ▁
term
▁समा
రవే
ত্যন্ত
ter▁the▁
▁सर्वोच्च▁न्याया
రంగంలో▁
ত্যাদি
theast▁
▁सल्तन
రంగా▁ప్రపంచములో▁
ত▁আ
they▁
రణంగా▁19
ত▁বর্ধ
th▁century▁
రాజకీ
ত▁হয়ে
under▁
రాజకీయ▁
ত▁হয়েছে।
ven
రాలు.
ত▁হয়ে▁
who▁
రాల▁
থর▁ম
women▁
రి.
থর▁মরু
years▁ago
రించింది.
থর▁মরুভূমি
▁T
రీక్ష
থাপি
▁to▁
రు▁(
থা▁
▁Ac
రూపం
দন▁
▁A▁
రైలు▁మా
দল▁
▁Its▁
రోపా
দক্ষিণে
▁There▁
రోడ్డు▁మా
দশকগুলি
%▁and▁
రోడ్డు▁మార్గా
দশকে
ర్కొంటు
দানি
,▁which▁is▁
ర్యక్రమాలు▁
দার
00▁CE
ర్యాయాలు▁
দিক▁
1950
ర్వత్రిక▁ఎన్నిక
দিবাসী
2▁
లక్టోరల్▁కాలే
দৈনিক▁
200▁
లచే
দ্ধ▁
4.
లయాళం
দ্বীপপু
4▁b
లలో
দ্বীপপুঞ্জ
5,▁
లస
দ্ভব
6%▁
ల▁అ
দ্রুত▁বর্ধ
7.
లకు▁జన్మ
ধর▁রাষ্ট্রে
8.
లలో▁ఒకటి
ধানে
Ac
లవుతుంది.
ধান্য
Ara
లున్నాయి.
ধাঁচে
Andam
లు,▁ఆ
ধিকাংশ
Cent
లు,▁కులా
ধুনিক▁
Company▁
లుగా▁ఉన్నాయి.
ধ্রুপদী
DP
లు▁ఉన్నాయి.
ধ্রুপদি▁ভাষা
East▁India▁
లు▁గల▁
নটি▁
Empire
లు▁మొదలగు
নাট
English▁
లు▁(0
নার▁
Gandh
లెక్క
নিজে
Indians▁
లేదు
নিয়া
Indian▁subcontinent▁
లేదా▁"
নিয়ো
National▁
లోనే
নোবে
Per
లోయ▁నాగరికత
ন্ধন
Persi
లో▁భారతదేశం▁
ন্নড়
Sikh
లో▁మొదటి
ন্যপা
Tam
లౌకి
ন্যপ্রাণী
ai
ల్‌కాతా
ন্যপায়ী
air▁
ల▁కిలోమీటర్లకు▁పైగా▁
ন▁ব
administ
వనాలు▁
পরে▁
adv
వర్తి
পরমাণু▁শক্তি
als,▁
వల్ల
পরিবর্ত
ans.
వాతావరణం
পারমাণবিক▁
ants▁
వాదం
পুরস্কা
a▁m
వారి
পুরুষ
bel
వులు,▁
পুরুষদের▁
become▁
వే.
পূর্বাব্দ
became▁the▁
వేగంగా▁అభివృద్ధి▁చెందుతున్న
পূর্বে▁
began▁to▁
వేదా
প্রথম
bod
వేల▁కిలోమీటర్లకు▁పైగా▁
প্রবাহ
c.
వైవిధ్య
প্রতিযোগিতা
can
శాస
ফুটবল▁প্রতিযোগিতা
cap
శాస్త్రం
ফেডারেশন▁
compl
శాసన▁వ్యవస్థ
বন্যা
commer
శెలవుదినాలు▁
বর্তমা
compos
షయాలు▁
বর্তি
constitution
ష్ణ▁వాతావరణం
বর্তী▁সম
control▁
సమాఖ్య.
বসতি▁
created▁
సర
বাডি
defin
సంగీతం
বাহি
deral▁
సాధిం
বিবাহ
direct
సాంకేతి
বিশ্ব
duct
సాంప్రదాయిక▁
বিশ্বের▁স
educ
సాంస్కృతిక▁వారసత్వా
বৃক্ষ
ee
సారస్వతం
বৃহৎ
earli
సిక్కు
বেষণা
eastern▁
సిద్ధి▁చెం
বেসরকারি
ecut
సింధు
বেশ▁
eft▁
సింధూ
বৈচিত্র্যপূর্ণ
eld▁
సినిమాలు▁
ব্যবহৃত▁হয়।
enin
సూచించినట్లు
ভক্ত।
ens
స్ట్▁ఇండియా▁కంపెనీ
ভিত্তি
endem
స్తాయి.
ভূমিকা
enins
స్తీర్ణం
ভৃতি
ers,▁
స్థానాలను▁గెలుచుకోవడం
ভ্যতার▁
ers.
స్థావరాలు▁
মদানি
ern▁and▁
స్వాతంత్ర్యం
মন
ess▁
హాకీ
মহাকাশ
es▁are▁
హారం
মানু
execut
హిమాలయ▁
মালয়ের▁
expor
హైదరాబా
মুসলমান▁
e▁was▁
▁5
মূল
fac
▁ఉన్నా
মেন্ট
famil
▁కి
ম্পিউ
federal▁
▁క్రి
য়কালে
forest
▁తే
য়ব
form▁of▁
▁ద్వారా
য়লা
ga
▁నుండి▁
য়ে▁আ
gar
▁నేపాల్,▁భూటా
য়োজি
hat
▁పో
য়োজক▁দেশ
hous
▁భిన్న
যুদ্ধে
high▁
▁మంత్రి
যোগ
ially▁
▁మొదలై
রক্ষা
iet
▁వ్యవస్థ
রণ▁করে
ici
▁వ్యాపా
রব▁সা
ild
▁స్థానంలో▁
রব▁সাগ
indi
▁స్వతంత్ర
রমাণবিক▁পরী
inf
▁100
রাজা
inn
▁185
রাব
include▁the▁
▁అని▁
রায়▁
ingdom
▁అమెరికా
রের▁সম
in▁202
▁అవి
রেশীয়▁
in▁India.
▁అంతర్జాతీయ▁
রোপীয়▁
ism▁
▁అధికార
র্থ▁
istic▁
▁అధికారి
র্বভৌ
ives▁
▁అనేక▁మతా
র্বাপেক্ষা
ivil
▁అయినా
র্বোচ্চ
lam
▁ఆసియా
র্মসূ
led▁
▁ఆహారం
র্মসূচি
lo
▁ఆధారపడిన▁
র্ষিক▁
l▁
▁ఇక్క
র▁ও
life▁
▁ఇటీవ
র▁ত
mi
▁ఇతరదేశా
র▁ব
medi
▁ఈ▁
র▁সূ
nific
▁ఎక్కువగా▁
র▁অবস্থি
no▁long
▁ఎన్నుకోబడతారు.
র▁উত্ত
number▁of▁
▁ఏప్రిల్▁
র▁উদ্ভব
off
▁ఒకటి
র▁উন্ন
official▁
▁ఒకే
র▁এই▁
ograph
▁ఒలం
র▁করতে
only▁
▁కల
র▁নেতৃত্বে▁জাতীয়▁
opp
▁కనుక▁
র▁বিচারে
ould▁
▁కారణంగా▁19
র▁ভার
oup
▁కాశ్మీ
র▁মধ্যবর্তী▁সম
out
▁కోర్టు
র▁মধ্য▁দিয়ে
over▁the▁
▁క్రీడా▁
র▁মধ্যে▁রয়েছে
owever,▁
▁గత▁
র▁সম্মি
penins
▁చద
র▁সহ
po
▁చేసింది.
র▁সরকারি
prom
▁జరి
র▁হার▁
part▁of▁the▁
▁జనాభా▁
লক্ষ
plain
▁తమిళ
লপ
ra▁
▁తరువాత
লিউড▁(
ren
▁దక్షిణ
লুপ্ত
ral▁Asi
▁దేశంలోని▁
লের▁
read▁
▁దేశానికి
লোকসভা
regional▁
▁దేశాలలో▁ఒకటి
শক্তির▁
ress
▁దేశాల▁
শাসনাধী
river
▁పక్కన▁
শ্চিম
sit
▁పట్టణా
শ্রেণী
sm
▁పరంగా▁ప్రపంచములో▁
ষ্টীয়▁
sultan
▁పరీక్ష
ষ্ট্রের▁সঙ্গে▁ভারতের▁
sequ
▁పర్యాయాలు▁
সম্প্রদা
state▁
▁పలు▁
সংখ্য
styl
▁పవి
সংস্থা
such▁as▁the▁
▁పండు▁
সংসদী
surv
▁పరిపాలన▁
সমভূমি
s▁are▁
▁పరిశ్రమలు▁
সমাজ
s▁were▁
▁పాక్▁రైల్వే
সাম্রাজ্যে
ta
▁పాల
সারে
tu
▁పాకిస్తా
সার্বভৌ
technolog
▁ప్రజాదరణ
সামরিক▁বাহিনী
there▁
▁ప్రదే
সিসি
this▁tim
▁ప్రభుత్వాన్ని▁
সিংহ
traditional▁
▁ప్రముఖమై
সৃষ্টি
ust▁
▁ప్రముఖ▁
স্তন্যপায়ী
union▁
▁ప్రస్తుతం▁
স্তৃত।
urther▁
▁భారతీయు
স্বাধীনতার▁
used▁
▁భారత్,
হায়তা
viol
▁భారత▁రా
০.
wa
▁భారతదేశపు▁
০▁শতাংশ
wan
▁భారతదేశంలోని▁
০০০
well
▁భారత▁రాజ్యాంగం
১%
wide
▁మతా
১৮
world▁
▁మన
১▁মাইল
▁H
▁మహాత్మా▁గాంధీ▁నాయ
১.২
▁Indian▁
▁మాత్రం▁
১.৭%
▁L
▁మార్గం
২৬▁
▁V
▁మూడు▁దేశా
২▁সালে
▁Am
▁రవాణా▁సౌకర్యా
২০১
▁After▁
▁రహదారు
৩%
▁After▁the▁
▁రహదారులు,▁
৩০
▁By▁the▁
▁రాష్ట్ర
৪▁শতাংশ
▁Dur
▁రాజు▁పేరు▁
৬৫
▁These▁
▁రాజ్యాలుగా▁
৬▁সালে
,000▁years▁ago
▁రాజ్యాలు▁
৮▁সালে
,▁it▁
▁రాష్ట్రాల▁
Ἰνδ
1,▁the▁
▁రెండవ▁సహస్రాబ్ది
▁খা
193
▁లక్షణా
▁গান্ধী▁
4%▁
▁లోక్‌సభ
▁ট্রফি
▁వహిం
▁তে
4▁billion▁
▁వ▁
▁ধর্ম
▁వచ్చిన▁
▁পি
70
▁వారస
▁পূর্ব
Bh
▁విద్యుత్▁
▁পে
Bengal
▁విభిన్న
▁ফলে
Bengal▁
▁విలు
▁ব্যবস্থা
Central▁Asi
▁విషయాలు▁
▁ব্যবহৃত▁হয়।
Delhi▁
▁సరిహద్దు
▁মধ্য
GDP
▁సంగీ
▁মুঘল▁
Gre
▁సంగీతం
▁মে
Hindi▁
▁సంబం
▁যুক্তরা
Islam
▁సంవత్స
▁রূপে
Kash
▁సంస్కృ
▁স্বাধী
Nor
▁సామాజిక,▁
▁অনে
Nehru▁
▁స్వాతంత్ర్య▁సమరం
▁অভি
Pakistan▁
"భ
▁অন্যদিকে▁
Raj
"భారతదేశం
▁অবস্থা
Re
▁অবস্থিত।
Sh
",▁ఈ▁దేశంలో▁
▁অবস্থিত▁
St
",▁ఈ▁పేరు▁
▁আক
Southeast▁
",▁ఈ▁దేశంలో▁ఎక్కువగా▁
▁আজ
Southeast▁Asi
",▁ఈ▁దేశంలో▁ఎక్కువగా▁నేరే
▁ইতিহা
Western▁
",▁ఈ▁దేశంలో▁ఎక్కువగా▁నేరేడు
▁উপকূ
a,▁and▁
",▁ఈ▁దేశంలో▁ఎక్కువగా▁నేరేడు▁పం
▁উপগ্রহ
ad▁
",▁ఈ▁దేశంలో▁ఎక్కువగా▁నేరేడు▁పండ్లు
▁উৎপা
aver
",▁ఈ▁దేశంలో▁ఎక్కువగా▁నేరేడు▁పండ్లు▁ఉం
▁উৎসব
ablish
",▁ఈ▁దేశంలో▁ఎక్కువగా▁నేరేడు▁పండ్లు▁ఉంటా
▁একাধিক▁
ains▁
",▁ఈ▁దేశంలో▁ఎక్కువగా▁నేరేడు▁పండ్లు▁ఉంటాయి
▁এক▁
ale▁
",▁ఈ▁దేశంలో▁ఎక్కువగా▁నేరేడు▁పండ్లు▁ఉంటాయి▁కనుక▁
▁এদেশে
alled▁
",▁ఈ▁దేశంలో▁ఎక్కువగా▁నేరేడు▁పండ్లు▁ఉంటాయి▁కనుక▁దీ
▁এর▁ফলে
ally,▁
",▁ఈ▁దేశంలో▁ఎక్కువగా▁నేరేడు▁పండ్లు▁ఉంటాయి▁కనుక▁దీనికి
▁এই▁বি
al▁and▁
",▁ఈ▁దేశంలో▁ఎక్కువగా▁నేరేడు▁పండ్లు▁ఉంటాయి▁కనుక▁దీనికి▁ఈ
▁এই▁দেশ
anim
",▁ఈ▁దేశంలో▁ఎక్కువగా▁నేరేడు▁పండ్లు▁ఉంటాయి▁కనుక▁దీనికి▁ఈ▁పేరు
▁একটি▁যুক্তরাষ্ট্রী
and,▁
",▁ఈ▁దేశంలో▁ఎక్కువగా▁నేరేడు▁పండ్లు▁ఉంటాయి▁కనుక▁దీనికి▁ఈ▁పేరు▁వచ్చింది.
▁ও▁তা
anisation▁
",▁ఈ▁పేరు▁నా
▁ও▁প্র
are
",▁ఈ▁పేరు▁నాటి
▁ও▁বি
arn
",▁ఈ▁పేరు▁నాటి▁రాజు▁పేరు▁
▁কয়েকটি▁
around▁
",▁ఈ▁పేరు▁నాటి▁రాజు▁పేరు▁మీదగా▁వ
▁করে▁
a▁and▁the▁
",▁ఈ▁పేరు▁నాటి▁రాజు▁పేరు▁మీదగా▁వచ్చి
▁কর্তৃক▁
a▁re
",▁ఈ▁పేరు▁నాటి▁రాజు▁పేరు▁మీదగా▁వచ్చిన
▁খ্রিষ্টপূর্বাব্দ
ble▁
",▁ఈ▁పేరు▁నాటి▁రాజు▁పేరు▁మీదగా▁వచ్చినది
▁চন্দ্র
bor
",▁ఈ▁పేరు▁నాటి▁రాజు▁పేరు▁మీదగా▁వచ్చినది,▁ఈ
▁জয়
but▁also▁
",▁ఈ▁పేరు▁నాటి▁రాజు▁పేరు▁మీదగా▁వచ్చినది,▁ఈ▁రాజు▁పేరు▁
▁দাক্ষিণা
caused▁
",▁ఈ▁పేరు▁నాటి▁రాజు▁పేరు▁మీదగా▁వచ్చినది,▁ఈ▁రాజు▁పేరు▁"భ
▁দেশজ
centuries▁
",▁ఈ▁పేరు▁నాటి▁రాజు▁పేరు▁మీదగా▁వచ్చినది,▁ఈ▁రాజు▁పేరు▁"భర
▁নদী
coalit
",▁ఈ▁పేరు▁నాటి▁రాజు▁పేరు▁మీదగా▁వచ్చినది,▁ఈ▁రాజు▁పేరు▁"భరతు
▁নামে
constitution▁
",▁ఈ▁పేరు▁నాటి▁రాజు▁పేరు▁మీదగా▁వచ్చినది,▁ఈ▁రాజు▁పేరు▁"భరతుడు"
▁নিজ
continu
",▁ఈ▁పేరు▁నాటి▁రాజు▁పేరు▁మీదగా▁వచ్చినది,▁ఈ▁రాజు▁పేరు▁"భరతుడు".
▁নিয়ে
country▁
"భారతదేశం"▁
▁নিরপেক্ষ
court
"భారతదేశం"▁లేదా▁"
▁নির্বাচ
curr
"భారతదేశం"▁లేదా▁"భరత
▁নির্বাচিত▁হন।
d-largest▁
"భారతదేశం"▁లేదా▁"భరతవ
▁পতি
der▁
"భారతదేశం"▁లేదా▁"భరతవర్షం
▁পরমাণু
differ
"భారతదేశం"▁లేదా▁"భరతవర్షం",▁ఈ▁పేరు▁నాటి▁రాజు▁పేరు▁మీదగా▁వచ్చినది,▁ఈ▁రాజు▁పేరు▁"భరతుడు".
▁পশ্চিম
disput
▁পারমাণবিক▁পরী
duced▁
%).
▁পার্টি
e;▁
▁পাল
edic
▁পাকিস্তান▁
eak
%▁ప్రజ
▁প্রতিষ্ঠি
eap
%)▁(
▁প্রাচীন
eau
%),▁ఇ
▁বছর▁আগে
earliest▁
%),▁బౌ
▁বিবাহ
ed▁and▁
%),▁ఇత
▁বিস্তৃত।
eign▁
%),▁ఇతరు
▁বিশ্বে▁
elf
%),▁ఇతరులు▁(0
▁বিশ্বের▁বৃহত্তম▁
elit
%),▁ఇతరులు▁(0.
▁ভারতকে
ember▁
%),▁ఇతరులు▁(0.9
▁ভারতীয়▁প্রজাতন্ত্র
emp
%),▁ఇతరులు▁(0.9%)▁(
▁ভারতীয়▁সংস্কৃতি
emper
%),▁ఇతరులు▁(0.9%)▁(యూ
▁ভারতে▁স
emplo
%),▁ఇతరులు▁(0.9%)▁(యూదు
▁ভারতের▁ইতিহা
employ
%),▁ఇతరులు▁(0.9%)▁(యూదులు,▁
▁ভারতের▁প্রথম▁
enac
%),▁ఇతరులు▁(0.9%)▁(యూదులు,▁పా
▁মার্কিন▁ডলা
endang
%),▁ఇతరులు▁(0.9%)▁(యూదులు,▁పార్సీ
▁রাজ্যে
ently▁
%),▁ఇతరులు▁(0.9%)▁(యూదులు,▁పార్సీలు,▁
▁শব্দ
ernal▁
%),▁ఇతరులు▁(0.9%)▁(యూదులు,▁పార్సీలు,▁అ
▁শতাংশে
es,▁and▁
%),▁ఇతరులు▁(0.9%)▁(యూదులు,▁పార్సీలు,▁అహ్మ
▁শিল্পে
establish
%),▁ఇతరులు▁(0.9%)▁(యూదులు,▁పార్సీలు,▁అహ్మదీ
▁সংখ্যাগরি
estim
%),▁ఇతరులు▁(0.9%)▁(యూదులు,▁పార్సీలు,▁అహ్మదీయు
▁সংস্কৃ
es▁were▁
%),▁ఇతరులు▁(0.9%)▁(యూదులు,▁పార్సీలు,▁అహ్మదీయులు,▁
▁সমগ্র
executive▁
%),▁ఇతరులు▁(0.9%)▁(యూదులు,▁పార్సీలు,▁అహ్మదీయులు,▁బ
▁সাক্ষরতার▁হা
ff
%),▁ఇతరులు▁(0.9%)▁(యూదులు,▁పార్సీలు,▁అహ్మదీయులు,▁బహా
▁সাহিত্য
further▁
%),▁ఇతరులు▁(0.9%)▁(యూదులు,▁పార్సీలు,▁అహ్మదీయులు,▁బహాయీ
▁হয়,▁
fied▁
%),▁ఇతరులు▁(0.9%)▁(యూదులు,▁పార్సీలు,▁అహ్మదీయులు,▁బహాయీలు▁మొదలగు
▁হয়েছে
formed▁a▁
%),▁ఇతరులు▁(0.9%)▁(యూదులు,▁పార్సీలు,▁అహ్మదీయులు,▁బహాయీలు▁మొదలగునవి
▁হল
ge
%),▁ఇతరులు▁(0.9%)▁(యూదులు,▁పార్సీలు,▁అహ్మదీయులు,▁బహాయీలు▁మొదలగునవి).
▁১৯৯১▁সালে▁
genc
%),▁బౌద్ధు
glob
%),▁బౌద్ధులు▁(
"▁(
group
%),▁బౌద్ధులు▁(8
%▁স
great
%),▁బౌద్ధులు▁(8.7
'।
held▁
%),▁బౌద్ధులు▁(8.70%),▁
'▁ও▁
hen
%),▁బౌద్ధులు▁(8.70%),▁జై
(এ
high
%),▁బౌద్ధులు▁(8.70%),▁జైను
(পূর্ব
hav
%),▁బౌద్ధులు▁(8.70%),▁జైనులు▁(0
(Ἰνδ
i-
%),▁బౌద్ధులు▁(8.70%),▁జైనులు▁(0.3
))
ic.
%),▁బౌద్ధులు▁(8.70%),▁జైనులు▁(0.36
)▁যা
ies▁and▁
%),▁బౌద్ధులు▁(8.70%),▁జైనులు▁(0.36%),▁ఇతరులు▁(0.9%)▁(యూదులు,▁పార్సీలు,▁అహ్మదీయులు,▁బహాయీలు▁మొదలగునవి).
,৫
ight
%▁కంటే
,৫১৭
ility▁
%▁ఆక్రమి
,৫১৭▁কিলোমিটার▁(
inc
%▁ఆక్రమిం
,৫১৭▁কিলোমিটার▁(৪
independ
%▁ఆక్రమిస్తు
,৫১৭▁কিলোমিটার▁(৪,৬
inter
%▁ఆక్రమించిన▁
,৫১৭▁কিলোমিটার▁(৪,৬৭
industr
%▁ఆక్రమించిన▁జాతీయ▁రహదారులు,▁
,৫১৭▁কিলোমিটার▁(৪,৬৭১▁মাইল
ings▁of▁
%▁ఆక్రమించిన▁జాతీయ▁రహదారులు,▁ట్రా
,৫১৭▁কিলোমিটার▁(৪,৬৭১▁মাইল)।
ing▁in▁
%▁ఆక్రమించిన▁జాతీయ▁రహదారులు,▁ట్రాఫి
,▁অ
ing▁to▁
%▁ఆక్రమించిన▁జాతీయ▁రహదారులు,▁ట్రాఫిక్▁
,▁উপ
in▁1947
%▁ఆక్రమించిన▁జాతీయ▁రహదారులు,▁ట్రాఫిక్▁లో▁మా
,▁এবং▁
in▁199
%▁ఆక్రమించిన▁జాతీయ▁రహదారులు,▁ట్రాఫిక్▁లో▁మాత్రం▁
,▁ও
ions,▁
%▁ఆక్రమించిన▁జాతీయ▁రహదారులు,▁ట్రాఫిక్▁లో▁మాత్రం▁సు
,▁ও▁
iss
%▁ఆక్రమించిన▁జాతీయ▁రహదారులు,▁ట్రాఫిక్▁లో▁మాత్రం▁సుమా
,▁কৃ
ism,▁
%▁ఆక్రమించిన▁జాతీయ▁రహదారులు,▁ట్రాఫిక్▁లో▁మాత్రం▁సుమారు▁
,▁জৈ
ite▁
%▁ఆక్రమించిన▁జాతీయ▁రహదారులు,▁ట్రాఫిక్▁లో▁మాత్రం▁సుమారు▁4
,▁ত
kingdom
%▁ఆక్రమించిన▁జాతీయ▁రహదారులు,▁ట్రాఫిక్▁లో▁మాత్రం▁సుమారు▁40
,▁প্রতি
know
%▁ఆక్రమించిన▁జాతీయ▁రహదారులు,▁ట్రాఫిక్▁లో▁మాత్రం▁సుమారు▁40%▁ఆక్రమిస్తు
,▁ম
last▁
%▁ఆక్రమించిన▁జాతీయ▁రహదారులు,▁ట్రాఫిక్▁లో▁మాత్రం▁సుమారు▁40%▁ఆక్రమిస్తున్నాయి.
,▁মহা
left▁
%▁కంటే▁త
,▁মাল
leading▁
%▁కంటే▁తక్కు
,▁মে
legis
%▁కంటే▁తక్కువే.
,▁যদিও▁
liber
%▁ప్రజలు▁
,▁র
lief
%▁ప్రజలు▁హిం
,▁রা
literacy▁
%▁ప్రజలు▁హిందు
,▁হা
lowing▁
%▁ప్రజలు▁హిందువు
,▁১৯
low▁
%▁ప్రజలు▁హిందువులై
,▁কখনো
mak
%▁ప్రజలు▁హిందువులైనప్పటికీ,▁
,▁তামি
mary▁
%▁ప్రజలు▁హిందువులైనప్పటికీ,▁ప్రపం
,▁নেহে
market▁
%▁ప్రజలు▁హిందువులైనప్పటికీ,▁ప్రపంచం
,▁নেহেরু
mid-
%▁ప్రజలు▁హిందువులైనప్పటికీ,▁ప్రపంచంలోని▁
,▁নেহেরু▁কাপ
middle▁
%▁ప్రజలు▁హిందువులైనప్పటికీ,▁ప్రపంచంలోని▁రెం
,▁নেহেরু▁কাপ▁আন্তর্জাতিক▁
more▁than▁
%▁ప్రజలు▁హిందువులైనప్పటికీ,▁ప్రపంచంలోని▁రెండో
,▁নেহেরু▁কাপ▁আন্তর্জাতিক▁ফুটবল▁প্রতিযোগিতা
music▁
%▁ప్రజలు▁హిందువులైనప్పటికీ,▁ప్రపంచంలోని▁రెండో▁అత్యధిక▁
,▁নেহেরু▁কাপ▁আন্তর্জাতিক▁ফুটবল▁প্রতিযোগিতা,▁
nificant▁
%▁ప్రజలు▁హిందువులైనప్పటికీ,▁ప్రపంచంలోని▁రెండో▁అత్యధిక▁ముస్లిం
,▁পশ্চিমব
now▁
%▁ప్రజలు▁హిందువులైనప్పటికీ,▁ప్రపంచంలోని▁రెండో▁అత్యధిక▁ముస్లిం▁జనాభా
,▁পশ্চিমবঙ্গে
no▁longer▁
%▁ప్రజలు▁హిందువులైనప్పటికీ,▁ప్రపంచంలోని▁రెండో▁అత్యధిక▁ముస్లిం▁జనాభా▁ఇక్క
,▁পশ্চিমবঙ্গের▁
number
%▁ప్రజలు▁హిందువులైనప్పటికీ,▁ప్రపంచంలోని▁రెండో▁అత్యధిక▁ముస్లిం▁జనాభా▁ఇక్కడ
,▁প্রতিব
o,▁
%▁ప్రజలు▁హిందువులైనప్పటికీ,▁ప్రపంచంలోని▁రెండో▁అత్యధిక▁ముస్లిం▁జనాభా▁ఇక్కడ▁ఉన్నా
,▁প্রতিবর্ণী
od▁
%▁ప్రజలు▁హిందువులైనప్పటికీ,▁ప్రపంచంలోని▁రెండో▁అత్యధిక▁ముస్లిం▁జనాభా▁ఇక్కడ▁ఉన్నారు▁(
,▁প্রতিবর্ণীকৃ
ool
%▁ప్రజలు▁హిందువులైనప్పటికీ,▁ప్రపంచంలోని▁రెండో▁అత్యధిక▁ముస్లిం▁జనాభా▁ఇక్కడ▁ఉన్నారు▁(17
,▁প্রতিবর্ণীকৃত
often▁
%▁ప్రజలు▁హిందువులైనప్పటికీ,▁ప్రపంచంలోని▁రెండో▁అత్యధిక▁ముస్లిం▁జనాభా▁ఇక్కడ▁ఉన్నారు▁(17.
,▁প্রতিবর্ণীকৃত:
of▁which▁
%▁ప్రజలు▁హిందువులైనప్పటికీ,▁ప్రపంచంలోని▁రెండో▁అత్యధిక▁ముస్లిం▁జనాభా▁ఇక్కడ▁ఉన్నారు▁(17.2
,▁ভারতীয়▁মহা
oper
%▁ప్రజలు▁హిందువులైనప్పటికీ,▁ప్రపంచంలోని▁రెండో▁అత్యధిక▁ముస్లిం▁జనాభా▁ఇక్కడ▁ఉన్నారు▁(17.23
,▁ভারতীয়▁মহাকা
org
%▁ప్రజలు▁హిందువులైనప్పటికీ,▁ప్రపంచంలోని▁రెండో▁అత్యధిక▁ముస్లిం▁జనాభా▁ఇక్కడ▁ఉన్నారు▁(17.23%).
,▁ভারতীয়▁মহাকাব্য
own▁
&▁
,▁যন্ত্র
pur
&▁M
,▁হায়
peninsular▁
&▁M▁(
,▁হায়দ্রা
polic
&▁M▁(CEE▁7/
,▁হায়দ্রাবাদ
population▁of▁
&▁M▁(CEE▁7/1
-চীন▁
red▁
&▁M▁(CEE▁7/16
-তে
rah
&▁M▁(CEE▁7/16;▁
-ধাঁচে
ree▁
&▁M▁(CEE▁7/16;▁CEE▁7/
-প
remain
&▁M▁(CEE▁7/16;▁CEE▁7/17
-পা
resid
&▁M▁(CEE▁7/16;▁CEE▁7/17;▁
-প্র
region▁
&▁M▁(CEE▁7/16;▁CEE▁7/17;▁B
-যুক্তরাষ্ট্রী
ros
&▁M▁(CEE▁7/16;▁CEE▁7/17;▁BS
-২০
ross▁
&▁M▁(CEE▁7/16;▁CEE▁7/17;▁BS▁5
-আয়োজক▁দেশ
sec
&▁M▁(CEE▁7/16;▁CEE▁7/17;▁BS▁54
-প্রসি
sing
&▁M▁(CEE▁7/16;▁CEE▁7/17;▁BS▁546
-বিরোধী▁
so
&▁M▁(CEE▁7/16;▁CEE▁7/17;▁BS▁546)▁
-ভারতীয়▁
sever
&▁M▁(CEE▁7/16;▁CEE▁7/17;▁BS▁546)▁టె
-ভারত▁
shor
&▁M▁(CEE▁7/16;▁CEE▁7/17;▁BS▁546)▁టెలి
-ভারত▁যুদ্ধে
sive▁
&▁M▁(CEE▁7/16;▁CEE▁7/17;▁BS▁546)▁టెలివి
-সামা
spread▁
&▁M▁(CEE▁7/16;▁CEE▁7/17;▁BS▁546)▁టెలివిజ
-সামাজিক▁
statu
&▁M▁(CEE▁7/16;▁CEE▁7/17;▁BS▁546)▁టెలివిజన్▁
.৭
stru
&▁M▁(CEE▁7/16;▁CEE▁7/17;▁BS▁546)▁టెలివిజన్▁సి
.৮%
style▁
&▁M▁(CEE▁7/16;▁CEE▁7/17;▁BS▁546)▁టెలివిజన్▁సిగ్న
;▁যার▁
subsequ
&▁M▁(CEE▁7/16;▁CEE▁7/17;▁BS▁546)▁టెలివిజన్▁సిగ్నలు:▁
s▁of▁the▁
&▁M▁(CEE▁7/16;▁CEE▁7/17;▁BS▁546)▁టెలివిజన్▁సిగ్నలు:▁P
s▁to▁
&▁M▁(CEE▁7/16;▁CEE▁7/17;▁BS▁546)▁టెలివిజన్▁సిగ్నలు:▁PA
tion▁
&▁M▁(CEE▁7/16;▁CEE▁7/17;▁BS▁546)▁టెలివిజన్▁సిగ్నలు:▁PAL
tri
&▁M▁(CEE▁7/16;▁CEE▁7/17;▁BS▁546)▁టెలివిజన్▁సిగ్నలు:▁PAL▁
US
th▁century,▁
&▁M▁(CEE▁7/16;▁CEE▁7/17;▁BS▁546)▁టెలివిజన్▁సిగ్నలు:▁PAL▁B
অনু
to▁be▁the▁
&▁M▁(CEE▁7/16;▁CEE▁7/17;▁BS▁546)▁టెలివిజన్▁సిగ్నలు:▁PAL▁B/
অর্থ
uj
&▁M▁(CEE▁7/16;▁CEE▁7/17;▁BS▁546)▁టెలివిజన్▁సిగ్నలు:▁PAL▁B/G
অর্থনৈতিক▁
upp
&▁M▁(CEE▁7/16;▁CEE▁7/17;▁BS▁546)▁టెలివిజన్▁సిగ్నలు:▁PAL▁B/G▁ఆర్ధి
অস্ত্র
unit
&▁M▁(CEE▁7/16;▁CEE▁7/17;▁BS▁546)▁టెలివిజన్▁సిగ్నలు:▁PAL▁B/G▁ఆర్ధిక▁సం
অংশে
unt
&▁M▁(CEE▁7/16;▁CEE▁7/17;▁BS▁546)▁టెలివిజన్▁సిగ్నలు:▁PAL▁B/G▁ఆర్ధిక▁సంవత్స
অ্যান্ড
vari
&▁M▁(CEE▁7/16;▁CEE▁7/17;▁BS▁546)▁టెలివిజన్▁సిగ్నలు:▁PAL▁B/G▁ఆర్ధిక▁సంవత్సరం
অ্যাসো
vast▁
&▁M▁(CEE▁7/16;▁CEE▁7/17;▁BS▁546)▁టెలివిజన్▁సిగ్నలు:▁PAL▁B/G▁ఆర్ధిక▁సంవత్సరం▁ఏప్రిల్▁
অ্যাডভা
vill
&▁M▁(CEE▁7/16;▁CEE▁7/17;▁BS▁546)▁టెలివిజన్▁సిగ్నలు:▁PAL▁B/G▁ఆర్ధిక▁సంవత్సరం▁ఏప్రిల్▁1▁
অ্যাডভান্স
won▁
&▁M▁(CEE▁7/16;▁CEE▁7/17;▁BS▁546)▁టెలివిజన్▁సిగ్నలు:▁PAL▁B/G▁ఆర్ధిక▁సంవత్సరం▁ఏప్రిల్▁1▁న▁
অ্যাডভান্সড
widely▁
&▁M▁(CEE▁7/16;▁CEE▁7/17;▁BS▁546)▁టెలివిజన్▁సిగ్నలు:▁PAL▁B/G▁ఆర్ధిక▁సంవత్సరం▁ఏప్రిల్▁1▁న▁మొద
অ্যান্ড▁
worn▁
&▁M▁(CEE▁7/16;▁CEE▁7/17;▁BS▁546)▁టెలివిజన్▁సిగ్నలు:▁PAL▁B/G▁ఆర్ధిక▁సంవత్సరం▁ఏప్రిల్▁1▁న▁మొదలవుతుంది.
অ্যাসোসি
yan
(భారత
অ্যাসোসিয়ে
ya▁
(శ
অ্যাসোসিয়েশন▁
▁N
(సా
আনুমানিক▁
▁P
(భారత▁రాజకీయ▁
আফ্রিকা
▁According▁
(భారత▁రాజకీయ▁వ్యవస్థ
আ▁(
▁BCE
(భారత▁రాజకీయ▁వ్యవస్థ)
ই।
▁This▁
(భారత▁రాజకీయ▁వ్యవస్థ)▁భారతదేశం
ইত্যাদি
,▁an▁
(భారత▁రాజకీయ▁వ్యవస్థ)▁భారతదేశం▁ఒక▁
ইনা
,▁is▁
(భారత▁రాజకీయ▁వ్యవస్థ)▁భారతదేశం▁ఒక▁ప్రజాస్వామ్య
ইলিং
,▁or▁
(భారత▁రాజకీయ▁వ్యవస్థ)▁భారతదేశం▁ఒక▁ప్రజాస్వామ్య▁గ
ইস
,▁with▁
(భారత▁రాజకీయ▁వ్యవస్థ)▁భారతదేశం▁ఒక▁ప్రజాస్వామ్య▁గణతంత్ర▁రాజ్యం
ই▁ভারতীয়▁
1%▁
(భారత▁రాజకీయ▁వ్యవస్థ)▁భారతదేశం▁ఒక▁ప్రజాస్వామ్య▁గణతంత్ర▁రాజ్యంగా▁19
ইউরেশীয়▁
(భారత▁రాజకీయ▁వ్యవస్థ)▁భారతదేశం▁ఒక▁ప్రజాస్వామ్య▁గణతంత్ర▁రాజ్యంగా▁1950▁జనవరి▁26
ইউরোপীয়▁
10
(భారత▁రాజకీయ▁వ్యవస్థ)▁భారతదేశం▁ఒక▁ప్రజాస్వామ్య▁గణతంత్ర▁రాజ్యంగా▁1950▁జనవరి▁26న▁అ
ইল,▁
1200▁
(భారత▁రాజకీయ▁వ్యవస్థ)▁భారతదేశం▁ఒక▁ప్రజాస్వామ్య▁గణతంత్ర▁రాజ్యంగా▁1950▁జనవరి▁26న▁అవ
ইলিং▁
13
(భారత▁రాజకీయ▁వ్యవస్థ)▁భారతదేశం▁ఒక▁ప్రజాస్వామ్య▁గణతంత్ర▁రాజ్యంగా▁1950▁జనవరి▁26న▁అవత
ইলিং▁বুদ্ধ
(భారత▁రాజకీయ▁వ్యవస్థ)▁భారతదేశం▁ఒక▁ప్రజాస్వామ్య▁గణతంత్ర▁రాజ్యంగా▁1950▁జనవరి▁26న▁అవతరించింది.
ই▁গড়ে▁উঠে
1▁million▁
(శక▁సం
ই▁ভারতের▁প্রাচীনতম
2011▁censu
(శక▁సం.
ঈদু
400▁BCE
(సాక
উভ
6,▁
(సాకర్‌)
উচ্চ▁আদাল
9%▁of▁
(సాకర్‌)▁
উত্তর-পূর্বা
:▁the▁
(సాకర్‌)▁కు▁
উত্তর-পূর্বাঞ্চলে
;▁and▁the▁
(సాకర్‌)▁కు▁కూడా▁
উথ▁এশিয়ান▁
A▁
(సాకర్‌)▁కు▁కూడా▁యా
উদ্ভিদের▁
Act▁
(సాకర్‌)▁కు▁కూడా▁యావ
উল্লেখযোগ্য।
Andaman▁
(సాకర్‌)▁కు▁కూడా▁యావత్‌▁
এ)▁
Arab
(సాకర్‌)▁కు▁కూడా▁యావత్‌▁భారతదేశంలో▁
এক▁
Bhar
(సాకర్‌)▁కు▁కూడా▁యావత్‌▁భారతదేశంలో▁చాలా
এনডি
Brah
(సాకర్‌)▁కు▁కూడా▁యావత్‌▁భారతదేశంలో▁చాలా▁ప్రజాదరణ
এসএলভি,▁
BJP▁
(సాకర్‌)▁కు▁కూడా▁యావత్‌▁భారతదేశంలో▁చాలా▁ప్రజాదరణ▁ఉంది.
ঐতিহা
Buddhist▁
):▁
ঐতিহ্যে
Constitution▁of▁
)▁ఉంది.
ঐতিহাসি
Dec
)▁జాతీయ▁
ঐতিহাসিক▁
Des
)▁తరువాత
ঐতিহ্যবা
Dra
)▁వా
ঐতিহ্যবাহী
Dravi
),▁చెన్నై
ও,▁
Dravidi
),▁ఢిల్లీ
ওয়ে
Dravidian▁
),▁హైదరాబా
ওয়্যা
East▁India▁Company▁
),▁చెన్నై▁(వెనుకటి
ও▁আ
Ghat
),▁చెన్నై▁(వెనుకటి▁మ
ও▁ব
Gandhi▁
),▁చెన్నై▁(వెనుకటి▁మద్రా
ও▁স
Gree
),▁చెన్నై▁(వెనుకటి▁మద్రాసు
ও▁সক্ষম
Hindust
),▁చెన్నై▁(వెనుకటి▁మద్రాసు),▁హైదరాబా
ক,▁
Indian▁c
),▁చెన్నై▁(వెనుకటి▁మద్రాసు),▁హైదరాబాద్,
ক-ভারত▁যুদ্ধে
India▁into▁
),▁చెన్నై▁(వెనుకటి▁మద్రాసు),▁హైదరాబాద్,▁2
কতা
Indus▁V
),▁చెన్నై▁(వెనుకటి▁మద్రాసు),▁హైదరాబాద్,▁201
কম্পিউ
Indus▁Vall
),▁చెన్నై▁(వెనుకటి▁మద్రాసు),▁హైదరాబాద్,▁2011
কর্ণা
Indus▁Valley▁
),▁చెన్నై▁(వెనుకటి▁మద్రాసు),▁హైదరాబాద్,▁2011▁భారత
কর্তৃ
Jainism
),▁చెన్నై▁(వెనుకటి▁మద్రాసు),▁హైదరాబాద్,▁2011▁భారత▁జనాభా▁
কল্পি
Janu
),▁చెన్నై▁(వెనుకటి▁మద్రాసు),▁హైదరాబాద్,▁2011▁భారత▁జనాభా▁లెక్క
ক▁ভাষায়▁
January▁
),▁చెన్నై▁(వెనుకటి▁మద్రాసు),▁హైదరాబాద్,▁2011▁భారత▁జనాభా▁లెక్కలు▁ప్ర
কক্ষবিশিষ্ট
Kashm
),▁చెన్నై▁(వెనుకటి▁మద్రాసు),▁హైదరాబాద్,▁2011▁భారత▁జనాభా▁లెక్కలు▁ప్రకారం
কক্ষবিশিষ্ট▁সং
Mo
),▁చెన్నై▁(వెనుకటి▁మద్రాసు),▁హైదరాబాద్,▁2011▁భారత▁జనాభా▁లెక్కలు▁ప్రకారం▁భారతదేశ
কক্ষবিশিষ্ট▁সংসদ
Maur
),▁చెన్నై▁(వెనుకటి▁మద్రాసు),▁హైదరాబాద్,▁2011▁భారత▁జనాభా▁లెక్కలు▁ప్రకారం▁భారతదేశ▁జనాభా▁
কম্পিউটা
Muslim▁
),▁చెన్నై▁(వెనుకటి▁మద్రాసు),▁హైదరాబాద్,▁2011▁భారత▁జనాభా▁లెక్కలు▁ప్రకారం▁భారతదేశ▁జనాభా▁మొత్తం▁1
করছে
Nu
),▁చెన్నై▁(వెనుకటి▁మద్రాసు),▁హైదరాబాద్,▁2011▁భారత▁జనాభా▁లెక్కలు▁ప్రకారం▁భారతదేశ▁జనాభా▁మొత్తం▁12
করণ▁এবং
Pakistan.
),▁చెన్నై▁(వెనుకటి▁మద్రాసు),▁హైదరాబాద్,▁2011▁భారత▁జనాభా▁లెక్కలు▁ప్రకారం▁భారతదేశ▁జనాభా▁మొత్తం▁121
করা▁হয়।
Plateau
),▁చెన్నై▁(వెనుకటి▁మద్రాసు),▁హైదరాబాద్,▁2011▁భారత▁జనాభా▁లెక్కలు▁ప్రకారం▁భారతదేశ▁జనాభా▁మొత్తం▁121,
কর্ণাট
Tamil▁
),▁చెన్నై▁(వెనుకటి▁మద్రాసు),▁హైదరాబాద్,▁2011▁భారత▁జనాభా▁లెక్కలు▁ప్రకారం▁భారతదేశ▁జనాభా▁మొత్తం▁121,01
কর্তৃত্ব
United▁St
),▁చెన్నై▁(వెనుకటి▁మద్రాసు),▁హైదరాబాద్,▁2011▁భారత▁జనాభా▁లెక్కలు▁ప్రకారం▁భారతదేశ▁జనాభా▁మొత్తం▁121,01,
কলকা
ade
),▁చెన్నై▁(వెనుకటి▁మద్రాసు),▁హైదరాబాద్,▁2011▁భారత▁జనాభా▁లెక్కలు▁ప్రకారం▁భారతదేశ▁జనాభా▁మొత్తం▁121,01,9
কলকে
ah
),▁చెన్నై▁(వెనుకటి▁మద్రాసు),▁హైదరాబాద్,▁2011▁భారత▁జనాభా▁లెక్కలు▁ప్రకారం▁భారతదేశ▁జనాభా▁మొత్తం▁121,01,93,
কলকাতা
ai,▁
),▁చెన్నై▁(వెనుకటి▁మద్రాసు),▁హైదరాబాద్,▁2011▁భారత▁జనాభా▁లెక్కలు▁ప్రకారం▁భారతదేశ▁జనాభా▁మొత్తం▁121,01,93,42
কলকেই▁
a,▁or▁
),▁చెన్నై▁(వెనుకటి▁మద్రాసు),▁హైదరాబాద్,▁2011▁భారత▁జనాభా▁లెక్కలు▁ప్రకారం▁భారతదేశ▁జనాభా▁మొత్తం▁121,01,93,422
কাঠা
ability▁
),▁చెన్నై▁(వెనుకటి▁మద్రాసు),▁హైదరాబాద్,▁2011▁భారత▁జనాభా▁లెక్కలు▁ప్రకారం▁భారతదేశ▁జనాభా▁మొత్తం▁121,01,93,422.
কাবাডি
ably▁
),▁ఢిల్లీ,▁కో
কায়▁
about▁
),▁ఢిల్లీ,▁కోల్‌కాతా
কার
ace
),▁ఢిల్లీ,▁కోల్‌కాతా▁(వెనుకటి
কারণ
aceut
),▁ఢిల్లీ,▁కోల్‌కాతా▁(వెనుకటి▁కల
কার্য
aceutical▁
),▁ఢిల్లీ,▁కోల్‌కాతా▁(వెనుకటి▁కలక
কার▁
aff
),▁ఢిల్లీ,▁కోల్‌కాతా▁(వెనుకటి▁కలకత్తా
কাঠামো
ages▁
),▁ఢిల్లీ,▁కోల్‌కాతా▁(వెనుకటి▁కలకత్తా),▁చెన్నై▁(వెనుకటి▁మద్రాసు),▁హైదరాబాద్,▁2011▁భారత▁జనాభా▁లెక్కలు▁ప్రకారం▁భారతదేశ▁జనాభా▁మొత్తం▁121,01,93,422.
কাপ▁
agricultural▁
):▁6
কাপের▁সহ
aksh
):▁6▁అం
কাপের▁সহ-আয়োজক▁দেশ
along▁the▁
):▁6▁అంకె
কারী।
amas▁
):▁6▁అంకెలు.
কালীন▁
amp
)▁లకు▁
কালে▁দেশে
ampl
)▁లు▁ప్ర
কাশ▁করে।
amental▁
)▁జాతీయ▁క్యాలెండ
কূলভূমি
an,▁
)▁జాతీయ▁క్యాలెండర్:
কূলরেখা
ann
)▁జాతీయ▁క్యాలెండర్:▁శ
কৃতি
annu
)▁జాతీయ▁క్యాలెండర్:▁శక▁
কৃত্রি
animal▁
)▁జాతీయ▁క్యాలెండర్:▁శక▁క్యాలెండ
কৃত্রিম
appro
)▁జాతీయ▁క్యాలెండర్:▁శక▁క్యాలెండర్▁
কৃত্রিম▁উপগ্রহ
approx
)▁జాతీయ▁క్యాలెండర్:▁శక▁క్యాలెండర్▁(శక▁సం.
কে▁একটি▁
approxim
)▁తరువాత,▁భారతదేశం
কে▁ভারত▁
approximately▁
)▁తరువాత,▁భారతదేశంలోని
কে▁স
ar,▁
)▁తరువాత,▁భారతదేశంలోని▁అధిక▁
কেন্দ্রশাসিত▁অঞ্চলগুলি
ara▁
)▁తరువాత,▁భారతదేశంలోని▁అధిక▁భాగం▁
কেরলে
archit
)▁తరువాత,▁భారతదేశంలోని▁అధిక▁భాగం▁బ్రిటిషు
কে▁কেন্দ্র
architect
)▁తరువాత,▁భారతదేశంలోని▁అధిక▁భాగం▁బ్రిటిషు▁సామ్రా
কে▁উল্লেখ
areas.
)▁తరువాత,▁భారతదేశంలోని▁అధిక▁భాగం▁బ్రిటిషు▁సామ్రాజ్యం
কোব
armaceutical▁
)▁తరువాత,▁భారతదేశంలోని▁అధిక▁భాగం▁బ్రిటిషు▁సామ్రాజ్యం▁
ক্ত▁করে
art,▁
)▁తరువాత,▁భారతదేశంలోని▁అధిక▁భాగం▁బ్రిటిషు▁సామ్రాజ్యం▁కిందకు▁వచ్చింది.
ক্তিয়া
assoc
)▁లకు▁దేశ
ক্রমা
associ
)▁లకు▁దేశమం
ক্রমবর্ধ
as▁well
)▁లకు▁దేశమంత
ক্রমবর্ধমান▁
ati
)▁లకు▁దేశమంతటా
ক্রমান্ব
atic▁
)▁లకు▁దేశమంతటా▁
ক্রমে▁পশ্চিম
ating▁
)▁లకు▁దేశమంతటా▁బహుళ
ক্রয়ক্ষমতা▁সমতা
ative▁
)▁లకు▁దేశమంతటా▁బహుళ▁
ক্রয়ক্ষমতা▁সমতার▁
att
)▁లకు▁దేశమంతటా▁బహుళ▁ప్రా
ক্রান্তী
ation.
)▁లకు▁దేశమంతటా▁బహుళ▁ప్రాచు
ক্রান্তীয়▁
a▁b
)▁లకు▁దేశమంతటా▁బహుళ▁ప్రాచుర్య
ক্রান্তীয়▁জলবায়ু
a▁d
)▁లకు▁దేశమంతటా▁బహుళ▁ప్రాచుర్యము
ক্রিয়া
a▁new▁
)▁లకు▁దేశమంతటా▁బహుళ▁ప్రాచుర్యము▁ఉంది.
ক্রীড়া
bar
)▁లు▁ప్రజల▁
ক্ষভাবে
bi
)▁లు▁ప్రజల▁ముఖ్య
ক্ষণের▁জন্য
befor
)▁లు▁ప్రజల▁ముఖ్య▁ఆహారం
ক্ষমতায়▁অ
below
)▁లు▁ప్రజల▁ముఖ్య▁ఆహారం.
ক্ষমতায়▁এ
called▁
)▁వారి
ক্ষমতায়▁অধি
cent▁
)▁వారి▁వ
ক্ষমতায়▁অধিষ্ঠি
cep
)▁వారి▁వలన▁
ক্ষমতায়▁এসে
cient▁
)▁వారి▁వలన▁ప్రా
ক্ষরতা
capit
)▁వారి▁వలన▁ప్రాముఖ్య
ক্ষিপ্ত
char
)▁వారి▁వలన▁ప్రాముఖ్యతను▁
ক্ষী▁বাহিনী
cities▁
)▁వారి▁వలన▁ప్రాముఖ్యతను▁పొం
ক্ষেপ
clas
)▁వారి▁వలన▁ప్రాముఖ్యతను▁పొంది
ক্ষেত্র▁সংরক্ষণ
commonly▁
)▁వారి▁వలన▁ప్రాముఖ్యతను▁పొందినది.
ক▁আ
consol
,7
ক▁উ
consider
,పాం
ক▁একটি▁
consist
,భాష
খনি
consolid
,000,000▁=▁1
খনিজ
cooking▁
,000▁సం
খন▁
creat
,000,000▁=▁1▁కో
খরা
created▁a▁
,000,000▁=▁1▁కోటి
খনিজ▁তে
ctic
,000,000▁=▁1▁కోటి.
খাদ্য
culture.
,000▁=▁1▁ల
খেল
d.
,000▁=▁1▁లక్ష
খেলা▁হল▁
del
,000▁=▁1▁లక్ష.
খ্যাত▁
dance-
,000▁సంవ
গতি
dance-dr
,000▁సంవత్సా
গর্ভ
dance-dramas▁
,000▁సంవత్సారాల▁
গঠিত▁হয়েছে
dest▁
,000▁సంవత్సారాల▁కింద
গণতান্ত্রিক▁জোট▁(
decades▁
,000▁సంవత్సారాల▁కిందట
গণতান্ত্রিক▁রাষ্ট্র।
ders▁
,000▁సంవత్సారాల▁కిందట▁
গণতান্ত্রিক▁জোট▁(এনডি
dish
,000▁సంవత్సారాల▁కిందట▁ఏర్పడ్డాయి.
গণিত
dist
,7%.
গতভাবে▁
directly▁
,పాండి
গত▁পরি
dually▁
,పాండిచ్చే
গর্ভস্থ
e's▁
,పాండిచ్చేరి
গর্ভস্থ▁পারমাণবিক▁পরী
eir▁
,పాండిచ్చేరి,▁
গর্ভস্থ▁পারমাণবিক▁পরীক্ষণ
ear▁
,పాండిచ్చేరి,▁జ
গাঙ্গে
ected▁
,పాండిచ్చేరి,▁జమ్మూ
গাছ
ection
,పాండిచ్చేరి,▁జమ్మూ▁కాశ్మీ
গাঙ্গেয়▁
edul
,పాండిచ్చేరి,▁జమ్మూ▁కాశ్మీర్▁
গাঙ্গেয়▁সমভূমি
education▁
,పాండిచ్చేరి,▁జమ్మూ▁కాశ్మీర్▁లకు
গীয়▁
emb
,పాండిచ్చేరి,▁జమ్మూ▁కాశ్మీర్▁లకు▁ప్రజ
গুজরা
emerged▁
,పాండిచ్చేరి,▁జమ్మూ▁కాశ్మీర్▁లకు▁ప్రజలచే
গুণ।
emocrat
,పాండిచ్చేరి,▁జమ్మూ▁కాశ్మీర్▁లకు▁ప్రజలచే▁ఎన్ను
গুপ্ত
emocratic▁
,పాండిచ్చేరి,▁జమ్మూ▁కాశ్మీర్▁లకు▁ప్రజలచే▁ఎన్నుకొ
গুজরাটে
enacted▁
,పాండిచ్చేరి,▁జమ్మూ▁కాశ్మీర్▁లకు▁ప్రజలచే▁ఎన్నుకొన
গুরুত্বপূর্ণ▁
endangered▁
,పాండిచ్చేరి,▁జమ్మూ▁కాశ్మీర్▁లకు▁ప్రజలచే▁ఎన్నుకొనబ
গুরুত্বপূর্ণ▁ভূমিকা
end▁of▁the▁
,పాండిచ్చేరి,▁జమ్మూ▁కాశ్మీర్▁లకు▁ప్రజలచే▁ఎన్నుకొనబడిన▁ప్రభు
গুলিতে
ent,▁
,పాండిచ్చేరి,▁జమ్మూ▁కాశ్మీర్▁లకు▁ప్రజలచే▁ఎన్నుకొనబడిన▁ప్రభుత్వం
গুলির▁মধ্যে▁
ent▁A
,పాండిచ్చేరి,▁జమ్మూ▁కాశ్మీర్▁లకు▁ప్రజలచే▁ఎన్నుకొనబడిన▁ప్రభుత్వం▁
গুলি▁
er,▁
,పాండిచ్చేరి,▁జమ్మూ▁కాశ్మీర్▁లకు▁ప్రజలచే▁ఎన్నుకొనబడిన▁ప్రభుత్వం▁వుం
গুলি▁ভারতের▁
ere
,పాండిచ్చేరి,▁జమ్మూ▁కాశ్మీర్▁లకు▁ప్రజలచే▁ఎన్నుకొనబడిన▁ప్రభుత్వం▁వుంటుంది.
গুলির▁মধ্যে▁উল্লেখযোগ্য
eri
,భాషలు,▁కులా
গুলি▁হল▁অ
ert▁
,భాషలు,▁కులాలు,▁ఆ
গুলোর▁মধ্যে
ergy▁
,భాషలు,▁కులాలు,▁ఆచా
গৃহী
es,▁including▁
,భాషలు,▁కులాలు,▁ఆచారా
গেম
es,▁or▁
,భాషలు,▁కులాలు,▁ఆచారాలు,▁
গোল
est-
,భాషలు,▁కులాలు,▁ఆచారాలు,▁సంప్రదాయాలు▁
গৌতম▁
estimated▁
,భాషలు,▁కులాలు,▁ఆచారాలు,▁సంప్రదాయాలు▁ఉం
গৌতম▁বুদ্ধ
est▁of▁
,భాషలు,▁కులాలు,▁ఆచారాలు,▁సంప్రదాయాలు▁ఉండు
গ্রাম▁
exchang
,భాషలు,▁కులాలు,▁ఆచారాలు,▁సంప్రదాయాలు▁ఉండుట
গ্রাস
express
,భాషలు,▁కులాలు,▁ఆచారాలు,▁సంప్రదాయాలు▁ఉండుటచే▁
গ্রিক▁ভাষায়▁
extant▁
,భాషలు,▁కులాలు,▁ఆచారాలు,▁సంప్రదాయాలు▁ఉండుటచే▁దీ
গ্রীষ্ম
external▁
,భాషలు,▁కులాలు,▁ఆచారాలు,▁సంప్రదాయాలు▁ఉండుటచే▁దీన్ని▁
ঘটা
far
,భాషలు,▁కులాలు,▁ఆచారాలు,▁సంప్రదాయాలు▁ఉండుటచే▁దీన్ని▁భౌగోళిక▁
ঘর্ষ
fast
,భాషలు,▁కులాలు,▁ఆచారాలు,▁సంప్రదాయాలు▁ఉండుటచే▁దీన్ని▁భౌగోళిక▁బి
ঘটায়।
five▁
,భాషలు,▁కులాలు,▁ఆచారాలు,▁సంప్రదాయాలు▁ఉండుటచే▁దీన్ని▁భౌగోళిక▁బిన్న
ঘটে।
fo
,భాషలు,▁కులాలు,▁ఆచారాలు,▁సంప్రదాయాలు▁ఉండుటచే▁దీన్ని▁భౌగోళిక▁బిన్నత్వం
ঘাটতি
found
,భాషలు,▁కులాలు,▁ఆచారాలు,▁సంప్రదాయాలు▁ఉండుటచే▁దీన్ని▁భౌగోళిక▁బిన్నత్వంలో▁ఏ
ঘাট▁পর্বতমালার▁
features▁
,భాషలు,▁కులాలు,▁ఆచారాలు,▁సంప్రదాయాలు▁ఉండుటచే▁దీన్ని▁భౌగోళిక▁బిన్నత్వంలో▁ఏకత్వం
ঘোষি
figure
,భాషలు,▁కులాలు,▁ఆచారాలు,▁సంప్రదాయాలు▁ఉండుటచే▁దీన్ని▁భౌగోళిక▁బిన్నత్వంలో▁ఏకత్వంగల▁దేశం
ঘোষিত▁
following▁
,భాషలు,▁కులాలు,▁ఆచారాలు,▁సంప్రదాయాలు▁ఉండుటచే▁దీన్ని▁భౌగోళిక▁బిన్నత్వంలో▁ఏకత్వంగల▁దేశంగా▁
ঙ্গানু
foreign▁
,భాషలు,▁కులాలు,▁ఆచారాలు,▁సంప్రదాయాలు▁ఉండుటచే▁దీన్ని▁భౌగోళిక▁బిన్నత్వంలో▁ఏకత్వంగల▁దేశంగా▁గుర్తిం
ঙ্গালু
fort
,భాషలు,▁కులాలు,▁ఆచారాలు,▁సంప్రదాయాలు▁ఉండుటచే▁దీన్ని▁భౌగోళిక▁బిన్నత్వంలో▁ఏకత్వంగల▁దేశంగా▁గుర్తించ
ঙ্গালুরু
global▁
,భాషలు,▁కులాలు,▁ఆచారాలు,▁సంప్రదాయాలు▁ఉండుటచే▁దీన్ని▁భౌగోళిక▁బిన్నత్వంలో▁ఏకత్వంగల▁దేశంగా▁గుర్తించవ
ঙ্গোপসাগরে
greater▁
,భాషలు,▁కులాలు,▁ఆచారాలు,▁సంప్రదాయాలు▁ఉండుటచే▁దీన్ని▁భౌగోళిక▁బిన్నత్వంలో▁ఏకత్వంగల▁దేశంగా▁గుర్తించవచ్చు.
ঙ্গোপসাগরে▁পতি
growing▁
,▁D
ঙ্গোপসাগরে▁পতিত▁হয়েছে।
growth▁rate▁
,▁ఆ
চার▁এ
hab
,▁ఎన్నో
চার▁এক্তিয়া
her▁
,▁ఐ
চালনার▁
his▁
,▁ఒ
চিত।
however,▁
,▁కు
চুক্তি▁(
hy
,▁కూ
চ্ছে।
ich
,▁కేంద్ర▁ప్రభుత్వం
চ্যালে
ical▁and▁
,▁క్యా
ছিলে
import
,▁క్రీ
ছু▁আ
inct
,▁ఖో
ছু▁আয়▁
ine▁
,▁గ
ছোটো
indigen
,▁గౌ
জয়
ing.
,▁చిన్న▁చిన్న
জয়ের▁
ingly▁
,▁చైనా
জ▁ও▁
ing▁of▁
,▁జై
জনবসতি▁
ing▁of▁the▁
,▁ద
জনবহু
intro
,▁దక్షి
জনতা▁পার্টি
involv
,▁ది
জনপ্রিয়তা
in▁201
,▁దేశం
জনপ্রিয়▁খেলা▁হল▁
in▁198
,▁ని
জনবহুল▁
ion,▁
,▁పా
জয়ী।
ion▁and▁
,▁పే
জাত▁
ism▁and▁
,▁పో
জায়▁
is▁the▁world's▁
,▁ప్ర
জার▁
itt
,▁బహుళ
জাতীয়▁দ
ity,▁
,▁బెంగాలీ
জিও
ived▁
,▁బౌ
জীববৈচিত্র্যে
ive▁p
,▁బ్రిటీ
জুন▁
ivilis
,▁భారతదేశం▁
জেলা
just▁
,▁భారత▁
জৈব
known▁
,▁ముఖ్యంగా▁
জৈবক্ষেত্র▁সংরক্ষণ
lay
,▁మే
জোটে
le
,▁మేన
জোট▁নিরপেক্ষ
los
,▁మై
জোটের▁সম
ly
,▁య
জোটের▁সমর্থ
ly,▁
,▁యు
জোট▁নিরপেক্ষ▁আন্দোল
lands▁
,▁రాజకీ
জোট▁নিরপেক্ষ▁আন্দোলনে
legislat
,▁లేదా
জ্ঞান▁ও▁
liance▁
,▁వ
জ্ঞান▁ও▁প্রযুক্তি
liv
,▁వాతావరణం
জ্যোতির্বি
local▁
,▁శ్రీ
ঝামা
lower▁
,▁సంప్రదాయాలు▁
ঝায়।
mer
,▁సాంకేతి
ঝামাঝি
main▁
,▁సె
ঝামাঝি▁থেকে
made▁
,▁స్వాతంత్ర్యం
ঞ্চলীয়▁
majority▁of▁
,▁హ
ঞ্চলে▁
ments▁
,▁హొ
ঞ্চলে▁দৈনিক▁
ment▁of▁
,▁195
টওয়্যা
millennium▁BCE
,▁196
টবর্তী
most▁popul
,▁1956
টাকা
movement▁
,▁1956▁వ
টিকে▁
national▁
,▁1956▁వలస
টি▁(
nom
,▁1956▁వలస▁భారతదేశం
টি▁রাজ্য
nt
,▁1956▁వలస▁భారతదేశం▁భారత
টি▁কেন্দ্রশাসিত▁অঞ্চল▁
not
,▁1956▁వలస▁భారతదేశం▁భారత▁జా
টোয়ে
north▁
,▁1956▁వలస▁భారతదేశం▁భారత▁జాతీ
টোয়েন্টি
official▁languag
,▁1956▁వలస▁భారతదేశం▁భారత▁జాతీయ
টোয়েন্টি-২০
of▁the▁Indian▁
,▁1956▁వలస▁భారతదేశం▁భారత▁జాతీయవాదం
ট্রিলিয়ন▁মার্কিন▁ডলা
oldest▁
,▁1956▁వలస▁భారతదేశం▁భారత▁జాతీయవాదం▁
ড়ুর▁
ond
,▁1956▁వలస▁భారతదేశం▁భారత▁జాతీయవాదం▁వె
ড়ে।
one▁of▁the▁
,▁1956▁వలస▁భారతదేశం▁భారత▁జాతీయవాదం▁వెల్లూ
ড়েছে।
opical▁
,▁1956▁వలస▁భారతదేశం▁భారత▁జాతీయవాదం▁వెల్లూరు▁
ডেভে
operation▁
,▁1956▁వలస▁భారతదేశం▁భారత▁జాతీయవాదం▁వెల్లూరు▁తిరుగుబాటు
ডেভেলপ
pass
,▁1956▁వలస▁భారతదేశం▁భారత▁జాతీయవాదం▁వెల్లూరు▁తిరుగుబాటు▁శ
ডেভেলপমেন্ট
pay
,▁1956▁వలస▁భారతదేశం▁భారత▁జాతీయవాదం▁వెల్లూరు▁తిరుగుబాటు▁శర
ডেভেলপমেন্ট▁অ
ped▁
,▁1956▁వలస▁భారతదేశం▁భారత▁జాతీయవాదం▁వెల్లూరు▁తిరుగుబాటు▁శరద్▁
ণ▁ও▁
put
,▁1956▁వలస▁భారతదేశం▁భారత▁జాతీయవాదం▁వెల్లూరు▁తిరుగుబాటు▁శరద్▁అ
ণ▁করা
part▁of▁
,▁1956▁వలస▁భారతదేశం▁భారత▁జాతీయవాదం▁వెల్లూరు▁తిరుగుబాటు▁శరద్▁అర
ণিপু
parliamentary▁system
,▁1956▁వలస▁భారతదేశం▁భారత▁జాతీయవాదం▁వెల్లూరు▁తిరుగుబాటు▁శరద్▁అరవిం
তনের▁
partit
,▁1956▁వలస▁భారతదేశం▁భారత▁జాతీయవాదం▁వెల్లూరు▁తిరుగుబాటు▁శరద్▁అరవింద్▁
তন্ত্রে
pharmaceutical▁
,▁1956▁వలస▁భారతదేశం▁భారత▁జాతీయవాదం▁వెల్లూరు▁తిరుగుబాటు▁శరద్▁అరవింద్▁బా
ত▁ভারতীয়▁
play
,▁1956▁వలస▁భారతదేశం▁భారత▁జాతీయవాదం▁వెల్లూరు▁తిరుగుబాటు▁శరద్▁అరవింద్▁బాబ్డే
ত,▁ন
poll
,▁1956▁వలస▁భారతదేశం▁భారత▁జాతీయవాదం▁వెల్లూరు▁తిరుగుబాటు▁శరద్▁అరవింద్▁బాబ్డే▁భారతదేశంలోని▁
তাত্ত্বি
proc
,▁1956▁వలస▁భారతదేశం▁భారత▁జాతీయవాదం▁వెల్లూరు▁తిరుగుబాటు▁శరద్▁అరవింద్▁బాబ్డే▁భారతదేశంలోని▁ప్రా
তানি
prime▁minister.
,▁1956▁వలస▁భారతదేశం▁భారత▁జాతీయవాదం▁వెల్లూరు▁తిరుగుబాటు▁శరద్▁అరవింద్▁బాబ్డే▁భారతదేశంలోని▁ప్రాచ్య
তামা
produc
,▁1956▁వలస▁భారతదేశం▁భారత▁జాతీయవాదం▁వెల్లూరు▁తిరుగుబాటు▁శరద్▁అరవింద్▁బాబ్డే▁భారతదేశంలోని▁ప్రాచ్య▁పరి
তামি
protec
,▁1956▁వలస▁భారతదేశం▁భారత▁జాతీయవాదం▁వెల్లూరు▁తిరుగుబాటు▁శరద్▁అరవింద్▁బాబ్డే▁భారతదేశంలోని▁ప్రాచ్య▁పరిశో
তারা
rang
,▁1956▁వలస▁భారతదేశం▁భారత▁జాతీయవాదం▁వెల్లూరు▁తిరుగుబాటు▁శరద్▁అరవింద్▁బాబ్డే▁భారతదేశంలోని▁ప్రాచ్య▁పరిశోధ
তা▁স
rich▁
,▁1956▁వలస▁భారతదేశం▁భారత▁జాతీయవాదం▁వెల్లూరు▁తిరుగుబాటు▁శరద్▁అరవింద్▁బాబ్డే▁భారతదేశంలోని▁ప్రాచ్య▁పరిశోధనా
তা▁সদস্য
ra,▁
,▁1956▁వలస▁భారతదేశం▁భారత▁జాతీయవాదం▁వెల్లూరు▁తిరుగుబాటు▁శరద్▁అరవింద్▁బాబ్డే▁భారతదేశంలోని▁ప్రాచ్య▁పరిశోధనా▁సం
তা▁সদস্য।
rac
,▁1956▁వలస▁భారతదేశం▁భారత▁జాతీయవాదం▁వెల్లూరు▁తిరుగుబాటు▁శరద్▁అరవింద్▁బాబ్డే▁భారతదేశంలోని▁ప్రాచ్య▁పరిశోధనా▁సంస్థ
তি।
ractic
,▁1956▁వలస▁భారతదేశం▁భారత▁జాతీయవాదం▁వెల్లూరు▁తిరుగుబాటు▁శరద్▁అరవింద్▁బాబ్డే▁భారతదేశంలోని▁ప్రాచ్య▁పరిశోధనా▁సంస్థలు▁భారతదేశ
তিনটি▁
recor
,▁1956▁వలస▁భారతదేశం▁భారత▁జాతీయవాదం▁వెల్లూరు▁తిరుగుబాటు▁శరద్▁అరవింద్▁బాబ్డే▁భారతదేశంలోని▁ప్రాచ్య▁పరిశోధనా▁సంస్థలు▁భారతదేశ▁చరిత్ర
তিনি
reform
,▁1956▁వలస▁భారతదేశం▁భారత▁జాతీయవాదం▁వెల్లూరు▁తిరుగుబాటు▁శరద్▁అరవింద్▁బాబ్డే▁భారతదేశంలోని▁ప్రాచ్య▁పరిశోధనా▁సంస్థలు▁భారతదేశ▁చరిత్ర▁–▁
তিন▁
relat
,▁1956▁వలస▁భారతదేశం▁భారత▁జాతీయవాదం▁వెల్లూరు▁తిరుగుబాటు▁శరద్▁అరవింద్▁బాబ్డే▁భారతదేశంలోని▁ప్రాచ్య▁పరిశోధనా▁సంస్థలు▁భారతదేశ▁చరిత్ర▁–▁ముఖ్యమైన▁
তি▁অ
reach
,▁1956▁వలస▁భారతదేశం▁భారత▁జాతీయవాదం▁వెల్లూరు▁తిరుగుబాటు▁శరద్▁అరవింద్▁బాబ్డే▁భారతదేశంలోని▁ప్రాచ్య▁పరిశోధనా▁సంస్థలు▁భారతదేశ▁చరిత్ర▁–▁ముఖ్యమైన▁ఘ
তি▁হা
religions▁
,▁1956▁వలస▁భారతదేశం▁భారత▁జాతీయవాదం▁వెల్లూరు▁తిరుగుబాటు▁శరద్▁అరవింద్▁బాబ్డే▁భారతదేశంలోని▁ప్రాచ్య▁పరిశోధనా▁సంస్థలు▁భారతదేశ▁చరిత్ర▁–▁ముఖ్యమైన▁ఘట్టా
তি▁হাজার▁
renew
,▁1956▁వలస▁భారతదేశం▁భారత▁జాతీయవాదం▁వెల్లూరు▁తిరుగుబాటు▁శరద్▁అరవింద్▁బాబ్డే▁భారతదేశంలోని▁ప్రాచ్య▁పరిశోధనా▁సంస్థలు▁భారతదేశ▁చరిత్ర▁–▁ముఖ్యమైన▁ఘట్టాలు▁భారతదేశ
তুলনা
result
,▁1956▁వలస▁భారతదేశం▁భారత▁జాతీయవాదం▁వెల్లూరు▁తిరుగుబాటు▁శరద్▁అరవింద్▁బాబ్డే▁భారతదేశంలోని▁ప్రాచ్య▁పరిశోధనా▁సంస్థలు▁భారతదేశ▁చరిత్ర▁–▁ముఖ్యమైన▁ఘట్టాలు▁భారతదేశ▁
তূল্য
rock
,▁1956▁వలస▁భారతదేశం▁భారత▁జాతీయవాదం▁వెల్లూరు▁తిరుగుబాటు▁శరద్▁అరవింద్▁బాబ్డే▁భారతదేశంలోని▁ప్రాచ్య▁పరిశోధనా▁సంస్థలు▁భారతదేశ▁చరిత్ర▁–▁ముఖ్యమైన▁ఘట్టాలు▁భారతదేశ▁సై
তৃতীয়▁শতকে▁
rule.
,▁1956▁వలస▁భారతదేశం▁భారత▁జాతీయవాదం▁వెల్లూరు▁తిరుగుబాటు▁శరద్▁అరవింద్▁బాబ్డే▁భారతదేశంలోని▁ప్రాచ్య▁పరిశోధనా▁సంస్థలు▁భారతదేశ▁చరిత్ర▁–▁ముఖ్యమైన▁ఘట్టాలు▁భారతదేశ▁సైనిక▁
তে▁না
s;▁
,▁1956▁వలస▁భారతదేశం▁భారత▁జాతీయవాదం▁వెల్లూరు▁తిరుగుబాటు▁శరద్▁అరవింద్▁బాబ్డే▁భారతదేశంలోని▁ప్రాచ్య▁పరిశోధనా▁సంస్థలు▁భారతదేశ▁చరిత్ర▁–▁ముఖ్యమైన▁ఘట్టాలు▁భారతదేశ▁సైనిక▁చ
তে▁সক্ষম
saf
,▁1956▁వలస▁భారతదేశం▁భారత▁జాతీయవాదం▁వెల్లూరు▁తిరుగుబాటు▁శరద్▁అరవింద్▁బాబ్డే▁భారతదేశంలోని▁ప్రాచ్య▁పరిశోధనా▁సంస్థలు▁భారతదేశ▁చరిత్ర▁–▁ముఖ్యమైన▁ఘట్టాలు▁భారతదేశ▁సైనిక▁చరిత్ర
তে▁হয়।
sh▁
,▁1965,▁197
তে▁সক্ষম▁হয়।
sil
,▁1965,▁1971
ত্থানশীল▁
ss
,▁1965,▁1971లో
ত্থান▁
s,▁and▁the▁
,▁1965,▁1971లోను▁
ত্থানশীল▁হি
s,▁or▁
,▁1965,▁1971లోను▁యు
ত্থানশীল▁হিমালয়ের▁
school
,▁1965,▁1971లోను▁యుద్ధా
ত্যক্ষ▁শাসনাধী
second▁
,▁1965,▁1971లోను▁యుద్ధాలు▁
ত্যন্ত▁ক
shar
,▁1965,▁1971లోను▁యుద్ధాలు▁జరి
ত্যিক▁
show
,▁1965,▁1971లోను▁యుద్ధాలు▁జరిగా
ত্যে▁
significant▁
,▁1965,▁1971లోను▁యుద్ధాలు▁జరిగాయి.
ত্রপা
single▁
,▁D▁
ত▁উত্তর▁ভারতে
societ
,▁D▁&▁M▁(CEE▁7/16;▁CEE▁7/17;▁BS▁546)▁టెలివిజన్▁సిగ్నలు:▁PAL▁B/G▁ఆర్ధిక▁సంవత్సరం▁ఏప్రిల్▁1▁న▁మొదలవుతుంది.
ত▁একটি▁
south-
,▁అనేక▁
ত▁এবং
southern▁
,▁అప్పి
ত▁করতে
speak
,▁అవ
ত▁করে।
spon
,▁అవి
ত▁ব
spor
,▁అనేక▁చారిత్ర
ত▁হয়;▁যার▁
species▁
,▁అనేక▁చారిత్రక▁వాణిజ్య
থমে▁
ste
,▁అనేక▁చారిత్రక▁వాణిజ్య▁రహదారు
থাপিছু▁আয়▁
sti
,▁అనేక▁చారిత్రక▁వాణిజ్య▁రహదారులను▁క
থেষ্ট
struct
,▁అనేక▁చారిత్రక▁వాణిజ్య▁రహదారులను▁కలిగి
দপ্ত
sultanate▁
,▁అనేక▁చారిత్రక▁వాణిజ్య▁రహదారులను▁కలిగి▁ఉంది.
দক্ষিণ-
system▁
,▁అప్పిలే
দক্ষিণ▁ভারতের▁
s▁in▁
,▁అప్పిలేట్▁
দক্ষিণ▁এশিয়ার▁
tal
,▁అప్పిలేట్▁కోర్టు
দশ▁শ
tor
,▁అప్పిలేట్▁కోర్టులు,▁
দশকগুলিতে
trib
,▁అప్పిలేట్▁కోర్టులు,▁హై
দশ▁শতাব্দী
tt
,▁అప్పిలేట్▁కోర్టులు,▁హైకోర్టులు▁
দারি
ty
,▁అప్పిలేట్▁కోర్టులు,▁హైకోర్టులు▁ఉంటాయి.
দার্থ
tax
,▁అవసర
দাঁড়া
technology▁
,▁అవసరమై
দি,▁
th.
,▁అవసరమైతే
দিন▁
thought▁
,▁అవసరమైతే▁క
দিল্লি
three▁
,▁అవసరమైతే▁కరా
দিক▁যুগে
them▁
,▁అవసరమైతే▁కరాచీ
দুর্ব
third-largest▁
,▁అవసరమైతే▁కరాచీ,▁ఇ
দুই▁দশকে
third▁
,▁అవసరమైతే▁కరాచీ,▁ఇస్లామాబా
দুর্বল
times▁
,▁అవసరమైతే▁కరాచీ,▁ఇస్లామాబాద్▁
দের▁অ
took
,▁అవసరమైతే▁కరాచీ,▁ఇస్లామాబాద్▁వ
দের▁মধ্যে▁
tou
,▁అవసరమైతే▁కరాచీ,▁ఇస్లామాబాద్▁వర
দের▁স
touch
,▁అవసరమైతే▁కరాచీ,▁ఇస్లామాబాద్▁వరకూ
দেশীয়▁
to▁a▁
,▁అవసరమైతే▁కరాచీ,▁ఇస్లామాబాద్▁వరకూ▁
দে▁
to▁have▁
,▁అవసరమైతే▁కరాచీ,▁ఇస్లామాబాద్▁వరకూ▁పొ
দের▁নিম্ন
to▁w
,▁అవసరమైతే▁కరాచీ,▁ఇస్లామాబాద్▁వరకూ▁పొడి
দের▁নিম্নকক্ষে
tropical▁
,▁అవసరమైతే▁కరాచీ,▁ఇస్లామాబాద్▁వరకూ▁పొడిగిం
দেশ▁হিসাবে
traditionally▁
,▁అవసరమైతే▁కరాచీ,▁ఇస్లామాబాద్▁వరకూ▁పొడిగించుకోవ
দৈর্ঘ্য
transm
,▁అవసరమైతే▁కరాచీ,▁ఇస్లామాబాద్▁వరకూ▁పొడిగించుకోవచ్చని▁
দৈর্ঘ্য▁
uar
,▁అవసరమైతే▁కరాచీ,▁ఇస్లామాబాద్▁వరకూ▁పొడిగించుకోవచ్చని▁నిపుణులు▁
দৈর্ঘ্য▁৭
u▁and▁
,▁అవసరమైతే▁కరాచీ,▁ఇస్లామాబాద్▁వరకూ▁పొడిగించుకోవచ్చని▁నిపుణులు▁సూచించినట్లు
দৈর্ঘ্য▁৭,৫১৭▁কিলোমিটার▁(৪,৬৭১▁মাইল)।
undamental▁
,▁అవసరమైతే▁కరాచీ,▁ఇస్లామాబాద్▁వరకూ▁పొడిగించుకోవచ్చని▁నిపుణులు▁సూచించినట్లు▁పాక్▁రైల్వే
দ্বিকক্ষবিশিষ্ট▁সংসদ
under▁the▁
,▁అవసరమైతే▁కరాచీ,▁ఇస్లామాబాద్▁వరకూ▁పొడిగించుకోవచ్చని▁నిపుణులు▁సూచించినట్లు▁పాక్▁రైల్వే▁అధికార
দ্বিগুণ।
union▁territor
,▁అవసరమైతే▁కరాచీ,▁ఇస్లామాబాద్▁వరకూ▁పొడిగించుకోవచ్చని▁నిపుణులు▁సూచించినట్లు▁పాక్▁రైల్వే▁అధికార▁వ
দ্বিতীয়▁
used▁in▁
,▁అవసరమైతే▁కరాచీ,▁ఇస్లామాబాద్▁వరకూ▁పొడిగించుకోవచ్చని▁నిపుణులు▁సూచించినట్లు▁పాక్▁రైల్వే▁అధికార▁వర్గాలు▁
দ্রাবি
vic
,▁అవసరమైతే▁కరాచీ,▁ఇస్లామాబాద్▁వరకూ▁పొడిగించుకోవచ్చని▁నిపుణులు▁సూచించినట్లు▁పాక్▁రైల్వే▁అధికార▁వర్గాలు▁పేర్కొ
দ্রাবিড়
weap
,▁అవసరమైతే▁కరాచీ,▁ఇస్లామాబాద్▁వరకూ▁పొడిగించుకోవచ్చని▁నిపుణులు▁సూచించినట్లు▁పాక్▁రైల్వే▁అధికార▁వర్గాలు▁పేర్కొన్నాయి.
দ্রুত
went▁
,▁అవినీ
দ্রুত▁বর্ধনশী
west▁
,▁అవినీతి,▁
দ্রুত▁বর্ধনশীল▁অ
wild
,▁అవినీతి,▁పో
দ্রোহ
writ
,▁అవినీతి,▁పోష
ধর্মী
was▁the▁
,▁అవినీతి,▁పోషకాహార▁
ধর্ম▁ও▁
with▁an▁
,▁అవినీతి,▁పోషకాహార▁లో
ধর▁রাষ্ট্র
with▁its▁
,▁అవినీతి,▁పోషకాహార▁లోపం
ধর▁রাষ্ট্রে▁পরিণত▁হয়।
y's▁
,▁అవినీతి,▁పోషకాహార▁లోపం▁
ধা-যুক্তরাষ্ট্রী
yan▁
,▁అవినీతి,▁పోషకాహార▁లోపం▁వంటి
ধান।
°▁
,▁అవినీతి,▁పోషకాహార▁లోపం▁వంటి▁స
ধার
▁All▁
,▁అవినీతి,▁పోషకాహార▁లోపం▁వంటి▁సవా
ধারণা
▁Although▁
,▁అవినీతి,▁పోషకాహార▁లోపం▁వంటి▁సవాళ్ల
ধুনিক
▁During▁
,▁అవినీతి,▁పోషకాహార▁లోపం▁వంటి▁సవాళ్లను▁
ধুনিক▁ভারত▁
▁In▁200
,▁అవినీతి,▁పోషకాహార▁లోపం▁వంటి▁సవాళ్లను▁ఎ
ধ্রুপদি▁ভাষার▁মর্যাদা
▁It▁is▁
,▁అవినీతి,▁పోషకాహార▁లోపం▁వంటి▁సవాళ్లను▁ఎదు
নগুলি
▁Many▁
,▁అవినీతి,▁పోషకాహార▁లోపం▁వంటి▁సవాళ్లను▁ఎదుర్కొంటు
নবিংশ▁শতাব্দী
▁St
,▁అవినీతి,▁పోషకాహార▁లోపం▁వంటి▁సవాళ్లను▁ఎదుర్కొంటున్నది.
নরায়▁
▁Their▁
,▁ఆధ్యా
ন-১
▁There▁are▁
,▁ఆధ్యాత్మి
নগরী
▁The▁P
,▁ఆధ్యాత్మిక
নদীগুলি▁হল▁
".
,▁ఆధ్యాత్మికత▁
নশীল
"▁or▁
,▁ఆధ్యాత్మికత▁మే
নাত্ম
%▁of▁the▁
,▁ఆధ్యాత్మికత▁మేళ
নাম▁
(c.
,▁ఆధ్యాత్మికత▁మేళవిం
না▁
(i
,▁ఆధ్యాత్మికత▁మేళవింపబ
না▁ও▁
)▁and▁the▁
,▁ఆధ్యాత్మికత▁మేళవింపబడి▁ఉంటాయి.
নাটক▁অ
,6
,▁ఇది▁
নাম▁ভারত
,000▁years▁ago.
,▁ఇన్‌ఫ
নাম▁ভারতবর্ষ
,▁P
,▁ఇప్పటి
নিকোব
,▁between▁
,▁ఇండో
নিরিখে
,▁but▁
,▁ఇందు
নিষে
,▁especially▁
,▁ఇంగ్లీషు▁భాష
নিসে
,▁whose▁
,▁ఇంగ్లీషు▁లో
নিকটবর্তী
00▁mi
,▁ఇంగ్లీషు▁భాషలను▁
নিজস্ব
0▁million▁
,▁ఇంగ్లీషు▁భాషలను▁ఉపయోగి
নিয়ন্ত্র
1,000▁
,▁ఇంగ్లీషు▁భాషలను▁ఉపయోగిస్తుం
নিয়োগে
100▁
,▁ఇంగ్లీషు▁భాషలను▁ఉపయోగిస్తుంది.
নিরিখে▁
1st▁
,▁ఇంగ్లీషు▁లోను▁
নির্বাচ
1▁and▁
,▁ఇంగ్లీషు▁లోను▁కూడా
নৃত্যকলা
185
,▁ఇంగ్లీషు▁లోను▁కూడా▁రా
নের▁সঙ্গে▁ভারতের▁
194
,▁ఇంగ్లీషు▁లోను▁కూడా▁రాసి
নে▁জয়
197
,▁ఇంగ్లీషు▁లోను▁కూడా▁రాసిన▁ప్ర
নে▁জয়লাভ▁করে
198
,▁ఇంగ్లీషు▁లోను▁కూడా▁రాసిన▁ప్రసిద్ధి▁చెం
নোত্ত
1965,▁
,▁ఇంగ్లీషు▁లోను▁కూడా▁రాసిన▁ప్రసిద్ధి▁చెందిన▁
নোবেল▁
30
,▁ఇంగ్లీషు▁లోను▁కూడా▁రాసిన▁ప్రసిద్ధి▁చెందిన▁ర
নোবেল▁পুরস্কা
4,▁
,▁ఇంగ్లీషు▁లోను▁కూడా▁రాసిన▁ప్రసిద్ధి▁చెందిన▁రచయిత
ন্ডোয়া
40
,▁ఇంగ్లీషు▁లోను▁కూడా▁రాసిన▁ప్రసిద్ధి▁చెందిన▁రచయితలెం
ন্তরী
43
,▁ఇంగ్లీషు▁లోను▁కూడా▁రాసిన▁ప్రసిద్ధి▁చెందిన▁రచయితలెంద
ন্তরীণ
4▁general▁election
,▁ఇంగ్లీషు▁లోను▁కూడా▁రాసిన▁ప్రసిద్ధి▁చెందిన▁రచయితలెందరో
ন্তোষ
4▁general▁election,▁the▁
,▁ఇంగ్లీషు▁లోను▁కూడా▁రాసిన▁ప్రసిద్ధి▁చెందిన▁రచయితలెందరో▁
ন্দিআ▁(
50▁
,▁ఇంగ్లీషు▁లోను▁కూడా▁రాసిన▁ప్రసిద్ధి▁చెందిన▁రచయితలెందరో▁ఉన్నారు.
ন্ধনশৈ
6%▁of▁
,▁ఇండో-
ন্ধনশৈলী
8–
,▁ఇండో-ఆ
ন্ধ্রপ্র
Ak
,▁ఇండో-ఆర్య
ন্ধ্রপ্রদেশের▁
Al
,▁ఇండో-ఆర్యన్,▁
ন্যস্ত
Ash
,▁ఇండో-ఆర్యన్,▁ద్రా
ন্স▁ও▁
Arabian▁
,▁ఇండో-ఆర్యన్,▁ద్రావి
ন▁করতে
Arabian▁S
,▁ఇండో-ఆర్యన్,▁ద్రావిడ
ন▁ও▁চী
Ashok
,▁ఇండో-ఆర్యన్,▁ద్రావిడ▁భాష
ন▁ও▁বা
Ashoka▁
,▁ఇండో-ఆర్యన్,▁ద్రావిడ▁భాషలు.
ন▁করে।
Bang
,▁ఇందులో▁
ন▁করেছে।
Bay▁
,▁ఇందులో▁పురుషు
পক▁
Bangl
,▁ఇందులో▁పురుషుల▁అ
পত্তি
Banglade
,▁ఇందులో▁పురుషుల▁అక్షరాస్యత▁8
পথে
Bay▁of▁
,▁ఇందులో▁పురుషుల▁అక్షరాస్యత▁82,
পদ
British
,▁ఇందులో▁పురుషుల▁అక్షరాస్యత▁82,1
পর্য
Buddhism▁and▁
,▁ఇందులో▁పురుషుల▁అక్షరాస్యత▁82,14%
পলি
Civilis
,▁ఇందులో▁పురుషుల▁అక్షరాస్యత▁82,14%,▁మ
পল▁
China▁
,▁ఇందులో▁పురుషుల▁అక్షరాస్యత▁82,14%,▁మహి
পরমাণু▁
Constit
,▁ఇందులో▁పురుషుల▁అక్షరాస్యత▁82,14%,▁మహిళ
পরমাণু▁প
Constitu
,▁ఇందులో▁పురుషుల▁అక్షరాస్యత▁82,14%,▁మహిళల▁అ
পরমাণু▁পরী
Constituent▁A
,▁ఇందులో▁పురుషుల▁అక్షరాస్యత▁82,14%,▁మహిళల▁అక్షరాస్యత▁
পরিবা
Constituent▁Ass
,▁ఇందులో▁పురుషుల▁అక్షరాస్యత▁82,14%,▁మహిళల▁అక్షరాస్యత▁7
পরিমাণ▁
Constituent▁Assemb
,▁ఇందులో▁పురుషుల▁అక్షరాస్యత▁82,14%,▁మహిళల▁అక్షరాస్యత▁75
পরেই▁
Constituent▁Assembly▁
,▁ఇందులో▁పురుషుల▁అక్షరాస్యత▁82,14%,▁మహిళల▁అక్షరాస్యత▁75,7%.
পর▁থেকে
Constituent▁Assembly▁of▁India▁
,▁ఇతర▁ఖనిజాలు▁
পশ্চিমে▁আ
Decc
,▁ఇతర▁ఖనిజాలు▁ఎ
পশ্চিম▁
Deccan▁
,▁ఇతర▁ఖనిజాలు▁తె
পাঞ্জা
East
,▁ఇతర▁ఖనిజాలు▁ఎగు
পাতটি▁
Empire.
,▁ఇతర▁ఖనిజాలు▁ఎగుమతి
পাতের▁
Euras
,▁ఇతర▁ఖనిజాలు▁ఎగుమతి▁చేయ
পাত▁ও▁
Fron
,▁ఇతర▁ఖనిజాలు▁ఎగుమతి▁చేయడానికి
পারেশন▁
Guj
,▁ఇతర▁ఖనిజాలు▁ఎగుమతి▁చేయడానికి▁ఈ
পার্টি
Gup
,▁ఇతర▁ఖనిజాలు▁ఎగుమతి▁చేయడానికి▁ఈ▁ర
পার▁
Greek
,▁ఇతర▁ఖనిజాలు▁ఎగుమతి▁చేయడానికి▁ఈ▁రవాణా
পাহি
Gujar
,▁ఇతర▁ఖనిజాలు▁ఎగుమతి▁చేయడానికి▁ఈ▁రవాణా▁మార్గం
পাঁচ▁বছ
HO
,▁ఇతర▁ఖనిజాలు▁ఎగుమతి▁చేయడానికి▁ఈ▁రవాణా▁మార్గం▁
পারকম্পিউটা
Himalaya
,▁ఇతర▁ఖనిజాలు▁ఎగుమతి▁చేయడానికి▁ఈ▁రవాణా▁మార్గం▁చాలా
পারসি
Hinduism,▁
,▁ఇతర▁ఖనిజాలు▁ఎగుమతి▁చేయడానికి▁ఈ▁రవాణా▁మార్గం▁చాలా▁అ
পিপিপি
Indon
,▁ఇతర▁ఖనిజాలు▁ఎగుమతి▁చేయడానికి▁ఈ▁రవాణా▁మార్గం▁చాలా▁అను
পীয়
Indira▁
,▁ఇతర▁ఖనిజాలు▁ఎగుమతి▁చేయడానికి▁ఈ▁రవాణా▁మార్గం▁చాలా▁అనువై
পুরা
India,▁and▁
,▁ఇతర▁ఖనిజాలు▁ఎగుమతి▁చేయడానికి▁ఈ▁రవాణా▁మార్గం▁చాలా▁అనువైనది.
পুষ্টি
India,▁and▁the▁
,▁ఇతర▁ఖనిజాలు▁తెప్పిం
পূজা
Indian▁government
,▁ఇతర▁ఖనిజాలు▁తెప్పించుకోవ
পূর্ব▁দি
Indian▁mathemat
,▁ఇతర▁ఖనిజాలు▁తెప్పించుకోవడానికి
পৃষ্ঠ
India▁from▁the▁
,▁ఇతర▁ఖనిజాలు▁తెప్పించుకోవడానికి,▁మ
পে▁
India▁is▁a▁
,▁ఇతర▁ఖనిజాలు▁తెప్పించుకోవడానికి,▁మన
পৌরা
Indira▁Gandhi▁
,▁ఇతర▁ఖనిజాలు▁తెప్పించుకోవడానికి,▁మనదేశం▁
পৌরাণিক▁
Indone
,▁ఇతర▁ఖనిజాలు▁తెప్పించుకోవడానికి,▁మనదేశం▁నుంచి
প্তানি
Indonesi
,▁ఇతర▁ఖనిజాలు▁తెప్పించుకోవడానికి,▁మనదేశం▁నుంచి▁ఇతరదేశా
প্রচলি
Indus▁Valley▁Civilis
,▁ఇతర▁ఖనిజాలు▁తెప్పించుకోవడానికి,▁మనదేశం▁నుంచి▁ఇతరదేశాలకు▁
প্রবৃদ্ধি
Islamic▁
,▁ఇతర▁ఖనిజాలు▁తెప్పించుకోవడానికి,▁మనదేశం▁నుంచి▁ఇతరదేశాలకు▁ముడి
প্রজাতি▁
Janat
,▁ఇతర▁ఖనిజాలు▁తెప్పించుకోవడానికి,▁మనదేశం▁నుంచి▁ఇతరదేశాలకు▁ముడి▁ఇ
প্রতিবে
Janata▁
,▁ఇతర▁ఖనిజాలు▁తెప్పించుకోవడానికి,▁మనదేశం▁నుంచి▁ఇతరదేశాలకు▁ముడి▁ఇను
প্রতিষ্ঠা
Kal
,▁ఇతర▁ఖనిజాలు▁తెప్పించుకోవడానికి,▁మనదేశం▁నుంచి▁ఇతరదేశాలకు▁ముడి▁ఇనుము
প্রতিবেশী
Kashmir
,▁ఇతర▁ఖనిజాలు▁తెప్పించుకోవడానికి,▁మనదేశం▁నుంచి▁ఇతరదేశాలకు▁ముడి▁ఇనుము,▁ఇతర▁ఖనిజాలు▁ఎగుమతి▁చేయడానికి▁ఈ▁రవాణా▁మార్గం▁చాలా▁అనువైనది.
প্রবাহকে
Mal
,▁ఇది▁సింధూ
প্রাকৃতিক▁
Mid
,▁ఇది▁సింధూనది▁
প্রাচীন▁
Myan
,▁ఇది▁సింధూనది▁పేరు▁
ফর▁
Middle▁
,▁ఇది▁సింధూనది▁పేరు▁మీదగా▁వ
ফাইনা
Mohen
,▁ఇది▁సింధూనది▁పేరు▁మీదగా▁వచ్చింది.
ফার্সি
Mohenj
,▁ఇన్‌ఫర్మే
ফুটবল▁খেলা
Mohenjo-
,▁ఇన్‌ఫర్మేష
ফুটবল▁ফেডারেশন▁
Mohenjo-d
,▁ఇన్‌ఫర్మేషన్▁
ফ্রন্ট
Mohenjo-dar
,▁ఇన్‌ఫర్మేషన్▁టె
ফ্রান্স▁ও▁
Mughal▁Empire▁
,▁ఇన్‌ఫర్మేషన్▁టెక్నా
বন্ধ
Myanmar
,▁ఇన్‌ఫర్మేషన్▁టెక్నాల
বল
ND
,▁ఇన్‌ఫర్మేషన్▁టెక్నాలజీ
বলে
Nic
,▁ఇన్‌ఫర్మేషన్▁టెక్నాలజీ,▁హ
ব▁
Non-
,▁ఇన్‌ఫర్మేషన్▁టెక్నాలజీ,▁హస్త
ব▁অনুযায়ী
National▁Congress▁
,▁ఇన్‌ఫర్మేషన్▁టెక్నాలజీ,▁హస్త▁క
বছর▁
Nicob
,▁ఇన్‌ఫర్మేషన్▁టెక్నాలజీ,▁హస్త▁కళ
বর্তমানে
North▁
,▁ఇన్‌ఫర్మేషన్▁టెక్నాలజీ,▁హస్త▁కళలు.
বলম্বী
Pl
,▁ఇప్పటికీ
বসবাস
Pro
,▁ఇప్పటికీ▁హిందూ
বাহা
Persian▁
,▁ఇప్పటికీ▁హిందూ▁మత▁
বাংলাদেশ
Punjab▁
,▁ఇప్పటికీ▁హిందూ▁మత▁ప్రా
বাসস্থ
Sik
,▁ఇప్పటికీ▁హిందూ▁మత▁ప్రార్థ
বাহিনীর▁স
South▁Indian▁
,▁ఇప్పటికీ▁హిందూ▁మత▁ప్రార్థన
বিচারে
South▁India▁
,▁ఇప్పటికీ▁హిందూ▁మత▁ప్రార్థనలలో▁
বিচার▁এক্তিয়া
Treat
,▁ఇప్పటికీ▁హిందూ▁మత▁ప్రార్థనలలో▁ఈ
বিচ্ছিন্ন
Thar▁
,▁ఇప్పటికీ▁హిందూ▁మత▁ప్రార్థనలలో▁ఈ▁పేరు▁
বিচ্ছে
Thar▁Des
,▁ఇప్పటికీ▁హిందూ▁మత▁ప్రార్థనలలో▁ఈ▁పేరు▁ఉపయోగి
বিভিন্ন
The▁Indian▁
,▁ఇప్పటికీ▁హిందూ▁మత▁ప్రార్థనలలో▁ఈ▁పేరు▁ఉపయోగిస్తా
বিমা
UP
,▁ఇప్పటికీ▁హిందూ▁మత▁ప్రార్థనలలో▁ఈ▁పేరు▁ఉపయోగిస్తారు▁(
বিষু
US$2
,▁ఇప్పటికీ▁హిందూ▁మత▁ప్రార్థనలలో▁ఈ▁పేరు▁ఉపయోగిస్తారు▁(ఉ
বিশ্বে▁১
Union▁
,▁ఇప్పటికీ▁హిందూ▁మత▁ప్రార్థనలలో▁ఈ▁పేరు▁ఉపయోగిస్తారు▁(ఉదా
বীন্দ্র
United▁Stat
,▁ఇప్పటికీ▁హిందూ▁మత▁ప్రార్థనలలో▁ఈ▁పేరు▁ఉపయోగిస్తారు▁(ఉదా:▁
বৃদ্ধি▁পা
Va
,▁ఇప్పటికీ▁హిందూ▁మత▁ప్రార్థనలలో▁ఈ▁పేరు▁ఉపయోగిస్తారు▁(ఉదా:▁జంబూ▁ద్వీ
বৃহত্তম।
WHO
,▁ఇప్పటికీ▁హిందూ▁మత▁ప్రార్థనలలో▁ఈ▁పేరు▁ఉపయోగిస్తారు▁(ఉదా:▁జంబూ▁ద్వీపే
বৃহত্তম▁এবং
West▁
,▁ఇప్పటికీ▁హిందూ▁మత▁ప్రార్థనలలో▁ఈ▁పేరు▁ఉపయోగిస్తారు▁(ఉదా:▁జంబూ▁ద్వీపే,▁మే
বৃহত্তম▁ও▁
Western▁Ghat
,▁ఇప్పటికీ▁హిందూ▁మత▁ప్రార్థనలలో▁ఈ▁పేరు▁ఉపయోగిస్తారు▁(ఉదా:▁జంబూ▁ద్వీపే,▁మేరోః
বেঙ্গালুরু
a,▁the▁
,▁ఇప్పటికీ▁హిందూ▁మత▁ప్రార్థనలలో▁ఈ▁పేరు▁ఉపయోగిస్తారు▁(ఉదా:▁జంబూ▁ద్వీపే,▁మేరోః▁దక్షిణ
বেশি
ach
,▁ఇప్పటికీ▁హిందూ▁మత▁ప్రార్థనలలో▁ఈ▁పేరు▁ఉపయోగిస్తారు▁(ఉదా:▁జంబూ▁ద్వీపే,▁మేరోః▁దక్షిణది
বৈদেশিক▁
aic▁
,▁ఇప్పటికీ▁హిందూ▁మత▁ప్రార్థనలలో▁ఈ▁పేరు▁ఉపయోగిస్తారు▁(ఉదా:▁జంబూ▁ద్వీపే,▁మేరోః▁దక్షిణదిగ్భా
বৈচিত্র্যময়▁
ail
,▁ఇప్పటికీ▁హిందూ▁మత▁ప్రార్థనలలో▁ఈ▁పేరు▁ఉపయోగిస్తారు▁(ఉదా:▁జంబూ▁ద్వీపే,▁మేరోః▁దక్షిణదిగ్భాగే
বৈশিষ্ট্য▁হল▁
aut
,▁ఇప్పటికీ▁హిందూ▁మత▁ప్రార్థనలలో▁ఈ▁పేరు▁ఉపయోగిస్తారు▁(ఉదా:▁జంబూ▁ద్వీపే,▁మేరోః▁దక్షిణదిగ్భాగే,▁శ్రీ
বোঝায়।
acc
,▁ఇప్పటికీ▁హిందూ▁మత▁ప్రార్థనలలో▁ఈ▁పేరు▁ఉపయోగిస్తారు▁(ఉదా:▁జంబూ▁ద్వీపే,▁మేరోః▁దక్షిణదిగ్భాగే,▁శ్రీశై
বোধি
across▁
,▁ఇప్పటికీ▁హిందూ▁మత▁ప్రార్థనలలో▁ఈ▁పేరు▁ఉపయోగిస్తారు▁(ఉదా:▁జంబూ▁ద్వీపే,▁మేరోః▁దక్షిణదిగ్భాగే,▁శ్రీశైల
বৌদ্ধ
acter
,▁ఇప్పటికీ▁హిందూ▁మత▁ప్రార్థనలలో▁ఈ▁పేరు▁ఉపయోగిస్తారు▁(ఉదా:▁జంబూ▁ద్వీపే,▁మేరోః▁దక్షిణదిగ్భాగే,▁శ్రీశైలస్య
ব্যবস্থা▁হিসাবে
added▁
,▁ఇప్పటికీ▁హిందూ▁మత▁ప్రార్థనలలో▁ఈ▁పేరు▁ఉపయోగిస్తారు▁(ఉదా:▁జంబూ▁ద్వీపే,▁మేరోః▁దక్షిణదిగ్భాగే,▁శ్రీశైలస్య▁
ব্যাখ্যা
adher
,▁ఇప్పటికీ▁హిందూ▁మత▁ప్రార్థనలలో▁ఈ▁పేరు▁ఉపయోగిస్తారు▁(ఉదా:▁జంబూ▁ద్వీపే,▁మేరోః▁దక్షిణదిగ్భాగే,▁శ్రీశైలస్య▁ఉత్తర
ব্যাপী
adop
,▁ఇప్పటికీ▁హిందూ▁మత▁ప్రార్థనలలో▁ఈ▁పేరు▁ఉపయోగిస్తారు▁(ఉదా:▁జంబూ▁ద్వీపే,▁మేరోః▁దక్షిణదిగ్భాగే,▁శ్రీశైలస్య▁ఉత్తర▁ప్రదే
ভয়া
administr
,▁ఇప్పటికీ▁హిందూ▁మత▁ప్రార్థనలలో▁ఈ▁పేరు▁ఉపయోగిస్తారు▁(ఉదా:▁జంబూ▁ద్వీపే,▁మేరోః▁దక్షిణదిగ్భాగే,▁శ్రీశైలస్య▁ఉత్తర▁ప్రదేశే
ভরত
advanc
,▁ఇప్పటికీ▁హిందూ▁మత▁ప్రార్థనలలో▁ఈ▁పేరు▁ఉపయోగిస్తారు▁(ఉదా:▁జంబూ▁ద్వీపే,▁మేరోః▁దక్షిణదిగ్భాగే,▁శ్రీశైలస్య▁ఉత్తర▁ప్రదేశే,▁కృ
ভাবিক▁
ained▁
,▁ఇప్పటికీ▁హిందూ▁మత▁ప్రార్థనలలో▁ఈ▁పేరు▁ఉపయోగిస్తారు▁(ఉదా:▁జంబూ▁ద్వీపే,▁మేరోః▁దక్షిణదిగ్భాగే,▁శ్రీశైలస్య▁ఉత్తర▁ప్రదేశే,▁కృష్ణా
ভাব▁বিস্তার▁করতে
alist▁
,▁ఇప్పటికీ▁హిందూ▁మత▁ప్రార్థనలలో▁ఈ▁పేరు▁ఉపయోగిస్తారు▁(ఉదా:▁జంబూ▁ద్వీపే,▁మేరోః▁దక్షిణదిగ్భాగే,▁శ్రీశైలస్య▁ఉత్తర▁ప్రదేశే,▁కృష్ణా▁
ভিত্তিতে
alth▁
,▁ఇప్పటికీ▁హిందూ▁మత▁ప్రార్థనలలో▁ఈ▁పేరు▁ఉపయోగిస్తారు▁(ఉదా:▁జంబూ▁ద్వీపే,▁మేరోః▁దక్షిణదిగ్భాగే,▁శ్రీశైలస్య▁ఉత్తర▁ప్రదేశే,▁కృష్ణా▁గో
ভূগর্ভস্থ▁পারমাণবিক▁পরীক্ষণ
allav
,▁ఇప్పటికీ▁హిందూ▁మత▁ప్రార్థనలలో▁ఈ▁పేరు▁ఉపయోగిస్తారు▁(ఉదా:▁జంబూ▁ద్వీపే,▁మేరోః▁దక్షిణదిగ్భాగే,▁శ్రీశైలస్య▁ఉత్తర▁ప్రదేశే,▁కృష్ణా▁గోదావ
ভূতাত্ত্বি
ally.
,▁ఇప్పటికీ▁హిందూ▁మత▁ప్రార్థనలలో▁ఈ▁పేరు▁ఉపయోగిస్తారు▁(ఉదా:▁జంబూ▁ద్వీపే,▁మేరోః▁దక్షిణదిగ్భాగే,▁శ్రీశైలస్య▁ఉత్తర▁ప్రదేశే,▁కృష్ణా▁గోదావరీ
ভূত▁
amee
,▁ఇప్పటికీ▁హిందూ▁మత▁ప్రార్థనలలో▁ఈ▁పేరు▁ఉపయోగిస్తారు▁(ఉదా:▁జంబూ▁ద్వీపే,▁మేరోః▁దక్షిణదిగ్భాగే,▁శ్రీశైలస్య▁ఉత్తర▁ప్రదేశే,▁కృష్ణా▁గోదావరీ▁మధ్య▁
ভূখণ্ড
among▁the▁
,▁ఇప్పటికీ▁హిందూ▁మత▁ప్రార్థనలలో▁ఈ▁పేరు▁ఉపయోగిస్తారు▁(ఉదా:▁జంబూ▁ద్వీపే,▁మేరోః▁దక్షిణదిగ్భాగే,▁శ్రీశైలస్య▁ఉత్తర▁ప్రదేశే,▁కృష్ణా▁గోదావరీ▁మధ్య▁స్థా
ভূখণ্ডে
ameez
,▁ఇప్పటికీ▁హిందూ▁మత▁ప్రార్థనలలో▁ఈ▁పేరు▁ఉపయోగిస్తారు▁(ఉదా:▁జంబూ▁ద్వీపే,▁మేరోః▁దక్షిణదిగ్భాగే,▁శ్రీశైలస్య▁ఉత్తర▁ప్రదేశే,▁కృష్ణా▁గోదావరీ▁మధ్య▁స్థానే
ভেষ
an-
,▁ఇప్పటికీ▁హిందూ▁మత▁ప్రార్థనలలో▁ఈ▁పేరు▁ఉపయోగిస్తారు▁(ఉదా:▁జంబూ▁ద్వీపే,▁మేరోః▁దక్షిణదిగ్భాగే,▁శ్రీశైలస్య▁ఉత్తర▁ప్రదేశే,▁కృష్ణా▁గోదావరీ▁మధ్య▁స్థానే..
ভ্যন্তরীণ
anag
,▁ఇప్పటికీ▁హిందూ▁మత▁ప్రార్థనలలో▁ఈ▁పేరు▁ఉపయోగిస్తారు▁(ఉదా:▁జంబూ▁ద్వీపే,▁మేరోః▁దక్షిణదిగ్భాగే,▁శ్రీశైలస్య▁ఉత్తర▁ప్రదేశే,▁కృష్ణా▁గోదావరీ▁మధ్య▁స్థానే...
মন▁
anch
,▁ఇప్పటికీ▁హిందూ▁మత▁ప్రార్థనలలో▁ఈ▁పేరు▁ఉపయోగిస్తారు▁(ఉదా:▁జంబూ▁ద్వీపే,▁మేరోః▁దక్షిణదిగ్భాగే,▁శ్రీశైలస్య▁ఉత్తర▁ప్రదేశే,▁కృష్ణా▁గోదావరీ▁మధ్య▁స్థానే...).
ময়▁
animal
,▁ఈశాన్య▁
মহ
another▁
,▁ఈశాన్య▁రాష్ట్రా
ম,▁মা
anted▁
,▁ఈశాన్య▁ప్రాంతాలు▁
মহাদেশে
ance▁of▁
,▁ఈశాన్య▁ప్రాంతాలు▁సార
মহাদেশের▁
anding▁
,▁ఈశాన్య▁ప్రాంతాలు▁సారవం
মহাসাগ
ari▁
,▁ఈశాన్య▁ప్రాంతాలు▁సారవంత
মাত্রা
arly▁
,▁ఈశాన్య▁ప్రాంతాలు▁సారవంతమైన▁
মাপ্তি
arnat
,▁ఈశాన్య▁ప్రాంతాలు▁సారవంతమైన▁గంగా▁
মার্কিন▁
architecture
,▁ఈశాన్య▁ప్రాంతాలు▁సారవంతమైన▁గంగా▁మై
মান্তরা
areas▁
,▁ఈశాన్య▁ప్రాంతాలు▁సారవంతమైన▁గంగా▁మైదా
মালভূমি
are▁directly▁
,▁ఈశాన్య▁ప్రాంతాలు▁సారవంతమైన▁గంగా▁మైదానం
মালয়▁পর্বতমালা
armies▁
,▁ఈశాన్య▁ప్రాంతాలు▁సారవంతమైన▁గంగా▁మైదానంతో▁కూ
মিতি
around▁the▁
,▁ఈశాన్య▁ప్రాంతాలు▁సారవంతమైన▁గంగా▁మైదానంతో▁కూడి
মিনি
ased▁on▁
,▁ఈశాన్య▁ప్రాంతాలు▁సారవంతమైన▁గంగా▁మైదానంతో▁కూడి▁ఉన్నాయి.
মি▁বা
assert▁
,▁ఈశాన్య▁రాష్ట్రాలు▁
মি▁বায়ু
as▁prime▁minist
,▁ఈశాన్య▁రాష్ట్రాలు▁హిమాలయ▁
মীণ
as▁prime▁ministers.
,▁ఈశాన్య▁రాష్ట్రాలు▁హిమాలయ▁ప
মুম্ব
ati,▁
,▁ఈశాన్య▁రాష్ట్రాలు▁హిమాలయ▁పర్వ
মুম্বই▁
at▁is▁
,▁ఈశాన్య▁రాష్ట్రాలు▁హిమాలయ▁పర్వతా
মুসলমা
avour
,▁ఈశాన్య▁రాష్ట్రాలు▁హిమాలయ▁పర్వతాలతో▁కూ
মূল্যে
a▁C
,▁ఈశాన్య▁రాష్ట్రాలు▁హిమాలయ▁పర్వతాలతో▁కూడుకుని▁
মূল▁
a▁S
,▁ఈశాన్య▁రాష్ట్రాలు▁హిమాలయ▁పర్వతాలతో▁కూడుకుని▁ఉన్నాయి.
মূলত▁উত্তর▁ভারতে
a▁of▁
,▁ఎన్నో▁స్వతంత్ర
মের▁অ
a▁th
,▁ఎన్నో▁స్వతంత్ర▁రాజ్యాలు▁
মে▁আসে
a▁member▁
,▁ఎన్నో▁స్వతంత్ర▁రాజ్యాలు▁ఏర్పడ్డాయి.
মোট
a▁member▁of▁
,▁ఐరోపా
মোদী
bell
,▁ఐరోపా▁స
মোট▁জনসংখ্যার▁
billion▁
,▁ఐరోపా▁సమాఖ్య
ম্বর
bre
,▁ఐరోపా▁సమాఖ్యలు▁భారతదేశ
ম্রাজ্য
brea
,▁ఐరోపా▁సమాఖ్యలు▁భారతదేశపు▁
ম্রাট
based▁on▁the▁
,▁ఐరోపా▁సమాఖ్యలు▁భారతదేశపు▁ముఖ్య
যথেষ্ট
being▁
,▁ఐరోపా▁సమాఖ్యలు▁భారతదేశపు▁ముఖ్య▁వ్యాపా
যথাক্রমে▁
belief
,▁ఐరోపా▁సమాఖ్యలు▁భారతదేశపు▁ముఖ్య▁వ్యాపార▁
যদিও
becom
,▁ఐరోపా▁సమాఖ్యలు▁భారతదేశపు▁ముఖ్య▁వ్యాపార▁భా
য়টি▁
became▁the▁first▁
,▁ఐరోపా▁సమాఖ్యలు▁భారతదేశపు▁ముఖ్య▁వ్యాపార▁భాగ
য়তনের▁
birth
,▁ఐరోపా▁సమాఖ్యలు▁భారతదేశపు▁ముఖ్య▁వ్యాపార▁భాగస్వా
য়▁ভারতীয়▁
bodi
,▁ఐరోపా▁సమాఖ్యలు▁భారతదేశపు▁ముఖ్య▁వ్యాపార▁భాగస్వాము
য়ান
body▁
,▁ఐరోపా▁సమాఖ్యలు▁భారతదేశపు▁ముఖ్య▁వ్యాపార▁భాగస్వాములు.
য়াল
breath
,▁ఒడి
য়েই▁
by▁3
,▁ఒడిస్సీ
য়েছে▁এবং
cal
,▁ఒడిస్సీ,▁కూ
য়ে▁ওঠে।
came▁
,▁ఒడిస్సీ,▁కూచి
য়ে▁গঠিত▁ভারতের▁
cis
,▁ఒడిస్సీ,▁కూచిపూ
য়োজিত▁
could▁
,▁ఒడిస్సీ,▁కూచిపూడి
য়▁জুড়ে
cri
,▁ఒడిస్సీ,▁కూచిపూడి,▁క
য়▁সঙ্গীত▁
crit
,▁ఒడిస్సీ,▁కూచిపూడి,▁కథ
য়▁সাধারণতন্ত্র
ction
,▁ఒడిస్సీ,▁కూచిపూడి,▁కథక్,
য়▁অব
cul
,▁ఒడిస్సీ,▁కూచిపూడి,▁కథక్,▁క
য়▁বিভক্ত
cav
,▁ఒడిస్సీ,▁కూచిపూడి,▁కథక్,▁కథ
য়▁সাধারণতন্ত্র।
capita▁
,▁ఒడిస్సీ,▁కూచిపూడి,▁కథక్,▁కథక
যাত্রা
centr
,▁ఒడిస్సీ,▁కూచిపూడి,▁కథక్,▁కథకళి
যান-১
changes▁
,▁ఒడిస్సీ,▁కూచిపూడి,▁కథక్,▁కథకళి▁మొదలై
যুক্ত▁
chos
,▁ఒడిస్సీ,▁కూచిపూడి,▁కథక్,▁కథకళి▁మొదలైనవి.
যেটি▁
chur
,▁కళ
রক
character
,▁కన్నడ
রক্ষিত▁
chosen▁
,▁కన్నడం
রক্ষী▁বাহিনী
churid
,▁కన్నడ,▁బెంగాలీ
রগুলি
churidar
,▁కన్నడ,▁బెంగాలీ.
রচনা
clo
,▁కన్నడం,▁తమిళం
রঞ্জা
classic
,▁కన్నడం,▁తమిళం.
রণ্যে
co-
,▁కళలు,▁
রয়েছে।
cog
,▁కళలు,▁సారస్వతం
রও▁বেশি
coalition▁
,▁కళలు,▁సారస్వతం,▁భారతీయ▁
রণ▁ও▁
cogn
,▁కళలు,▁సారస్వతం,▁భారతీయ▁గ
রণ্যক্ষেত্র
colon
,▁కళలు,▁సారస్వతం,▁భారతీయ▁గణి
রবরা
colonial▁
,▁కళలు,▁సారస్వతం,▁భారతీయ▁గణితం
রবরাহ
common▁
,▁కళలు,▁సారస్వతం,▁భారతీయ▁గణితం,▁భారతీయ▁
রবরাহকারী
commercial▁
,▁కళలు,▁సారస్వతం,▁భారతీయ▁గణితం,▁భారతీయ▁ఖ
রাজীব
comprom
,▁కళలు,▁సారస్వతం,▁భారతీయ▁గణితం,▁భారతీయ▁ఖగో
রাঞ্চলগুলি
compromis
,▁కళలు,▁సారస్వతం,▁భారతీయ▁గణితం,▁భారతీయ▁ఖగోళ
রা▁প
conduc
,▁కళలు,▁సారస్వతం,▁భారతీయ▁గణితం,▁భారతీయ▁ఖగోళ▁శా
রাজনীতি
consum
,▁కళలు,▁సారస్వతం,▁భారతీయ▁గణితం,▁భారతీయ▁ఖగోళ▁శాస్త్రం
রাজনৈতিক▁
conducted▁
,▁కళలు,▁సారస్వతం,▁భారతీయ▁గణితం,▁భారతీయ▁ఖగోళ▁శాస్త్రం,▁సాంకేతి
রাজা▁
constitutional▁
,▁కళలు,▁సారస్వతం,▁భారతీయ▁గణితం,▁భారతీయ▁ఖగోళ▁శాస్త్రం,▁సాంకేతిక▁
রাজ্য▁সরকা
contains▁
,▁కళలు,▁సారస్వతం,▁భారతీయ▁గణితం,▁భారతీయ▁ఖగోళ▁శాస్త్రం,▁సాంకేతిక▁శాస్త్రం
রাষ্ট্রপতি
contributions▁
,▁కళలు,▁సారస్వతం,▁భారతీయ▁గణితం,▁భారతీయ▁ఖగోళ▁శాస్త్రం,▁సాంకేతిక▁శాస్త్రం,▁భారతీయ▁
রিক।
cooked▁
,▁కళలు,▁సారస్వతం,▁భారతీయ▁గణితం,▁భారతీయ▁ఖగోళ▁శాస్త్రం,▁సాంకేతిక▁శాస్త్రం,▁భారతీయ▁మ
রিজ
court▁
,▁కళలు,▁సారస్వతం,▁భారతీయ▁గణితం,▁భారతీయ▁ఖగోళ▁శాస్త్రం,▁సాంకేతిక▁శాస్త్రం,▁భారతీయ▁మతము
রিত।
crucial▁
,▁కళలు,▁సారస్వతం,▁భారతీయ▁గణితం,▁భారతీయ▁ఖగోళ▁శాస్త్రం,▁సాంకేతిక▁శాస్త్రం,▁భారతీయ▁మతములు,▁
রি▁ভাষা
crust
,▁కళలు,▁సారస్వతం,▁భారతీయ▁గణితం,▁భారతీయ▁ఖగోళ▁శాస్త్రం,▁సాంకేతిక▁శాస్త్రం,▁భారతీయ▁మతములు,▁భారతీయ▁
রী।
cultural▁
,▁కళలు,▁సారస్వతం,▁భారతీయ▁గణితం,▁భారతీయ▁ఖగోళ▁శాస్త్రం,▁సాంకేతిక▁శాస్త్రం,▁భారతీయ▁మతములు,▁భారతీయ▁త
রীসৃ
currenc
,▁కళలు,▁సారస్వతం,▁భారతీయ▁గణితం,▁భారతీయ▁ఖగోళ▁శాస్త్రం,▁సాంకేతిక▁శాస్త్రం,▁భారతీయ▁మతములు,▁భారతీయ▁తత్వ▁శా
রীসৃপ
dens
,▁కళలు,▁సారస్వతం,▁భారతీయ▁గణితం,▁భారతీయ▁ఖగోళ▁శాస్త్రం,▁సాంకేతిక▁శాస్త్రం,▁భారతీయ▁మతములు,▁భారతీయ▁తత్వ▁శాస్త్రం
রূপ
dance▁tradition
,▁కళలు,▁సారస్వతం,▁భారతీయ▁గణితం,▁భారతీయ▁ఖగోళ▁శాస్త్రం,▁సాంకేతిక▁శాస్త్రం,▁భారతీయ▁మతములు,▁భారతీయ▁తత్వ▁శాస్త్రం▁మొదలై
রে।
de,▁
,▁కళలు,▁సారస్వతం,▁భారతీయ▁గణితం,▁భారతీయ▁ఖగోళ▁శాస్త్రం,▁సాంకేతిక▁శాస్త్రం,▁భారతీయ▁మతములు,▁భారతీయ▁తత్వ▁శాస్త్రం▁మొదలైనవి
রেখে
declar
,▁కళలు,▁సారస్వతం,▁భారతీయ▁గణితం,▁భారతీయ▁ఖగోళ▁శాస్త్రం,▁సాంకేతిక▁శాస్త్రం,▁భారతీయ▁మతములు,▁భారతీయ▁తత్వ▁శాస్త్రం▁మొదలైనవి▁ఈ
রের▁বিচারে
declin
,▁కళలు,▁సారస్వతం,▁భారతీయ▁గణితం,▁భారతీయ▁ఖగోళ▁శాస్త్రం,▁సాంకేతిక▁శాస్త్రం,▁భారతీయ▁మతములు,▁భారతీయ▁తత్వ▁శాస్త్రం▁మొదలైనవి▁ఈ▁కాలంలో▁
রের▁সমতূল্য
definit
,▁కళలు,▁సారస్వతం,▁భారతీయ▁గణితం,▁భారతీయ▁ఖగోళ▁శాస్త్రం,▁సాంకేతిక▁శాస్త్రం,▁భారతీయ▁మతములు,▁భారతీయ▁తత్వ▁శాస్త్రం▁మొదలైనవి▁ఈ▁కాలంలో▁పరి
রোক্ষভাবে
discri
,▁కళలు,▁సారస్వతం,▁భారతీయ▁గణితం,▁భారతీయ▁ఖగోళ▁శాస్త్రం,▁సాంకేతిక▁శాస్త్రం,▁భారతీయ▁మతములు,▁భారతీయ▁తత్వ▁శాస్త్రం▁మొదలైనవి▁ఈ▁కాలంలో▁పరిఢ
র্থ-সামাজিক▁
different▁
,▁కళలు,▁సారస్వతం,▁భారతీయ▁గణితం,▁భారతీయ▁ఖగోళ▁శాస్త్రం,▁సాంకేతిక▁శాస్త్రం,▁భారతీయ▁మతములు,▁భారతీయ▁తత్వ▁శాస్త్రం▁మొదలైనవి▁ఈ▁కాలంలో▁పరిఢవి
র্থিক▁
discrimin
,▁కళలు,▁సారస్వతం,▁భారతీయ▁గణితం,▁భారతీయ▁ఖగోళ▁శాస్త్రం,▁సాంకేతిక▁శాస్త్రం,▁భారతీయ▁మతములు,▁భారతీయ▁తత్వ▁శాస్త్రం▁మొదలైనవి▁ఈ▁కాలంలో▁పరిఢవిల్లా
র্বাধি
disputes▁
,▁కళలు,▁సారస్వతం,▁భారతీయ▁గణితం,▁భారతీయ▁ఖగోళ▁శాస్త్రం,▁సాంకేతిక▁శాస్త్రం,▁భారతీయ▁మతములు,▁భారతీయ▁తత్వ▁శాస్త్రం▁మొదలైనవి▁ఈ▁కాలంలో▁పరిఢవిల్లాయి.
র্বাধিক▁জনবহুল▁
diverse▁
,▁కుర్తా
র্বাপেক্ষা▁
drain▁
,▁కుర్తా▁
র্বোচ্চ▁আদাল
drain▁into▁the▁
,▁కుర్తా▁ధ
র্যভ
due▁
,▁కుర్తా▁ధరి
র▁থেকে▁
duction▁
,▁కుర్తా▁ధరిస్తా
র▁পূর্ব
e"▁
,▁కుర్తా▁ధరిస్తారు▁
র▁প্রা
eas
,▁కుర్తా▁ధరిస్తారు▁క్రీడలు▁
র▁সং
edit
,▁కుర్తా▁ధరిస్తారు▁క్రీడలు▁జనాభా
র▁১
eet
,▁కుర్తా▁ధరిస్తారు▁క్రీడలు▁జనాభా▁ప
র▁অতি
efor
,▁కుర్తా▁ధరిస్తారు▁క్రీడలు▁జనాభా▁పరంగా
র▁অভি
eight
,▁కుర్తా▁ధరిస్తారు▁క్రీడలు▁జనాభా▁పరంగా▁అతి▁
র▁অস্থি
e,▁which▁
,▁కుర్తా▁ధరిస్తారు▁క్రీడలు▁జనాభా▁పరంగా▁అతి▁పెద్ద▁దేశం
র▁অধিকারী।
east.
,▁కుర్తా▁ధరిస్తారు▁క్రీడలు▁జనాభా▁పరంగా▁అతి▁పెద్ద▁దేశం▁భారతదేశం
র▁অন্যতম▁
ect▁
,▁కుర్తా▁ధరిస్తారు▁క్రీడలు▁జనాభా▁పరంగా▁అతి▁పెద్ద▁దేశం▁భారతదేశం.
র▁অন্যান্য▁
economy.
,▁కృష్ణ
র▁অবস্থিত।
ector▁
,▁కృష్ణ,▁గో
র▁অস্থির
ed,▁
,▁కృష్ణ,▁గోదావ
র▁উপর▁
ed,▁and▁
,▁కృష్ణ,▁గోదావరి.
র▁উল্লেখযোগ্য
edly▁
,▁కేంద్ర▁ప్రభుత్వంలో▁
র▁উন্নয়
eduled▁
,▁కేంద్ర▁ప్రభుత్వంలో▁భారత
র▁এক
ed▁d
,▁కేంద్ర▁ప్రభుత్వంలో▁భారత▁జాతీయ▁
র▁একটি▁অ
ed▁for▁
,▁కేంద్ర▁ప్రభుత్వంలో▁భారత▁జాతీయ▁కాంగ్రెసు▁పార్టీ
র▁এক▁বৃহৎ
eff
,▁కేంద్ర▁ప్రభుత్వంలో▁భారత▁జాతీయ▁కాంగ్రెసు▁పార్టీ▁అధికారం
র▁ওপর▁
eget
,▁కేంద్ర▁ప్రభుత్వంలో▁భారత▁జాతీయ▁కాంగ్రెసు▁పార్టీ▁అధికారంలో▁
র▁নেতৃত্বে▁জাতীয়▁গণতান্ত্রিক▁জোট▁(এনডি
eignt
,▁కేంద్ర▁ప్రభుత్వంలో▁భారత▁జాతీయ▁కాంగ్రెసు▁పార్టీ▁అధికారంలో▁ఉం
র▁প্রত্যক্ষ▁শাসনাধী
elected▁
,▁కేంద్ర▁ప్రభుత్వంలో▁భారత▁జాతీయ▁కాంగ్రెసు▁పార్టీ▁అధికారంలో▁ఉంటూ
র▁প্রথম
ement.
,▁కేంద్ర▁ప్రభుత్వంలో▁భారత▁జాతీయ▁కాంగ్రెసు▁పార్టీ▁అధికారంలో▁ఉంటూ▁వచ్చింది.
র▁বয়
emocrac
,▁కోవా
র▁বিভিন্ন
empire▁
,▁కోవారం
র▁বিস্তা
energy▁
,▁కోవారంటో
র▁ভারত
en▁the▁
,▁కోవారంటో,▁సె
র▁মধ্যবর্তী▁সময়ে▁
ence▁of▁
,▁కోవారంటో,▁సెర్టి
র▁মধ্যে▁৫
ending▁
,▁కోవారంటో,▁సెర్టియో
র▁মাঝামাঝি▁থেকে
ength▁
,▁కోవారంటో,▁సెర్టియోరా
র▁মাধ্যমে
ent,▁the▁
,▁కోవారంటో,▁సెర్టియోరారి
র▁মাধ্যমে▁
ep▁
,▁కోవారంటో,▁సెర్టియోరారి▁అనే
র▁সদস্য
equalit
,▁కోవారంటో,▁సెర్టియోరారి▁అనే▁వివిధ
র▁সমাপ্তি
eral
,▁కోవారంటో,▁సెర్టియోరారి▁అనే▁వివిధ▁రకా
র▁সর্ব
ergenc
,▁కోవారంటో,▁సెర్టియోరారి▁అనే▁వివిధ▁రకాలుగా▁ఉన్నాయి.
র▁সমন্ব
ernational▁
,▁క్యార
র▁সম্মিলি
es,▁the▁
,▁క్యారమ్‌,
র▁সম্মিলিত▁
es▁from▁
,▁క్యారమ్‌,▁పో
লঙ্কা
etic▁
,▁క్యారమ్‌,▁పోలో,▁
লনাড়ুর▁
etwork
,▁క్యారమ్‌,▁పోలో,▁బ్యా
লাই
eval▁
,▁క్యారమ్‌,▁పోలో,▁బ్యాడ్మిం
লাদের▁
evel
,▁క్యారమ్‌,▁పోలో,▁బ్యాడ్మింట
লিখি
every
,▁క్యారమ్‌,▁పోలో,▁బ్యాడ్మింటన్‌▁
লিগুলি
exampl
,▁క్యారమ్‌,▁పోలో,▁బ్యాడ్మింటన్‌▁మొదలై
লোয়া
export
,▁క్యారమ్‌,▁పోలో,▁బ్యాడ్మింటన్‌▁మొదలైన
ল্যান্ড
ex▁
,▁క్యారమ్‌,▁పోలో,▁బ్యాడ్మింటన్‌▁మొదలైనటు
ল্লেখ্য
expans
,▁క్యారమ్‌,▁పోలో,▁బ్యాడ్మింటన్‌▁మొదలైనటువంటి
ল▁করে।
exten
,▁క్యారమ్‌,▁పోలో,▁బ్యాడ్మింటన్‌▁మొదలైనటువంటి▁అనేక▁
ল▁থেকে
e▁of▁India's▁
,▁క్యారమ్‌,▁పోలో,▁బ్యాడ్మింటన్‌▁మొదలైనటువంటి▁అనేక▁క్రీడ
ল▁থেকে▁
far▁
,▁క్యారమ్‌,▁పోలో,▁బ్యాడ్మింటన్‌▁మొదలైనటువంటి▁అనేక▁క్రీడలు▁భారతదేశంలో▁
ল▁ফি
fem
,▁క్యారమ్‌,▁పోలో,▁బ్యాడ్మింటన్‌▁మొదలైనటువంటి▁అనేక▁క్రీడలు▁భారతదేశంలో▁పు
ল▁ও▁অন্যান্য
found▁
,▁క్యారమ్‌,▁పోలో,▁బ్యాడ్మింటన్‌▁మొదలైనటువంటి▁అనేక▁క్రీడలు▁భారతదేశంలో▁పుట్టా
শনে
four▁
,▁క్యారమ్‌,▁పోలో,▁బ్యాడ్మింటన్‌▁మొదలైనటువంటి▁అనేక▁క్రీడలు▁భారతదేశంలో▁పుట్టాయి.
শহ
fundamental▁
,▁క్రీ.పూ.
শান্তি
featur
,▁క్రీ.పూ.2
শাস্ত্রী
formal▁
,▁క్రీ.పూ.20
শাসনবিভাগ
from▁1
,▁క్రీ.పూ.20▁వ▁శతాబ్దం
শাস্ত্রীয়▁সঙ্গীত▁
gas▁
,▁క్రీ.పూ.20▁వ▁శతాబ్దం▁మధ్య
শিখ
gin
,▁క్రీ.పూ.20▁వ▁శతాబ్దం▁మధ్య▁కాలంలో▁
শিল্পকলা
good
,▁క్రీ.పూ.20▁వ▁శతాబ్దం▁మధ్య▁కాలంలో▁వ
শী▁নদী
g▁
,▁క్రీ.పూ.20▁వ▁శతాబ్దం▁మధ్య▁కాలంలో▁వర్ధి
শুরু▁করে।
gave▁
,▁క్రీ.పూ.20▁వ▁శతాబ్దం▁మధ్య▁కాలంలో▁వర్ధిల్లి
শৈলিগুলি
government▁l
,▁క్రీ.పూ.20▁వ▁శతాబ్దం▁మధ్య▁కాలంలో▁వర్ధిల్లిన▁
শ্রীলঙ্কা
gradually▁
,▁క్రీ.పూ.20▁వ▁శతాబ్దం▁మధ్య▁కాలంలో▁వర్ధిల్లిన▁సింధు
ষদ
great▁
,▁క్రీ.పూ.20▁వ▁శతాబ్దం▁మధ్య▁కాలంలో▁వర్ధిల్లిన▁సింధులోయ▁నాగరికత
ষম্য
hal
,▁క్రీ.పూ.20▁వ▁శతాబ్దం▁మధ్య▁కాలంలో▁వర్ధిల్లిన▁సింధులోయ▁నాగరికత.
ষষ্ঠ
ho
,▁ఖో-
ষ্ট্রের▁সঙ্গে▁ভারতের▁সম্প
hu
,▁ఖో-ఖో
ষ্ট্রের▁সঙ্গে▁ভারতের▁সম্পর্কে
habit
,▁ఖో-ఖో,▁గో
স-প্রসি
had▁been▁
,▁ఖో-ఖో,▁గోడుం
সঙ্গ
has▁been▁an▁
,▁ఖో-ఖో,▁గోడుంబి
সন্তোষ
having▁
,▁ఖో-ఖో,▁గోడుంబిళ్ళ
সবাস
head
,▁ఖో-ఖో,▁గోడుంబిళ్ళ▁(
সরঞ্জা
head▁
,▁ఖో-ఖో,▁గోడుంబిళ్ళ▁(గి
সর্ব
heredit
,▁ఖో-ఖో,▁గోడుంబిళ్ళ▁(గిల్లీ
সংসদীয়▁ব্যবস্থা
hub
,▁ఖో-ఖో,▁గోడుంబిళ్ళ▁(గిల్లీ-
সংস্কারে
ib
,▁ఖో-ఖో,▁గోడుంబిళ్ళ▁(గిల్లీ-దం
সংস্কৃতি▁
ide
,▁ఖో-ఖో,▁గోడుంబిళ్ళ▁(గిల్లీ-దండా
সঙ্গীত,▁
ifer
,▁ఖో-ఖో,▁గోడుంబిళ్ళ▁(గిల్లీ-దండా)▁లకు▁దేశమంతటా▁బహుళ▁ప్రాచుర్యము▁ఉంది.
সঙ্গীত▁ধারা
ified▁
,▁గణతంత్ర▁రాజ్యం
সদস্য
ip
,▁గణతంత్ర▁రాజ్యంగా▁ఏర్ప
সফটওয়্যা
iz
,▁గణతంత్ర▁రాజ్యంగా▁ఏర్పడింది.
সমাজতান্ত্রি
ice▁
,▁గోధు
সমৃদ্ধি
icl
,▁గోధుమ
সম্পর্ক▁আ
ics.
,▁గోధుమ▁(
সম্পর্ক▁আন্ত
ich▁the▁
,▁గోధుమ▁(బ్రె
সহকারী
icians▁
,▁గోధుమ▁(బ్రెడ్,
সাথে
ies,▁the▁
,▁గోధుమ▁(బ్రెడ్,▁
সায়
ies▁in▁the▁
,▁గోధుమ▁(బ్రెడ్,▁రొ
সারে▁
ies▁of▁the▁
,▁గోధుమ▁(బ్రెడ్,▁రొట్టె
সাংসদ
igr
,▁గోధుమ▁(బ్రెడ్,▁రొట్టెల▁
সাধারণ▁নির্বাচ
ight▁
,▁గోధుమ▁(బ్రెడ్,▁రొట్టెల▁రూపం
সাধারণ▁নির্বাচনে▁
ild▁
,▁గోధుమ▁(బ్రెడ్,▁రొట్టెల▁రూపంలో
সাহিত্য
ile▁
,▁గోధుమ▁(బ్రెడ్,▁రొట్టెల▁రూపంలో)▁లు▁ప్రజల▁ముఖ్య▁ఆహారం.
সিংহভাগ
ilomet
,▁గౌర
সিন্ধু▁ন
ilw
,▁గౌరవి
সিন্ধু▁স
ill▁
,▁గౌరవిస్తారు.
সিসি▁বিশ্ব
ilometre
,▁చిన్న▁చిన్న▁రాజ్యాలుగా▁
সিসি▁বিশ্ব▁
ilometres▁(
,▁చిన్న▁చిన్న▁రాజ్యాలుగా▁ఉన్న
সিসি▁বিশ্ব▁টোয়েন্টি-২০
imes▁
,▁చిన్న▁చిన్న▁రాజ్యాలుగా▁ఉన్న▁ఇక్క
সীমান্ত
improv
,▁చిన్న▁చిన్న▁రాజ్యాలుగా▁ఉన్న▁ఇక్కడి
সুপারকম্পিউটা
important▁
,▁చిన్న▁చిన్న▁రాజ్యాలుగా▁ఉన్న▁ఇక్కడి▁పరి
সুমি▁বায়ু
in,▁
,▁చిన్న▁చిన్న▁రాజ్యాలుగా▁ఉన్న▁ఇక్కడి▁పరిస్థి
সেছে।
in.
,▁చిన్న▁చిన్న▁రాజ్యాలుగా▁ఉన్న▁ఇక్కడి▁పరిస్థితి▁
সেব▁অনুযায়ী
inat
,▁చిన్న▁చిన్న▁రాజ్యాలుగా▁ఉన్న▁ఇక్కడి▁పరిస్థితి▁గమ
স্ট▁ইন্ডিয়া
incom
,▁చిన్న▁చిన్న▁రాజ్యాలుగా▁ఉన్న▁ఇక్కడి▁పరిస్థితి▁గమనిం
স্টিক▁
indh
,▁చిన్న▁చిన్న▁రాజ్యాలుగా▁ఉన్న▁ఇక్కడి▁పరిస్థితి▁గమనించి,▁
স্ট▁ইন্ডিয়া▁কোম্পানি
ine
,▁చిన్న▁చిన్న▁రాజ్యాలుగా▁ఉన్న▁ఇక్కడి▁పరిస్థితి▁గమనించి,▁ఆ
স্তাব
inequalit
,▁చిన్న▁చిన్న▁రాజ్యాలుగా▁ఉన్న▁ఇక్కడి▁పరిస్థితి▁గమనించి,▁ఆక్ర
স্থান।
ines,▁
,▁చిన్న▁చిన్న▁రాజ్యాలుగా▁ఉన్న▁ఇక్కడి▁పరిస్థితి▁గమనించి,▁ఆక్రమిం
স্থানের▁
init
,▁చిన్న▁చిన్న▁రాజ్యాలుగా▁ఉన్న▁ఇక్కడి▁పరిస్థితి▁గమనించి,▁ఆక్రమించు
স্থায়ী
institut
,▁చిన్న▁చిన్న▁రాజ్యాలుగా▁ఉన్న▁ఇక్కడి▁పరిస్థితి▁గమనించి,▁ఆక్రమించుకు
স্থাপন▁করতে
increasingly▁
,▁చిన్న▁చిన్న▁రాజ్యాలుగా▁ఉన్న▁ఇక్కడి▁పరిస్థితి▁గమనించి,▁ఆక్రమించుకున్నారు.
স্থাপত্য▁নিদর্শ
independence▁
,▁చైనా,▁యు
স্থাপিত▁হয়।
indigenous▁
,▁చైనా,▁యు.
স্বতন্ত্র
industry▁
,▁చైనా,▁యు.ఏ
স্বাভাবিক▁
influence▁
,▁చైనా,▁యు.ఏ.
স্বাধীনতা▁যু
ingh▁
,▁చైనా,▁యు.ఏ.ఇ
স্মাইলিং▁বুদ্ধ
interv
,▁చైనా,▁యు.ఏ.ఇ,▁ఐరోపా▁సమాఖ్యలు▁భారతదేశపు▁ముఖ్య▁వ్యాపార▁భాగస్వాములు.
হয়ে
in▁its▁
,▁జైన,▁
হানি
in▁which▁
,▁జైన,▁సిక్కు
হারের▁বিচারে
in▁195
,▁జైన,▁సిక్కు▁మ
হার▁
in▁1950
,▁జైన,▁సిక్కు▁మతము
হায়তা▁করে।
in▁196
,▁జైన,▁సిక్కు▁మతములకు▁జన్మ
হিলাদের▁
in▁the▁western▁
,▁జైన,▁సిక్కు▁మతములకు▁జన్మని
হিসাবে
in▁the▁world
,▁జైన,▁సిక్కు▁మతములకు▁జన్మనిచ్చింది.
হিসেব▁অনুযায়ী
iodiversity▁
,▁తదు
হিন্দি:▁
ions.
,▁తన▁
হিন্দুস্তা
ire▁and▁
,▁తరత
হ্রাস
is.
,▁తర్వా
০▁সালে
ising▁
,▁తదుపరి
০০▁খ্রিষ্টপূর্বাব্দ
isol
,▁తదుపరి▁పలు▁
০০০▁বছর▁আগে
ism,▁and▁
,▁తదుపరి▁పలు▁చిన్న
০০▁খ্রিষ্টপূর্বাব্দ।
ism.
,▁తదుపరి▁పలు▁చిన్న▁రాజ్యాలుగా▁
১০
is▁often▁
,▁తదుపరి▁పలు▁చిన్న▁రాజ్యాలుగా▁వి
১৪.
itted▁
,▁తదుపరి▁పలు▁చిన్న▁రాజ్యాలుగా▁విడి
১▁সালে
ity.
,▁తదుపరి▁పలు▁చిన్న▁రాజ్యాలుగా▁విడిపోయింది.
১▁সালের▁ক্রিকেট▁বিশ্ব
it▁to▁
,▁తన▁లౌకి
১৯৫০
ivil▁
,▁తన▁లౌకిక,▁
২.৬%
ivity▁
,▁తన▁లౌకిక,▁ప్రా
২৬▁জানুয়ারি
jur
,▁తన▁లౌకిక,▁ప్రాజాస్వామ్య
২৮টি▁রাজ্য
kameez
,▁తన▁లౌకిక,▁ప్రాజాస్వామ్య▁లక్షణా
৩৩
ken
,▁తన▁లౌకిక,▁ప్రాజాస్వామ్య▁లక్షణాన్ని
৩৭
ket▁
,▁తన▁లౌకిక,▁ప్రాజాస్వామ్య▁లక్షణాన్ని▁కా
৩▁
kilometres▁(
,▁తన▁లౌకిక,▁ప్రాజాస్వామ్య▁లక్షణాన్ని▁కాపాడుకుంటూ
৩▁সালে▁
lab
,▁తన▁లౌకిక,▁ప్రాజాస్వామ్య▁లక్షణాన్ని▁కాపాడుకుంటూనే
৩৭০
lations▁
,▁తన▁లౌకిక,▁ప్రాజాస్వామ్య▁లక్షణాన్ని▁కాపాడుకుంటూనే▁వచ్చింది.
৪২
law
,▁తమిళం,▁మ
৪৬
level
,▁తమిళం,▁మలయాళం
৪▁সালে
language▁famil
,▁తమిళం,▁మలయాళం,▁కన్నడ,▁బెంగాలీ.
৪▁সালের▁
largest
,▁తరతరా
৪▁সালে▁
leader
,▁తరతరాలుగా▁
৫১
lies▁
,▁తరతరాలుగా▁కా
৫৫
lik
,▁తరతరాలుగా▁కాపాడుకుంటూ
৫৬▁সালে
liberalis
,▁తరతరాలుగా▁కాపాడుకుంటూ▁వచ్చింది.
৬০▁শতাংশ
limate▁
,▁తర్వాతి
৬৩
literacy▁rate▁
,▁తర్వాతి▁ద
৭৪%
loos
,▁తర్వాతి▁దశ
৭৫
lower
,▁తర్వాతి▁దశలో▁
৮▁তা
ly▁influenc
,▁తర్వాతి▁దశలో▁ప్ర
৮▁সালে▁
mal
,▁తర్వాతి▁దశలో▁ప్రయా
৮▁তারিখে
mamm
,▁తర్వాతి▁దశలో▁ప్రయాణి
৯%)
men
,▁తర్వాతి▁దశలో▁ప్రయాణికుల▁
৯৭
mer▁
,▁తర్వాతి▁దశలో▁ప్రయాణికుల▁బం
৯▁সালে▁
mu
,▁తర్వాతి▁దశలో▁ప్రయాణికుల▁బండ్ల
—এই▁
mult
,▁తర్వాతి▁దశలో▁ప్రయాణికుల▁బండ్లను▁
▁অ্যাডভান্সড
maint
,▁తర్వాతి▁దశలో▁ప్రయాణికుల▁బండ్లను▁నడిపిం
▁কৃষি
makes▁
,▁తర్వాతి▁దశలో▁ప్రయాణికుల▁బండ్లను▁నడిపించాలనే
▁ক্রান্তীয়▁জলবায়ু
manus
,▁తర్వాతి▁దశలో▁ప్రయాణికుల▁బండ్లను▁నడిపించాలనే▁
▁জন
manuscri
,▁తర్వాతి▁దశలో▁ప్రయాణికుల▁బండ్లను▁నడిపించాలనే▁యో
▁ঠা
margin
,▁తర్వాతి▁దశలో▁ప్రయాణికుల▁బండ్లను▁నడిపించాలనే▁యోచ
▁তিনি
mathematical▁
,▁తర్వాతి▁దశలో▁ప్రయాణికుల▁బండ్లను▁నడిపించాలనే▁యోచనలో▁
▁থর▁মরুভূমি
mediately▁
,▁తర్వాతి▁దశలో▁ప్రయాణికుల▁బండ్లను▁నడిపించాలనే▁యోచనలో▁ఉన్నారు.
▁থা
ment.
,▁దస
▁দক্ষিণে
merch
,▁దక్షిణ
▁দু
most▁populous▁
,▁దక్షిణ▁ఆసియా
▁ন্যস্ত
much▁
,▁దక్షిణ▁ఆసియాలో▁మొదటి
▁পাঁচ
name▁
,▁దక్షిణ▁ఆసియాలో▁మొదటి▁ప
▁পৃথিবীর▁
nation
,▁దక్షిణ▁ఆసియాలో▁మొదటి▁పట్ట
▁পোশা
nation▁
,▁దక్షిణ▁ఆసియాలో▁మొదటి▁పట్టణ
▁প্রে
natal▁
,▁దక్షిణ▁ఆసియాలో▁మొదటి▁పట్టణ▁సంస్కృతి
▁ফ
northwest
,▁దక్షిణ▁ఆసియాలో▁మొదటి▁పట్టణ▁సంస్కృతి▁అభివృద్ధి▁చెం
▁ভৌগোলিক▁
northern▁India▁
,▁దక్షిణ▁ఆసియాలో▁మొదటి▁పట్టణ▁సంస్కృతి▁అభివృద్ధి▁చెందాయి.
▁যদিও
nuclear▁weap
,▁దసరా
▁শাসন
nuclear▁weapon
,▁దసరా.
▁শুরু▁করে।
oast
,▁దిగువ▁సభను▁
▁স্থায়ী
oin
,▁దిగువ▁సభను▁లో
▁(বি
oted▁
,▁దిగువ▁సభను▁లోక్▁సభ
▁(মা
other
,▁దిగువ▁సభను▁లోక్▁సభ▁అని▁
▁(মোট▁জনসংখ্যার▁
otion
,▁దిగువ▁సభను▁లోక్▁సభ▁అని▁అం
▁(০.
odern▁
,▁దిగువ▁సభను▁లోక్▁సభ▁అని▁అంటారు.
▁অক্টোব
off▁
,▁దేశంలోని▁
▁অঞ্চল▁
olved▁
,▁దేశంలోని▁8
▁অধিকাংশ
omy▁
,▁దేశంలోని▁83
▁অর্থনীতি
ometimes▁
,▁దేశంలోని▁83.
▁অনুস
one▁
,▁దేశంలోని▁83.8
▁অনুসারে▁
on▁the▁south
,▁దేశంలోని▁83.80
▁অন্যদিকে▁ভারতের▁
oppos
,▁దేశంలోని▁83.80%▁ప్రజలు▁హిందువులైనప్పటికీ,▁ప్రపంచంలోని▁రెండో▁అత్యధిక▁ముస్లిం▁జనాభా▁ఇక్కడ▁ఉన్నారు▁(17.23%).
▁অবস্থান▁
oral▁
,▁నిర
▁অর্থনৈতিক▁সংস্কারে
organisation▁
,▁నిరక్షరాస్య
▁আদিবাসী
originally▁
,▁నిరక్షరాస్యత
▁আরও▁
oul
,▁నిరక్షరాస్యత,▁అవినీతి,▁పోషకాహార▁లోపం▁వంటి▁సవాళ్లను▁ఎదుర్కొంటున్నది.
▁আর্যভ
overeignt
,▁నిర్వహణ▁వ్యవస్థ
▁আইন
overt
,▁నిర్వహణ▁శై
▁আইন▁
overnment▁
,▁నిర్వహణ▁వ్యవస్థల▁
▁আজও▁
past
,▁నిర్వహణ▁వ్యవస్థల▁ద్వారా
▁আন্দামা
pat
,▁నిర్వహణ▁వ్యవస్థల▁ద్వారా▁అ
▁আন্দামান▁
povert
,▁నిర్వహణ▁వ్యవస్థల▁ద్వారా▁అమ
▁আন্দোলনের▁
ppl
,▁నిర్వహణ▁వ్యవస్థల▁ద్వారా▁అమలవుతుంది.
▁ইস্ট▁ইন্ডিয়া▁কোম্পানি
practic
,▁నిర్వహణ▁శైలీ
▁ইন্ডিয়ান▁
pt▁
,▁నిర్వహణ▁శైలీ▁ఒకే
▁উত্থানশীল▁হিমালয়ের▁
painting,▁
,▁నిర్వహణ▁శైలీ▁ఒకేమా
▁উদ্ভূ
parliament.
,▁నిర్వహణ▁శైలీ▁ఒకేమాది
▁উভ
parts▁of▁
,▁నిర్వహణ▁శైలీ▁ఒకేమాదిరిగా▁
▁উপদ্বী
per▁1,000▁
,▁నిర్వహణ▁శైలీ▁ఒకేమాదిరిగా▁ఉండటం
▁উপনি
per▁capita▁
,▁నిర్వహణ▁శైలీ▁ఒకేమాదిరిగా▁ఉండటం▁కలిసి
▁উল্লেখযোগ্য▁র
pollut
,▁నిర్వహణ▁శైలీ▁ఒకేమాదిరిగా▁ఉండటం▁కలిసివ
▁উৎপাদন▁
popular▁
,▁నిర్వహణ▁శైలీ▁ఒకేమాదిరిగా▁ఉండటం▁కలిసివస్తుం
▁এক▁অ
princ
,▁నిర్వహణ▁శైలీ▁ఒకేమాదిరిగా▁ఉండటం▁కలిసివస్తుంద
▁এগুলি▁হল▁
prop
,▁నిర్వహణ▁శైలీ▁ఒకేమాదిరిగా▁ఉండటం▁కలిసివస్తుందని
▁এটি
predomin
,▁నిర్వహణ▁శైలీ▁ఒకేమాదిరిగా▁ఉండటం▁కలిసివస్తుందని▁అభి
▁এসেছে।
presid
,▁నిర్వహణ▁శైలీ▁ఒకేమాదిరిగా▁ఉండటం▁కలిసివస్తుందని▁అభిప్రాయ
▁এ▁দেশে
prev
,▁నిర్వహణ▁శైలీ▁ఒకేమాదిరిగా▁ఉండటం▁కలిసివస్తుందని▁అభిప్రాయప
▁এই▁অঞ্চলে
present▁
,▁నిర్వహణ▁శైలీ▁ఒకేమాదిరిగా▁ఉండటం▁కలిసివస్తుందని▁అభిప్రాయపడు
▁এই▁সম
primary▁
,▁నిర్వహణ▁శైలీ▁ఒకేమాదిరిగా▁ఉండటం▁కలిసివస్తుందని▁అభిప్రాయపడుతు
▁এই▁সরকা
proces
,▁నిర్వహణ▁శైలీ▁ఒకేమాదిరిగా▁ఉండటం▁కలిసివస్తుందని▁అభిప్రాయపడుతున్నారు.
▁এই▁দু
protected▁
,▁పార్ల
▁এই▁নদী
provid
,▁పార్లమెం
▁এই▁হা
row
,▁పార్లమెంట
▁এই▁বিচারব্যবস্থা
railw
,▁పార్లమెంటరీ
▁একই
rather▁
,▁పార్లమెంటరీ▁వ్యవస్థ
▁এছাড়া▁পূর্ব
rates▁
,▁పార్లమెంటరీ▁వ్యవస్థ▁పా
▁এশিয়া▁থেকে
recent▁
,▁పార్లమెంటరీ▁వ్యవస్థ▁పాలన▁
▁ও▁এ
recogn
,▁పార్లమెంటరీ▁వ్యవస్థ▁పాలన▁ఉన్న
▁ও▁কেন্দ্রশাসিত▁অঞ্চলগুলি
relations▁
,▁పార్లమెంటరీ▁వ్యవస్థ▁పాలన▁ఉన్న▁ఒక▁
▁ও▁তেলুগু
rem
,▁పార్లమెంటరీ▁వ్యవస్థ▁పాలన▁ఉన్న▁ఒక▁సమాఖ్య.
▁ও▁পরে▁
republic▁
,▁పేద
▁ও▁পা
respon
,▁పేదరి
▁ও▁ব
retur
,▁పేదరికం
▁ও▁বাহা
reven
,▁పేదరికం,▁నిరక్షరాస్యత,▁అవినీతి,▁పోషకాహార▁లోపం▁వంటి▁సవాళ్లను▁ఎదుర్కొంటున్నది.
▁ও▁সামরিক▁
regions▁
,▁పోర్చు
▁কর্মসূচি
regul
,▁పోర్చుగ
▁করতে▁পা
regions.
,▁పోర్చుగల్,▁
▁করা▁যায়।
remaining▁
,▁పోర్చుగల్,▁ఫ్రా
▁করা▁হয়।
resulting▁
,▁పోర్చుగల్,▁ఫ్రాన్స్,
▁করে▁থাকে
revenu
,▁పోర్చుగల్,▁ఫ్రాన్స్,▁ఇం
▁কাল
rig
,▁పోర్చుగల్,▁ఫ్రాన్స్,▁ఇంగ్లం
▁কাশ্মী
ri▁L
,▁పోర్చుగల్,▁ఫ్రాన్స్,▁ఇంగ్లండు▁
▁কিন্তু
rica▁
,▁పోర్చుగల్,▁ఫ్రాన్స్,▁ఇంగ్లండు▁వంటి
▁কোনও▁
ricket▁
,▁పోర్చుగల్,▁ఫ్రాన్స్,▁ఇంగ్లండు▁వంటి▁ఐ
▁কোটি▁বছরে
right
,▁పోర్చుగల్,▁ఫ్రాన్స్,▁ఇంగ్లండు▁వంటి▁ఐరోపా
▁খাত▁
rights▁
,▁పోర్చుగల్,▁ఫ్రాన్స్,▁ఇంగ్లండు▁వంటి▁ఐరోపా▁రాజ్యాలు▁
▁খ্রিষ্টা
rise▁
,▁పోర్చుగల్,▁ఫ్రాన్స్,▁ఇంగ్లండు▁వంటి▁ఐరోపా▁రాజ్యాలు▁వ్యాపా
▁খ্রিষ্টীয়▁
ri▁Lank
,▁పోర్చుగల్,▁ఫ్రాన్స్,▁ఇంగ్లండు▁వంటి▁ఐరోపా▁రాజ్యాలు▁వ్యాపారం
▁গড়ে
sector▁
,▁పోర్చుగల్,▁ఫ్రాన్స్,▁ఇంగ్లండు▁వంటి▁ఐరోపా▁రాజ్యాలు▁వ్యాపారం▁చే
▁গবেষণা
self
,▁పోర్చుగల్,▁ఫ్రాన్స్,▁ఇంగ్లండు▁వంటి▁ఐరోపా▁రాజ్యాలు▁వ్యాపారం▁చేసే
▁গ্রামীণ
se▁
,▁పోర్చుగల్,▁ఫ్రాన్స్,▁ఇంగ్లండు▁వంటి▁ఐరోపా▁రాజ్యాలు▁వ్యాపారం▁చేసే▁త
▁চতু
sli
,▁పోర్చుగల్,▁ఫ్రాన్స్,▁ఇంగ్లండు▁వంటి▁ఐరోపా▁రాజ్యాలు▁వ్యాపారం▁చేసే▁తలం
▁চলচ্চিত্র
sometimes▁
,▁పోర్చుగల్,▁ఫ్రాన్స్,▁ఇంగ్లండు▁వంటి▁ఐరోపా▁రాజ్యాలు▁వ్యాపారం▁చేసే▁తలంపు
▁জলবায়ু
sovereignt
,▁పోర్చుగల్,▁ఫ్రాన్స్,▁ఇంగ్లండు▁వంటి▁ఐరోపా▁రాజ్యాలు▁వ్యాపారం▁చేసే▁తలంపుతో▁
▁ট্রফি,▁
scheduled▁
,▁పోర్చుగల్,▁ఫ్రాన్స్,▁ఇంగ్లండు▁వంటి▁ఐరోపా▁రాజ్యాలు▁వ్యాపారం▁చేసే▁తలంపుతో▁భారతదేశం
▁তবে
script
,▁పోర్చుగల్,▁ఫ్రాన్స్,▁ఇంగ్లండు▁వంటి▁ఐరోపా▁రాజ్యాలు▁వ్యాపారం▁చేసే▁తలంపుతో▁భారతదేశం▁వచ్చి
▁তথ্য▁প্রযুক্তি
separ
,▁పోర్చుగల్,▁ఫ్రాన్స్,▁ఇంగ్లండు▁వంటి▁ఐరోపా▁రాజ్యాలు▁వ్యాపారం▁చేసే▁తలంపుతో▁భారతదేశం▁వచ్చి,▁చిన్న▁చిన్న▁రాజ్యాలుగా▁ఉన్న▁ఇక్కడి▁పరిస్థితి▁గమనించి,▁ఆక్రమించుకున్నారు.
▁তাই
settl
,▁ప్రఖ్యా
▁তামি
shal
,▁ప్రఖ్యాతి▁
▁তার
share▁
,▁ప్రఖ్యాతి▁గాం
▁থেকে,▁কখনো
show▁
,▁ప్రఖ్యాతి▁గాంచిన▁
▁থেকে▁উদ্ভূ
sim
,▁ప్రఖ్యాతి▁గాంచిన▁ప్ర
▁দলে
sist
,▁ప్రఖ్యాతి▁గాంచిన▁ప్రథ
▁দাক্ষিণাত্য
siv
,▁ప్రఖ్యాతి▁గాంచిన▁ప్రథమ
▁দিবস
six
,▁ప్రఖ్యాతి▁గాంచిన▁ప్రథమ▁స్వాతంత్ర్య▁సమరం
▁দিয়েছে।
signed▁
,▁ప్రఖ్యాతి▁గాంచిన▁ప్రథమ▁స్వాతంత్ర్య▁సమరం)▁తరువాత,▁భారతదేశంలోని▁అధిక▁భాగం▁బ్రిటిషు▁సామ్రాజ్యం▁కిందకు▁వచ్చింది.
▁দেশীয়▁
sively▁
,▁బహుళ▁జాతి
▁দেখা▁যা
,▁బహుళ▁జాతి▁సం
▁দেখা▁যায়।
,▁బహుళ▁జాతి▁సంఘ
▁দেখা▁যায়
,▁బహుళ▁జాతి▁సంఘము.
▁ধর্মা
,▁బౌద్ధ
▁নগ
,▁బౌద్ధ,▁జైన,▁సిక్కు▁మతములకు▁జన్మనిచ్చింది.
▁নামে▁
,▁బ్రిటీషు
▁নারী
,▁బ్రిటీషు▁(
▁নামক▁একটি▁
,▁బ్రిటీషు▁(ఆం
▁নিযুক্ত
,▁బ్రిటీషు▁(ఆంగ్లే
▁নির্ধা
,▁బ్రిటీషు▁(ఆంగ్లేయు
▁নিদর্শন।
,▁బ్రిటీషు▁(ఆంగ్లేయులు
▁নেতৃ
,▁బ్రిటీషు▁(ఆంగ్లేయులు)▁వారి▁వలన▁ప్రాముఖ్యతను▁పొందినది.
▁নেয়।
,▁భారతదేశం.
▁পরোক্ষভাবে
,▁భారతదేశం▁వేగంగా▁అభివృద్ధి▁చెందుతున్న
▁পরিচালি
,▁భారతదేశం▁వేగంగా▁అభివృద్ధి▁చెందుతున్న▁ప్రధాన▁
▁পরিষদ
,▁భారతదేశం▁వేగంగా▁అభివృద్ధి▁చెందుతున్న▁ప్రధాన▁ఆర్థి
▁পরিষেবা
,▁భారతదేశం▁వేగంగా▁అభివృద్ధి▁చెందుతున్న▁ప్రధాన▁ఆర్థిక▁
▁পালি
,▁భారతదేశం▁వేగంగా▁అభివృద్ధి▁చెందుతున్న▁ప్రధాన▁ఆర్థిక▁దేశాలలో▁
▁পুরস্কা
,▁భారతదేశం▁వేగంగా▁అభివృద్ధి▁చెందుతున్న▁ప్రధాన▁ఆర్థిక▁దేశాలలో▁ఒకటి
▁পুরুষ
,▁భారతదేశం▁వేగంగా▁అభివృద్ధి▁చెందుతున్న▁ప్రధాన▁ఆర్థిక▁దేశాలలో▁ఒకటి▁అ
▁প্রকৃতি
,▁భారతదేశం▁వేగంగా▁అభివృద్ధి▁చెందుతున్న▁ప్రధాన▁ఆర్థిక▁దేశాలలో▁ఒకటి▁అయింది.
▁প্রজাতি
,▁భారతీయ▁సాంస్కృతిక▁వారసత్వా
▁প্রথম
,▁భారతీయ▁సాంస్కృతిక▁వారసత్వానికి
▁প্রথা
,▁భారతీయ▁సాంస్కృతిక▁వారసత్వానికి▁విలు
▁প্রবর্তি
,▁భారతీయ▁సాంస్కృతిక▁వారసత్వానికి▁విలువై
▁প্রবেশ
,▁భారతీయ▁సాంస్కృతిక▁వారసత్వానికి▁విలువైన▁
▁প্রভাব▁বিস্তা
,▁భారతీయ▁సాంస్కృతిక▁వారసత్వానికి▁విలువైన▁సే
▁প্রভূত▁
,▁భారతీయ▁సాంస్కృతిక▁వారసత్వానికి▁విలువైన▁సేవ
▁প্রশাস
,▁భారతీయ▁సాంస్కృతిక▁వారసత్వానికి▁విలువైన▁సేవ▁చేసింది.
▁প্রস্ত
,▁భారత▁ఉపఖండ
▁প্রচলিত।
,▁భారత▁ఉపఖండము
▁প্রচলিত▁
,▁భారత▁ఉపఖండములో▁అ
▁প্রতিষ্ঠিত▁হয়▁
,▁భారత▁ఉపఖండములో▁అధి
▁প্রাধান্য
,▁భారత▁ఉపఖండములో▁అధిక▁
▁বজায়▁
,▁భారత▁ఉపఖండములో▁అధిక▁భాగాన్ని▁
▁বর্ণি
,▁భారత▁ఉపఖండములో▁అధిక▁భాగాన్ని▁కూ
▁বর্ষা
,▁భారత▁ఉపఖండములో▁అధిక▁భాగాన్ని▁కూడు
▁বসবাস
,▁భారత▁ఉపఖండములో▁అధిక▁భాగాన్ని▁కూడుకొని▁
▁বছর▁
,▁భారత▁ఉపఖండములో▁అధిక▁భాగాన్ని▁కూడుకొని▁ఉన్న
▁বর্তমানে▁
,▁భారత▁ఉపఖండములో▁అధిక▁భాగాన్ని▁కూడుకొని▁ఉన్న▁భారతదేశం
▁বর্তমানে▁ভারত▁
,▁భారత▁ఉపఖండములో▁అధిక▁భాగాన్ని▁కూడుకొని▁ఉన్న▁భారతదేశం,▁అనేక▁చారిత్రక▁వాణిజ్య▁రహదారులను▁కలిగి▁ఉంది.
▁বলে▁বিবেচিত▁হয়।
,▁మత
▁বহুল▁
,▁మతం,▁
▁বাম
,▁మధ్య
▁বার্ষিক▁
,▁మయ
▁বিজ্ঞান▁ও▁প্রযুক্তি
,▁మత▁ప
▁বিদেশি
,▁మతం,▁కు
▁বিভক্ত।
,▁మతం,▁కులం
▁বিরোধ
,▁మతం,▁కులం▁అనే
▁বিগত▁দুই▁দশকে
,▁మతం,▁కులం▁అనే▁మూడు
▁বিশ্বের▁স
,▁మతం,▁కులం▁అనే▁మూడు▁ప్రముఖ
▁বিশ্বের▁নিরিখে▁
,▁మతం,▁కులం▁అనే▁మూడు▁ప్రముఖ▁పాత్ర
▁বৃদ্ধির▁হার▁
,▁మతం,▁కులం▁అనే▁మూడు▁ప్రముఖ▁పాత్ర▁వ
▁বৃদ্ধি▁পা
,▁మతం,▁కులం▁అనే▁మూడు▁ప్రముఖ▁పాత్ర▁వహి
▁বেড়ে
,▁మతం,▁కులం▁అనే▁మూడు▁ప్రముఖ▁పాత్ర▁వహిస్తాయి.
▁বৈদিক▁যুগে
,▁మత▁పరమైన▁
▁বৈদেশিক▁
,▁మత▁పరమైన▁సం
▁ভারত,▁
,▁మత▁పరమైన▁సంఘర్షణ
▁ভারত।
,▁మత▁పరమైన▁సంఘర్షణలను▁
▁ভারতীয়
,▁మత▁పరమైన▁సంఘర్షణలను▁చవి
▁ভারতবাসী
,▁మత▁పరమైన▁సంఘర్షణలను▁చవిచూ
▁ভারতীয়▁উপমহাদেশ
,▁మత▁పరమైన▁సంఘర్షణలను▁చవిచూసింది.
▁ভারতীয়▁জাতীয়▁কংগ্রেস
,▁మధ్య,▁ఈశాన్య▁ప్రాంతాలు▁సారవంతమైన▁గంగా▁మైదానంతో▁కూడి▁ఉన్నాయి.
▁ভারতের▁জনসংখ্যা
,▁మయన్మా
▁ভারতের▁বৃহত্তম▁
,▁మయన్మార్,▁
▁ভারতের▁মা
,▁మయన్మార్,▁బంగ్లాదే
▁ভারতের▁স
,▁మయన్మార్,▁బంగ్లాదేశ్,
▁ভারতের▁সংবিধান▁
,▁మయన్మార్,▁బంగ్లాదేశ్,▁నేపాల్,▁భూటా
▁ভারতের▁সু
,▁మయన్మార్,▁బంగ్లాదేశ్,▁నేపాల్,▁భూటాన్,
▁ভারতের▁ইতিহাসে
,▁మయన్మార్,▁బంగ్లాదేశ్,▁నేపాల్,▁భూటాన్,▁ఆ
▁ভারতের▁প্রধান▁
,▁మయన్మార్,▁బంగ్లాదేశ్,▁నేపాల్,▁భూటాన్,▁ఆఫ్ఘా
▁ভারত▁(
,▁మయన్మార్,▁బంగ్లాదేశ్,▁నేపాల్,▁భూటాన్,▁ఆఫ్ఘాని
▁ভারত▁জাতীয়▁
,▁మయన్మార్,▁బంగ్లాదేశ్,▁నేపాల్,▁భూటాన్,▁ఆఫ్ఘానిస్తాన్▁
▁ভারত▁বিশ্বের▁
,▁మయన్మార్,▁బంగ్లాదేశ్,▁నేపాల్,▁భూటాన్,▁ఆఫ్ఘానిస్తాన్▁దేశా
▁ভারত▁সরকা
,▁మయన్మార్,▁బంగ్లాదేశ్,▁నేపాల్,▁భూటాన్,▁ఆఫ్ఘానిస్తాన్▁దేశాలతో
▁ভাষাগোষ্ঠী
,▁మయన్మార్,▁బంగ్లాదేశ్,▁నేపాల్,▁భూటాన్,▁ఆఫ్ఘానిస్తాన్▁దేశాలతో▁సరిహద్దు
▁মনে
,▁మయన్మార్,▁బంగ్లాదేశ్,▁నేపాల్,▁భూటాన్,▁ఆఫ్ఘానిస్తాన్▁దేశాలతో▁సరిహద్దులను▁
▁মধ্যযু
,▁మయన్మార్,▁బంగ్లాదేశ్,▁నేపాల్,▁భూటాన్,▁ఆఫ్ఘానిస్తాన్▁దేశాలతో▁సరిహద్దులను▁పం
▁মানব
,▁మయన్మార్,▁బంగ్లాదేశ్,▁నేపాల్,▁భూటాన్,▁ఆఫ్ఘానిస్తాన్▁దేశాలతో▁సరిహద్దులను▁పంచు
▁মানুষের▁
,▁మయన్మార్,▁బంగ్లాదేశ్,▁నేపాల్,▁భూటాన్,▁ఆఫ్ఘానిస్తాన్▁దేశాలతో▁సరిహద్దులను▁పంచుకుం
▁মৌসুমি▁বায়ু
,▁మయన్మార్,▁బంగ్లాదేశ్,▁నేపాల్,▁భూటాన్,▁ఆఫ్ఘానిస్తాన్▁దేశాలతో▁సరిహద్దులను▁పంచుకుంటోం
▁যুব
,▁మయన్మార్,▁బంగ్లాదేశ్,▁నేపాల్,▁భూటాన్,▁ఆఫ్ఘానిస్తాన్▁దేశాలతో▁సరిహద్దులను▁పంచుకుంటోంది.
▁যুক্তরাষ্ট্রের▁সঙ্গে▁ভারতের▁সম্পর্কে
,▁ముఖ్యంగా▁దక్షిణాన▁
▁রক্ষার▁
,▁ముఖ్యంగా▁దక్షిణాన▁స్థా
▁রাম
,▁ముఖ్యంగా▁దక్షిణాన▁స్థానిక▁సా
▁রাষ্ট্রে
,▁ముఖ్యంగా▁దక్షిణాన▁స్థానిక▁సామ్రా
▁রাজ্যসভা
,▁ముఖ్యంగా▁దక్షిణాన▁స్థానిక▁సామ్రాజ్యా
▁রাজ্যের▁
,▁ముఖ్యంగా▁దక్షిణాన▁స్థానిక▁సామ్రాజ్యాలు▁అ
▁লাভ
,▁ముఖ్యంగా▁దక్షిణాన▁స్థానిక▁సామ్రాజ్యాలు▁అధి
▁শব্দটি▁
,▁ముఖ్యంగా▁దక్షిణాన▁స్థానిక▁సామ్రాజ్యాలు▁అధికా
▁শহরে
,▁ముఖ్యంగా▁దక్షిణాన▁స్థానిక▁సామ్రాజ్యాలు▁అధికారా
▁সম্প্রদা
,▁ముఖ్యంగా▁దక్షిణాన▁స్థానిక▁సామ్రాజ్యాలు▁అధికారాన్ని▁
▁সর্বোচ্চ▁আদাল
,▁ముఖ్యంగా▁దక్షిణాన▁స్థానిక▁సామ్రాజ్యాలు▁అధికారాన్ని▁ని
▁সংস্থা
,▁ముఖ్యంగా▁దక్షిణాన▁స్థానిక▁సామ్రాజ్యాలు▁అధికారాన్ని▁నిల
▁সংখ্যাগরিষ্ঠ
,▁ముఖ్యంగా▁దక్షిణాన▁స్థానిక▁సామ్రాజ్యాలు▁అధికారాన్ని▁నిలబె
▁সংবিধানে
,▁ముఖ్యంగా▁దక్షిణాన▁స్థానిక▁సామ్రాజ్యాలు▁అధికారాన్ని▁నిలబెట్టు
▁সংরক্ষণের▁জন্য
,▁ముఖ్యంగా▁దక్షిణాన▁స్థానిక▁సామ్రాజ్యాలు▁అధికారాన్ని▁నిలబెట్టుకు
▁সংসদে
,▁ముఖ్యంగా▁దక్షిణాన▁స్థానిక▁సామ్రాజ్యాలు▁అధికారాన్ని▁నిలబెట్టుకున్నాయి.
▁সংসদের▁নিম্নকক্ষে
,▁మేనక
▁সংস্কৃতি
,▁మేనకల▁
▁সঙ্গে▁দেশে
,▁మేనకల▁కుమా
▁সময়কালে
,▁మేనకల▁కుమార్తె
▁সময়▁জুড়ে
,▁మేనకల▁కుమార్తె▁అయిన▁
▁সরকারি▁ভাষা
,▁మేనకల▁కుమార్తె▁అయిన▁శ
▁সাম্প্রতিক▁
,▁మేనకల▁కుమార్తె▁అయిన▁శకుం
▁সাল▁থেকে
,▁మేనకల▁కుమార్తె▁అయిన▁శకుంతల▁
▁সালের▁২৬▁জানুয়ারি
,▁మేనకల▁కుమార్తె▁అయిన▁శకుంతల▁కుమా
▁স্বাধীনোত্ত
,▁మేనకల▁కుమార్తె▁అయిన▁శకుంతల▁కుమారు
▁স্বাধীনতা▁আন্দোলনের▁
,▁మేనకల▁కుమార్తె▁అయిన▁శకుంతల▁కుమారుడు
▁হওয়া
,▁మేనకల▁కుమార్తె▁అయిన▁శకుంతల▁కుమారుడు.
▁হয়েছিল।
,▁మైత్రి
▁হয়েছিল▁
,▁మైత్రి▁అ
▁১৮
,▁మైత్రి▁అను▁
▁১৯৫০-এর▁দশ
,▁మైత్రి▁అను▁రెండు
▁১৯৮০▁সালে
,▁మైత్రి▁అను▁రెండు▁శాస్త్రీయ▁
▁১৯৯০-এর▁দশ
,▁మైత్రి▁అను▁రెండు▁శాస్త్రీయ▁స్థావరాలు▁
▁১৯৯১▁সালে
,▁మైత్రి▁అను▁రెండు▁శాస్త్రీయ▁స్థావరాలు▁ఉన్నాయి.
▁২০০৭
,▁యము
")
"।
"ধ্রুপদী
"লোক
"সিন্ধু
"▁ও▁
"▁ভারতীয়▁সংস্কৃতি
"),▁ভারতীয়▁
"),▁ভারতীয়▁জনতা▁পার্টি
"),▁ভারতীয়▁জনতা▁পার্টি▁(বি
"),▁ভারতীয়▁জনতা▁পার্টি▁(বিজেপি
"),▁ভারতীয়▁জনতা▁পার্টি▁(বিজেপি)
"),▁ভারতীয়▁জনতা▁পার্টি▁(বিজেপি),▁ভারতের▁
"),▁ভারতীয়▁জনতা▁পার্টি▁(বিজেপি),▁ভারতের▁ক
"),▁ভারতীয়▁জনতা▁পার্টি▁(বিজেপি),▁ভারতের▁কমি
"),▁ভারতীয়▁জনতা▁পার্টি▁(বিজেপি),▁ভারতের▁কমিউ
"),▁ভারতীয়▁জনতা▁পার্টি▁(বিজেপি),▁ভারতের▁কমিউনি
"),▁ভারতীয়▁জনতা▁পার্টি▁(বিজেপি),▁ভারতের▁কমিউনিস্ট
"),▁ভারতীয়▁জনতা▁পার্টি▁(বিজেপি),▁ভারতের▁কমিউনিস্ট▁পার্টি
"),▁ভারতীয়▁জনতা▁পার্টি▁(বিজেপি),▁ভারতের▁কমিউনিস্ট▁পার্টি▁(মা
"),▁ভারতীয়▁জনতা▁পার্টি▁(বিজেপি),▁ভারতের▁কমিউনিস্ট▁পার্টি▁(মার্ক
"),▁ভারতীয়▁জনতা▁পার্টি▁(বিজেপি),▁ভারতের▁কমিউনিস্ট▁পার্টি▁(মার্কস
"),▁ভারতীয়▁জনতা▁পার্টি▁(বিজেপি),▁ভারতের▁কমিউনিস্ট▁পার্টি▁(মার্কসবাদী
"),▁ভারতীয়▁জনতা▁পার্টি▁(বিজেপি),▁ভারতের▁কমিউনিস্ট▁পার্টি▁(মার্কসবাদী)
"),▁ভারতীয়▁জনতা▁পার্টি▁(বিজেপি),▁ভারতের▁কমিউনিস্ট▁পার্টি▁(মার্কসবাদী)▁(
"),▁ভারতীয়▁জনতা▁পার্টি▁(বিজেপি),▁ভারতের▁কমিউনিস্ট▁পার্টি▁(মার্কসবাদী)▁(সি
"),▁ভারতীয়▁জনতা▁পার্টি▁(বিজেপি),▁ভারতের▁কমিউনিস্ট▁পার্টি▁(মার্কসবাদী)▁(সিপি
"),▁ভারতীয়▁জনতা▁পার্টি▁(বিজেপি),▁ভারতের▁কমিউনিস্ট▁পার্টি▁(মার্কসবাদী)▁(সিপিআই
"),▁ভারতীয়▁জনতা▁পার্টি▁(বিজেপি),▁ভারতের▁কমিউনিস্ট▁পার্টি▁(মার্কসবাদী)▁(সিপিআই(এ
"),▁ভারতীয়▁জনতা▁পার্টি▁(বিজেপি),▁ভারতের▁কমিউনিস্ট▁পার্টি▁(মার্কসবাদী)▁(সিপিআই(এম
"),▁ভারতীয়▁জনতা▁পার্টি▁(বিজেপি),▁ভারতের▁কমিউনিস্ট▁পার্টি▁(মার্কসবাদী)▁(সিপিআই(এম))
"),▁ভারতীয়▁জনতা▁পার্টি▁(বিজেপি),▁ভারতের▁কমিউনিস্ট▁পার্টি▁(মার্কসবাদী)▁(সিপিআই(এম))▁প্র
"),▁ভারতীয়▁জনতা▁পার্টি▁(বিজেপি),▁ভারতের▁কমিউনিস্ট▁পার্টি▁(মার্কসবাদী)▁(সিপিআই(এম))▁প্রভৃ
"),▁ভারতীয়▁জনতা▁পার্টি▁(বিজেপি),▁ভারতের▁কমিউনিস্ট▁পার্টি▁(মার্কসবাদী)▁(সিপিআই(এম))▁প্রভৃতি▁
"),▁ভারতীয়▁জনতা▁পার্টি▁(বিজেপি),▁ভারতের▁কমিউনিস্ট▁পার্টি▁(মার্কসবাদী)▁(সিপিআই(এম))▁প্রভৃতি▁জাতীয়▁দ
"),▁ভারতীয়▁জনতা▁পার্টি▁(বিজেপি),▁ভারতের▁কমিউনিস্ট▁পার্টি▁(মার্কসবাদী)▁(সিপিআই(এম))▁প্রভৃতি▁জাতীয়▁দল▁ও▁
"),▁ভারতীয়▁জনতা▁পার্টি▁(বিজেপি),▁ভারতের▁কমিউনিস্ট▁পার্টি▁(মার্কসবাদী)▁(সিপিআই(এম))▁প্রভৃতি▁জাতীয়▁দল▁ও▁এ
"),▁ভারতীয়▁জনতা▁পার্টি▁(বিজেপি),▁ভারতের▁কমিউনিস্ট▁পার্টি▁(মার্কসবাদী)▁(সিপিআই(এম))▁প্রভৃতি▁জাতীয়▁দল▁ও▁একাধিক▁
"),▁ভারতীয়▁জনতা▁পার্টি▁(বিজেপি),▁ভারতের▁কমিউনিস্ট▁পার্টি▁(মার্কসবাদী)▁(সিপিআই(এম))▁প্রভৃতি▁জাতীয়▁দল▁ও▁একাধিক▁আ
"),▁ভারতীয়▁জনতা▁পার্টি▁(বিজেপি),▁ভারতের▁কমিউনিস্ট▁পার্টি▁(মার্কসবাদী)▁(সিপিআই(এম))▁প্রভৃতি▁জাতীয়▁দল▁ও▁একাধিক▁আঞ্চলিক▁
"),▁ভারতীয়▁জনতা▁পার্টি▁(বিজেপি),▁ভারতের▁কমিউনিস্ট▁পার্টি▁(মার্কসবাদী)▁(সিপিআই(এম))▁প্রভৃতি▁জাতীয়▁দল▁ও▁একাধিক▁আঞ্চলিক▁পার্টি
"),▁ভারতীয়▁জনতা▁পার্টি▁(বিজেপি),▁ভারতের▁কমিউনিস্ট▁পার্টি▁(মার্কসবাদী)▁(সিপিআই(এম))▁প্রভৃতি▁জাতীয়▁দল▁ও▁একাধিক▁আঞ্চলিক▁পার্টি।
"ধ্রুপদী"▁