{
  "version": "1.0",
  "truncation": null,
  "padding": null,
  "added_tokens": [],
  "normalizer": null,
  "pre_tokenizer": {
    "type": "Metaspace",
    "replacement": "▁",
    "prepend_scheme": "always",
    "split": true
  },
  "post_processor": null,
  "decoder": {
    "type": "Sequence",
    "decoders": [
      {
        "type": "Replace",
        "pattern": {
          "String": "▁"
        },
        "content": " "
      },
      {
        "type": "ByteFallback"
      },
      {
        "type": "Fuse"
      },
      {
        "type": "Strip",
        "content": " ",
        "start": 1,
        "stop": 0
      }
    ]
  },
  "model": {
    "type": "BPE",
    "dropout": null,
    "unk_token": null,
    "continuing_subword_prefix": null,
    "end_of_word_suffix": null,
    "fuse_unk": false,
    "byte_fallback": true,
    "ignore_merges": false,
    "vocab": {
      "<0x00>": 0,
      "<0x01>": 1,
      "<0x02>": 2,
      "<0x03>": 3,
      "<0x04>": 4,
      "<0x05>": 5,
      "<0x06>": 6,
      "<0x07>": 7,
      "<0x08>": 8,
      "<0x09>": 9,
      "<0x0A>": 10,
      "<0x0B>": 11,
      "<0x0C>": 12,
      "<0x0D>": 13,
      "<0x0E>": 14,
      "<0x0F>": 15,
      "<0x10>": 16,
      "<0x11>": 17,
      "<0x12>": 18,
      "<0x13>": 19,
      "<0x14>": 20,
      "<0x15>": 21,
      "<0x16>": 22,
      "<0x17>": 23,
      "<0x18>": 24,
      "<0x19>": 25,
      "<0x1A>": 26,
      "<0x1B>": 27,
      "<0x1C>": 28,
      "<0x1D>": 29,
      "<0x1E>": 30,
      "<0x1F>": 31,
      "<0x20>": 32,
      "<0x21>": 33,
      "<0x22>": 34,
      "<0x23>": 35,
      "<0x24>": 36,
      "<0x25>": 37,
      "<0x26>": 38,
      "<0x27>": 39,
      "<0x28>": 40,
      "<0x29>": 41,
      "<0x2A>": 42,
      "<0x2B>": 43,
      "<0x2C>": 44,
      "<0x2D>": 45,
      "<0x2E>": 46,
      "<0x2F>": 47,
      "<0x30>": 48,
      "<0x31>": 49,
      "<0x32>": 50,
      "<0x33>": 51,
      "<0x34>": 52,
      "<0x35>": 53,
      "<0x36>": 54,
      "<0x37>": 55,
      "<0x38>": 56,
      "<0x39>": 57,
      "<0x3A>": 58,
      "<0x3B>": 59,
      "<0x3C>": 60,
      "<0x3D>": 61,
      "<0x3E>": 62,
      "<0x3F>": 63,
      "<0x40>": 64,
      "<0x41>": 65,
      "<0x42>": 66,
      "<0x43>": 67,
      "<0x44>": 68,
      "<0x45>": 69,
      "<0x46>": 70,
      "<0x47>": 71,
      "<0x48>": 72,
      "<0x49>": 73,
      "<0x4A>": 74,
      "<0x4B>": 75,
      "<0x4C>": 76,
      "<0x4D>": 77,
      "<0x4E>": 78,
      "<0x4F>": 79,
      "<0x50>": 80,
      "<0x51>": 81,
      "<0x52>": 82,
      "<0x53>": 83,
      "<0x54>": 84,
      "<0x55>": 85,
      "<0x56>": 86,
      "<0x57>": 87,
      "<0x58>": 88,
      "<0x59>": 89,
      "<0x5A>": 90,
      "<0x5B>": 91,
      "<0x5C>": 92,
      "<0x5D>": 93,
      "<0x5E>": 94,
      "<0x5F>": 95,
      "<0x60>": 96,
      "<0x61>": 97,
      "<0x62>": 98,
      "<0x63>": 99,
      "<0x64>": 100,
      "<0x65>": 101,
      "<0x66>": 102,
      "<0x67>": 103,
      "<0x68>": 104,
      "<0x69>": 105,
      "<0x6A>": 106,
      "<0x6B>": 107,
      "<0x6C>": 108,
      "<0x6D>": 109,
      "<0x6E>": 110,
      "<0x6F>": 111,
      "<0x70>": 112,
      "<0x71>": 113,
      "<0x72>": 114,
      "<0x73>": 115,
      "<0x74>": 116,
      "<0x75>": 117,
      "<0x76>": 118,
      "<0x77>": 119,
      "<0x78>": 120,
      "<0x79>": 121,
      "<0x7A>": 122,
      "<0x7B>": 123,
      "<0x7C>": 124,
      "<0x7D>": 125,
      "<0x7E>": 126,
      "<0x7F>": 127,
      "<0x80>": 128,
      "<0x81>": 129,
      "<0x82>": 130,
      "<0x83>": 131,
      "<0x84>": 132,
      "<0x85>": 133,
      "<0x86>": 134,
      "<0x87>": 135,
      "<0x88>": 136,
      "<0x89>": 137,
      "<0x8A>": 138,
      "<0x8B>": 139,
      "<0x8C>": 140,
      "<0x8D>": 141,
      "<0x8E>": 142,
      "<0x8F>": 143,
      "<0x90>": 144,
      "<0x91>": 145,
      "<0x92>": 146,
      "<0x93>": 147,
      "<0x94>": 148,
      "<0x95>": 149,
      "<0x96>": 150,
      "<0x97>": 151,
      "<0x98>": 152,
      "<0x99>": 153,
      "<0x9A>": 154,
      "<0x9B>": 155,
      "<0x9C>": 156,
      "<0x9D>": 157,
      "<0x9E>": 158,
      "<0x9F>": 159,
      "<0xA0>": 160,
      "<0xA1>": 161,
      "<0xA2>": 162,
      "<0xA3>": 163,
      "<0xA4>": 164,
      "<0xA5>": 165,
      "<0xA6>": 166,
      "<0xA7>": 167,
      "<0xA8>": 168,
      "<0xA9>": 169,
      "<0xAA>": 170,
      "<0xAB>": 171,
      "<0xAC>": 172,
      "<0xAD>": 173,
      "<0xAE>": 174,
      "<0xAF>": 175,
      "<0xB0>": 176,
      "<0xB1>": 177,
      "<0xB2>": 178,
      "<0xB3>": 179,
      "<0xB4>": 180,
      "<0xB5>": 181,
      "<0xB6>": 182,
      "<0xB7>": 183,
      "<0xB8>": 184,
      "<0xB9>": 185,
      "<0xBA>": 186,
      "<0xBB>": 187,
      "<0xBC>": 188,
      "<0xBD>": 189,
      "<0xBE>": 190,
      "<0xBF>": 191,
      "<0xC0>": 192,
      "<0xC1>": 193,
      "<0xC2>": 194,
      "<0xC3>": 195,
      "<0xC4>": 196,
      "<0xC5>": 197,
      "<0xC6>": 198,
      "<0xC7>": 199,
      "<0xC8>": 200,
      "<0xC9>": 201,
      "<0xCA>": 202,
      "<0xCB>": 203,
      "<0xCC>": 204,
      "<0xCD>": 205,
      "<0xCE>": 206,
      "<0xCF>": 207,
      "<0xD0>": 208,
      "<0xD1>": 209,
      "<0xD2>": 210,
      "<0xD3>": 211,
      "<0xD4>": 212,
      "<0xD5>": 213,
      "<0xD6>": 214,
      "<0xD7>": 215,
      "<0xD8>": 216,
      "<0xD9>": 217,
      "<0xDA>": 218,
      "<0xDB>": 219,
      "<0xDC>": 220,
      "<0xDD>": 221,
      "<0xDE>": 222,
      "<0xDF>": 223,
      "<0xE0>": 224,
      "<0xE1>": 225,
      "<0xE2>": 226,
      "<0xE3>": 227,
      "<0xE4>": 228,
      "<0xE5>": 229,
      "<0xE6>": 230,
      "<0xE7>": 231,
      "<0xE8>": 232,
      "<0xE9>": 233,
      "<0xEA>": 234,
      "<0xEB>": 235,
      "<0xEC>": 236,
      "<0xED>": 237,
      "<0xEE>": 238,
      "<0xEF>": 239,
      "<0xF0>": 240,
      "<0xF1>": 241,
      "<0xF2>": 242,
      "<0xF3>": 243,
      "<0xF4>": 244,
      "<0xF5>": 245,
      "<0xF6>": 246,
      "<0xF7>": 247,
      "<0xF8>": 248,
      "<0xF9>": 249,
      "<0xFA>": 250,
      "<0xFB>": 251,
      "<0xFC>": 252,
      "<0xFD>": 253,
      "<0xFE>": 254,
      "<0xFF>": 255,
      "\"": 256,
      "$": 257,
      "%": 258,
      "&": 259,
      "'": 260,
      "(": 261,
      ")": 262,
      "+": 263,
      ",": 264,
      "-": 265,
      ".": 266,
      "/": 267,
      "0": 268,
      "1": 269,
      "2": 270,
      "3": 271,
      "4": 272,
      "5": 273,
      "6": 274,
      "7": 275,
      "8": 276,
      "9": 277,
      ":": 278,
      ";": 279,
      "=": 280,
      "A": 281,
      "B": 282,
      "C": 283,
      "D": 284,
      "E": 285,
      "F": 286,
      "G": 287,
      "H": 288,
      "I": 289,
      "J": 290,
      "K": 291,
      "L": 292,
      "M": 293,
      "N": 294,
      "O": 295,
      "P": 296,
      "R": 297,
      "S": 298,
      "T": 299,
      "U": 300,
      "V": 301,
      "W": 302,
      "Y": 303,
      "Z": 304,
      "[": 305,
      "]": 306,
      "a": 307,
      "b": 308,
      "c": 309,
      "d": 310,
      "e": 311,
      "f": 312,
      "g": 313,
      "h": 314,
      "i": 315,
      "j": 316,
      "k": 317,
      "l": 318,
      "m": 319,
      "n": 320,
      "o": 321,
      "p": 322,
      "q": 323,
      "r": 324,
      "s": 325,
      "t": 326,
      "u": 327,
      "v": 328,
      "w": 329,
      "x": 330,
      "y": 331,
      "z": 332,
      "|": 333,
      "°": 334,
      "Ö": 335,
      "á": 336,
      "â": 337,
      "í": 338,
      "ā": 339,
      "ī": 340,
      "Ś": 341,
      "ū": 342,
      "ə": 343,
      "ɦ": 344,
      "ɪ": 345,
      "ɾ": 346,
      "ʊ": 347,
      "ʱ": 348,
      "ˈ": 349,
      "ː": 350,
      "ί": 351,
      "α": 352,
      "δ": 353,
      "ν": 354,
      "ο": 355,
      "ς": 356,
      "ό": 357,
      "ँ": 358,
      "ं": 359,
      "ः": 360,
      "अ": 361,
      "आ": 362,
      "इ": 363,
      "ई": 364,
      "उ": 365,
      "ऊ": 366,
      "ऋ": 367,
      "ए": 368,
      "ऐ": 369,
      "ऑ": 370,
      "ओ": 371,
      "औ": 372,
      "क": 373,
      "ख": 374,
      "ग": 375,
      "घ": 376,
      "च": 377,
      "छ": 378,
      "ज": 379,
      "झ": 380,
      "ञ": 381,
      "ट": 382,
      "ठ": 383,
      "ड": 384,
      "ढ": 385,
      "ण": 386,
      "त": 387,
      "थ": 388,
      "द": 389,
      "ध": 390,
      "न": 391,
      "प": 392,
      "फ": 393,
      "ब": 394,
      "भ": 395,
      "म": 396,
      "य": 397,
      "र": 398,
      "ल": 399,
      "व": 400,
      "श": 401,
      "ष": 402,
      "स": 403,
      "ह": 404,
      "़": 405,
      "ा": 406,
      "ि": 407,
      "ी": 408,
      "ु": 409,
      "ू": 410,
      "ृ": 411,
      "े": 412,
      "ै": 413,
      "ॉ": 414,
      "ो": 415,
      "ौ": 416,
      "्": 417,
      "।": 418,
      "०": 419,
      "१": 420,
      "२": 421,
      "३": 422,
      "४": 423,
      "५": 424,
      "६": 425,
      "७": 426,
      "८": 427,
      "९": 428,
      "॰": 429,
      "ঁ": 430,
      "ং": 431,
      "ঃ": 432,
      "অ": 433,
      "আ": 434,
      "ই": 435,
      "ঈ": 436,
      "উ": 437,
      "ঊ": 438,
      "ঋ": 439,
      "এ": 440,
      "ঐ": 441,
      "ও": 442,
      "ক": 443,
      "খ": 444,
      "গ": 445,
      "ঘ": 446,
      "ঙ": 447,
      "চ": 448,
      "ছ": 449,
      "জ": 450,
      "ঝ": 451,
      "ঞ": 452,
      "ট": 453,
      "ঠ": 454,
      "ড": 455,
      "ঢ": 456,
      "ণ": 457,
      "ত": 458,
      "থ": 459,
      "দ": 460,
      "ধ": 461,
      "ন": 462,
      "প": 463,
      "ফ": 464,
      "ব": 465,
      "ভ": 466,
      "ম": 467,
      "য": 468,
      "র": 469,
      "ল": 470,
      "শ": 471,
      "ষ": 472,
      "স": 473,
      "হ": 474,
      "়": 475,
      "া": 476,
      "ি": 477,
      "ী": 478,
      "ু": 479,
      "ূ": 480,
      "ৃ": 481,
      "ে": 482,
      "ৈ": 483,
      "ো": 484,
      "ৌ": 485,
      "্": 486,
      "ৎ": 487,
      "০": 488,
      "১": 489,
      "২": 490,
      "৩": 491,
      "৪": 492,
      "৫": 493,
      "৬": 494,
      "৭": 495,
      "৮": 496,
      "৯": 497,
      "ం": 498,
      "ః": 499,
      "అ": 500,
      "ఆ": 501,
      "ఇ": 502,
      "ఈ": 503,
      "ఉ": 504,
      "ఋ": 505,
      "ఎ": 506,
      "ఏ": 507,
      "ఐ": 508,
      "ఒ": 509,
      "ఓ": 510,
      "ఔ": 511,
      "క": 512,
      "ఖ": 513,
      "గ": 514,
      "ఘ": 515,
      "చ": 516,
      "ఛ": 517,
      "జ": 518,
      "ఞ": 519,
      "ట": 520,
      "ఠ": 521,
      "డ": 522,
      "ఢ": 523,
      "ణ": 524,
      "త": 525,
      "థ": 526,
      "ద": 527,
      "ధ": 528,
      "న": 529,
      "ప": 530,
      "ఫ": 531,
      "బ": 532,
      "భ": 533,
      "మ": 534,
      "య": 535,
      "ర": 536,
      "ల": 537,
      "ళ": 538,
      "వ": 539,
      "శ": 540,
      "ష": 541,
      "స": 542,
      "హ": 543,
      "ా": 544,
      "ి": 545,
      "ీ": 546,
      "ు": 547,
      "ూ": 548,
      "ృ": 549,
      "ె": 550,
      "ే": 551,
      "ై": 552,
      "ొ": 553,
      "ో": 554,
      "ౌ": 555,
      "్": 556,
      "ṅ": 557,
      "ṇ": 558,
      "ṣ": 559,
      "ṭ": 560,
      "Ἰ": 561,
      "‌": 562,
      "‍": 563,
      "–": 564,
      "—": 565,
      "‘": 566,
      "’": 567,
      "“": 568,
      "”": 569,
      "†": 570,
      "′": 571,
      "₹": 572,
      "▁": 573,
      "▁t": 574,
      "▁क": 575,
      "▁ప": 576,
      "ার": 577,
      "an": 578,
      "▁स": 579,
      "్ర": 580,
      "্র": 581,
      "he": 582,
      "▁म": 583,
      "ార": 584,
      "য়": 585,
      "in": 586,
      "▁ह": 587,
      "ాల": 588,
      "▁স": 589,
      "▁the": 590,
      "ार": 591,
      "▁స": 592,
      "্য": 593,
      "on": 594,
      "▁प": 595,
      "▁క": 596,
      "▁ব": 597,
      "er": 598,
      "्र": 599,
      "లో": 600,
      "▁প": 601,
      "re": 602,
      "▁के": 603,
      "్య": 604,
      "ের": 605,
      "▁a": 606,
      "ें": 607,
      "▁వ": 608,
      "▁ভ": 609,
      "st": 610,
      "▁भ": 611,
      "▁మ": 612,
      "▁ক": 613,
      "▁o": 614,
      "▁में": 615,
      "▁భ": 616,
      "্ত": 617,
      "en": 618,
      "▁है": 619,
      "ిం": 620,
      "ারত": 621,
      "al": 622,
      "्य": 623,
      "న్": 624,
      "▁ভারত": 625,
      "di": 626,
      "▁अ": 627,
      "దే": 628,
      "ান": 629,
      "at": 630,
      "ारत": 631,
      "లు": 632,
      "▁এ": 633,
      "▁c": 634,
      "▁न": 635,
      "ది": 636,
      "িক": 637,
      "and": 638,
      "▁भारत": 639,
      "దేశ": 640,
      "▁অ": 641,
      "ed": 642,
      "▁ज": 643,
      "▁ర": 644,
      "্ব": 645,
      "▁I": 646,
      "▁ब": 647,
      "ని": 648,
      "▁হ": 649,
      "ar": 650,
      "र्": 651,
      "ర్": 652,
      "▁ম": 653,
      "it": 654,
      "▁व": 655,
      "స్": 656,
      "▁দ": 657,
      "▁w": 658,
      "ों": 659,
      "▁ప్ర": 660,
      "▁প্র": 661,
      "▁In": 662,
      "▁द": 663,
      "ారత": 664,
      "িত": 665,
      "▁in": 666,
      "या": 667,
      "▁భారత": 668,
      "▁ও": 669,
      "▁s": 670,
      "िक": 671,
      "▁అ": 672,
      "াল": 673,
      "▁of": 674,
      "▁औ": 675,
      "ాలు": 676,
      "▁ন": 677,
      "▁and": 678,
      "▁और": 679,
      "ిక": 680,
      "▁বি": 681,
      "▁b": 682,
      "▁र": 683,
      "న్న": 684,
      "ীয়": 685,
      "ion": 686,
      "्त": 687,
      "గా": 688,
      "্ষ": 689,
      "or": 690,
      "ान": 691,
      "ది.": 692,
      "▁আ": 693,
      "▁p": 694,
      "▁की": 695,
      "▁ఉ": 696,
      "ন্": 697,
      "es": 698,
      "▁त": 699,
      "ాయ": 700,
      "টি": 701,
      "▁m": 702,
      "▁प्र": 703,
      "▁జ": 704,
      "রা": 705,
      "▁Indi": 706,
      "▁का": 707,
      "ాత": 708,
      "র্": 709,
      "▁f": 710,
      "▁से": 711,
      "క్": 712,
      "▁উ": 713,
      "ic": 714,
      "▁है।": 715,
      "దేశం": 716,
      "▁জ": 717,
      "is": 718,
      "ाज": 719,
      "కు": 720,
      "▁শ": 721,
      "ing": 722,
      "ीय": 723,
      "ను": 724,
      "ক্ষ": 725,
      "as": 726,
      "िया": 727,
      "▁చ": 728,
      "তি": 729,
      "ent": 730,
      "▁ग": 731,
      "్వ": 732,
      "েশ": 733,
      "▁l": 734,
      "▁आ": 735,
      "్ట": 736,
      "ায়": 737,
      "om": 738,
      "ता": 739,
      "ిన": 740,
      "ষ্": 741,
      "▁e": 742,
      "था": 743,
      "ీయ": 744,
      "স্": 745,
      "▁India": 746,
      "्ष": 747,
      "ండ": 748,
      "রে": 749,
      "ou": 750,
      "▁उ": 751,
      "▁ఇ": 752,
      "কে": 753,
      "▁to": 754,
      "ाल": 755,
      "ించ": 756,
      "াত": 757,
      "ly": 758,
      "ना": 759,
      "ంత": 760,
      "▁গ": 761,
      "▁h": 762,
      "▁ल": 763,
      "తి": 764,
      "▁য": 765,
      "▁T": 766,
      "▁श": 767,
      "ాన": 768,
      "াম": 769,
      "▁d": 770,
      "▁इ": 771,
      "ల్": 772,
      "▁হয়": 773,
      "ec": 774,
      "▁पर": 775,
      "ద్": 776,
      "লি": 777,
      "ur": 778,
      "▁वि": 779,
      "స్త": 780,
      "াব": 781,
      "▁re": 782,
      "▁को": 783,
      "ంగ": 784,
      "▁ভারতের": 785,
      "▁1": 786,
      "▁सं": 787,
      "ి.": 788,
      "▁রা": 789,
      "▁n": 790,
      "▁ए": 791,
      "▁ఆ": 792,
      "▁পর": 793,
      "▁g": 794,
      "▁हैं": 795,
      "▁త": 796,
      "্চ": 797,
      "il": 798,
      "्व": 799,
      "ులు": 800,
      "▁১": 801,
      "th": 802,
      "त्र": 803,
      "ింది.": 804,
      "ন্দ": 805,
      "▁A": 806,
      "▁ने": 807,
      "▁రా": 808,
      "িয়": 809,
      "ul": 810,
      "न्": 811,
      "రి": 812,
      "▁ত": 813,
      "ver": 814,
      "िय": 815,
      "▁ద": 816,
      "▁এক": 817,
      "ri": 818,
      "▁कर": 819,
      "▁న": 820,
      "▁সং": 821,
      "▁The": 822,
      "▁सा": 823,
      "రు": 824,
      "ষ্ট": 825,
      "ol": 826,
      "ने": 827,
      "▁బ": 828,
      "গু": 829,
      "▁C": 830,
      "ित": 831,
      "ంట": 832,
      "াস": 833,
      "ra": 834,
      "ड़": 835,
      "ము": 836,
      "িল": 837,
      "▁B": 838,
      "▁य": 839,
      "▁భారతదేశం": 840,
      "র্ব": 841,
      "ation": 842,
      "क्ष": 843,
      "▁వి": 844,
      "▁(": 845,
      "am": 846,
      "ति": 847,
      "ంలో": 848,
      "▁থ": 849,
      "▁S": 850,
      "▁च": 851,
      "ైన": 852,
      "▁সম": 853,
      "ve": 854,
      "▁राज": 855,
      "ন্ত": 856,
      "le": 857,
      "ास": 858,
      "▁సం": 859,
      "▁করে": 860,
      "ow": 861,
      "ेश": 862,
      "ాయి.": 863,
      "ছে": 864,
      "▁is": 865,
      "ाद": 866,
      "ూడ": 867,
      "ধ্য": 868,
      "ce": 869,
      "्ट": 870,
      "▁గ": 871,
      "ঙ্": 872,
      "s,": 873,
      "ుత": 874,
      "▁ভারতীয়": 875,
      "tion": 876,
      "िस": 877,
      "▁ఎ": 878,
      "▁সাল": 879,
      "▁Indian": 880,
      "ाष": 881,
      "ంగా": 882,
      "লে": 883,
      "▁by": 884,
      "▁इस": 885,
      "క్ష": 886,
      "াদ": 887,
      "ist": 888,
      "▁भारतीय": 889,
      "ారు": 890,
      "াপ": 891,
      "et": 892,
      "▁सम": 893,
      "ిత": 894,
      "▁ই": 895,
      "ast": 896,
      "▁१": 897,
      "▁శ": 898,
      "কার": 899,
      "▁2": 900,
      "▁हैं।": 901,
      "▁ఉన్న": 902,
      "ক্ত": 903,
      "ad": 904,
      "▁एक": 905,
      "టి": 906,
      "ড়": 907,
      "im": 908,
      "▁तथा": 909,
      "ార్": 910,
      "▁বা": 911,
      "▁th": 912,
      "ंग": 913,
      "్చ": 914,
      "ঙ্গ": 915,
      "us": 916,
      "▁अन": 917,
      "▁సా": 918,
      "ধান": 919,
      "ig": 920,
      "▁जा": 921,
      "ంది.": 922,
      "তা": 923,
      "▁r": 924,
      "▁हु": 925,
      "ధిక": 926,
      "▁১৯": 927,
      "est": 928,
      "పు": 929,
      "দ্": 930,
      "▁19": 931,
      "▁भी": 932,
      "వి": 933,
      "স্থ": 934,
      "id": 935,
      "▁हो": 936,
      "ం,": 937,
      "▁জন": 938,
      "op": 939,
      "▁హ": 940,
      "বং": 941,
      "ith": 942,
      "से": 943,
      "కి": 944,
      "ৃত": 945,
      "un": 946,
      "हा": 947,
      "త్": 948,
      "েকে": 949,
      "s.": 950,
      "्या": 951,
      "స్థ": 952,
      "্প": 953,
      "▁for": 954,
      "र्व": 955,
      "▁దేశ": 956,
      "গুলি": 957,
      "ir": 958,
      "▁नि": 959,
      "▁కూడ": 960,
      "▁অন": 961,
      "uc": 962,
      "न्द": 963,
      "▁ప్రా": 964,
      "▁এবং": 965,
      "'s": 966,
      "र्म": 967,
      "చ్చ": 968,
      "▁দেশ": 969,
      "▁be": 970,
      "कार": 971,
      "ట్ట": 972,
      "▁চ": 973,
      "▁M": 974,
      "रा": 975,
      "▁దేశం": 976,
      "▁থেকে": 977,
      "ate": 978,
      "िल": 979,
      "▁జాత": 980,
      "▁বিশ": 981,
      "▁con": 982,
      "स्": 983,
      "ంద": 984,
      "▁মধ্য": 985,
      "▁with": 986,
      "▁वर्": 987,
      "ష్ట": 988,
      "▁ফ": 989,
      "od": 990,
      "ते": 991,
      "ঞ্চ": 992,
      "▁was": 993,
      "ाम": 994,
      "▁భారతీయ": 995,
      "ত্ত": 996,
      "00": 997,
      "▁किया": 998,
      "▁రాజ": 999,
      "ীন": 1000,
      "ies": 1001,
      "ंत्र": 1002,
      "ంచ": 1003,
      "▁এই": 1004,
      "ment": 1005,
      "धिक": 1006,
      "తర": 1007,
      "▁ভারতে": 1008,
      "ut": 1009,
      "ती": 1010,
      "్ల": 1011,
      "▁উপ": 1012,
      "▁as": 1013,
      "री": 1014,
      "▁ఒ": 1015,
      "▁নি": 1016,
      "▁wh": 1017,
      "ीन": 1018,
      "▁రై": 1019,
      "▁হি": 1020,
      "▁P": 1021,
      "లి": 1022,
      "ংশ": 1023,
      "▁st": 1024,
      "▁तक": 1025,
      "ాబ": 1026,
      "জ্য": 1027,
      "em": 1028,
      "▁ध": 1029,
      "ారు.": 1030,
      "লা": 1031,
      "ter": 1032,
      "▁राज्य": 1033,
      "▁ఈ": 1034,
      "্যা": 1035,
      "ong": 1036,
      "ंध": 1037,
      "▁ని": 1038,
      "ষ্ট্র": 1039,
      "ang": 1040,
      "िण": 1041,
      "▁మొ": 1042,
      "ুর": 1043,
      "ain": 1044,
      "िम": 1045,
      "ద్ధ": 1046,
      "▁২": 1047,
      "rom": 1048,
      "के": 1049,
      "ల్ల": 1050,
      "▁একটি": 1051,
      "▁E": 1052,
      "ृत": 1053,
      "్రీ": 1054,
      "▁বিশ্ব": 1055,
      "▁it": 1056,
      "▁स्": 1057,
      "▁పే": 1058,
      "▁সা": 1059,
      "ical": 1060,
      "धान": 1061,
      "▁భా": 1062,
      "দ্ধ": 1063,
      "res": 1064,
      "ाषा": 1065,
      "ంత్ర": 1066,
      "বি": 1067,
      "▁ex": 1068,
      "▁देश": 1069,
      "ఖ్య": 1070,
      "▁খ": 1071,
      "ag": 1072,
      "▁साथ": 1073,
      "నే": 1074,
      "▁সালে": 1075,
      "▁di": 1076,
      "ूप": 1077,
      "న్ని": 1078,
      "স্ত": 1079,
      "her": 1080,
      "▁१९": 1081,
      "మైన": 1082,
      "▁হয়।": 1083,
      "▁an": 1084,
      "क्षिण": 1085,
      "ర్వ": 1086,
      "েছে": 1087,
      "oc": 1088,
      "स्त": 1089,
      "ాలు,": 1090,
      "▁র": 1091,
      "▁or": 1092,
      "ोग": 1093,
      "▁జాతీయ": 1094,
      "িন": 1095,
      "ab": 1096,
      "▁था": 1097,
      "▁భారతదేశ": 1098,
      "▁সর": 1099,
      "ich": 1100,
      "▁उत": 1101,
      "ణా": 1102,
      "ন্দ্র": 1103,
      "os": 1104,
      "▁जन": 1105,
      "యా": 1106,
      "ার্": 1107,
      "▁has": 1108,
      "▁सर": 1109,
      "వా": 1110,
      "মা": 1111,
      "gh": 1112,
      "का": 1113,
      "ింద": 1114,
      "▁পরি": 1115,
      "ial": 1116,
      "वा": 1117,
      "్యవ": 1118,
      "ঞ্চল": 1119,
      "ld": 1120,
      "हु": 1121,
      "▁ల": 1122,
      "প্র": 1123,
      "▁on": 1124,
      "ीं": 1125,
      "াক": 1126,
      "▁from": 1127,
      "्षे": 1128,
      "▁ము": 1129,
      "াধ": 1130,
      "ac": 1131,
      "▁अप": 1132,
      "▁స్": 1133,
      "▁ধ": 1134,
      "ill": 1135,
      "▁दक्षिण": 1136,
      "డి": 1137,
      "র্ত": 1138,
      "ort": 1139,
      "▁पू": 1140,
      "తో": 1141,
      "াচ": 1142,
      "um": 1143,
      "▁सरकार": 1144,
      "ద్ద": 1145,
      "ুক্ত": 1146,
      "▁H": 1147,
      "ओं": 1148,
      "నా": 1149,
      "▁প্রধান": 1150,
      "▁ar": 1151,
      "्तर": 1152,
      "పా": 1153,
      "মান": 1154,
      "up": 1155,
      "्षेत्र": 1156,
      "ష్ట్ర": 1157,
      "ির": 1158,
      "▁D": 1159,
      "▁क्षेत्र": 1160,
      "ుల": 1161,
      "▁বৃ": 1162,
      "ay": 1163,
      "▁गया": 1164,
      "▁లో": 1165,
      "দের": 1166,
      "▁G": 1167,
      "▁जिस": 1168,
      "ন্ত্র": 1169,
      "▁which": 1170,
      "द्": 1171,
      "ండి": 1172,
      "র্থ": 1173,
      "ern": 1174,
      "भा": 1175,
      "డు": 1176,
      "ীর": 1177,
      "ud": 1178,
      "्रे": 1179,
      "ధ్య": 1180,
      "োগ": 1181,
      "▁N": 1182,
      "▁बाद": 1183,
      "ులు,": 1184,
      "্রিক": 1185,
      "▁un": 1186,
      "▁यह": 1187,
      "్రా": 1188,
      "াগ": 1189,
      "▁mo": 1190,
      "▁साम": 1191,
      "▁ఏ": 1192,
      "▁অন্য": 1193,
      "ive": 1194,
      "▁ఉన్నాయి.": 1195,
      "▁মধ্যে": 1196,
      "▁are": 1197,
      "क्त": 1198,
      "▁ఒక": 1199,
      "▁সরকার": 1200,
      "con": 1201,
      "ढ़": 1202,
      "▁భారతదేశంలో": 1203,
      "তে": 1204,
      "ity": 1205,
      "ली": 1206,
      "▁మార్": 1207,
      "বস্থ": 1208,
      "ot": 1209,
      "िन्द": 1210,
      "▁రాష్ట్ర": 1211,
      "াবে": 1212,
      "ure": 1213,
      "▁भाषा": 1214,
      "▁స్థ": 1215,
      "ূর্ব": 1216,
      "▁par": 1217,
      "▁विश": 1218,
      "డ్": 1219,
      "▁রাষ্ট্র": 1220,
      "ak": 1221,
      "ंद": 1222,
      "నికి": 1223,
      "তম": 1224,
      "rit": 1225,
      "नी": 1226,
      "మా": 1227,
      "মি": 1228,
      "ub": 1229,
      "बसे": 1230,
      "ిన్న": 1231,
      "্রে": 1232,
      "ult": 1233,
      "ां": 1234,
      "ీ,": 1235,
      "সং": 1236,
      "ुख": 1237,
      "ెండ": 1238,
      "াহ": 1239,
      "▁20": 1240,
      "्च": 1241,
      "్యవస్థ": 1242,
      "ান্ত": 1243,
      "ant": 1244,
      "▁२": 1245,
      "েত": 1246,
      "▁inc": 1247,
      "▁सबसे": 1248,
      "▁ఉంది.": 1249,
      "্থ": 1250,
      "▁its": 1251,
      "▁कार": 1252,
      "▁కా": 1253,
      "▁সঙ্গ": 1254,
      "end": 1255,
      "▁बहु": 1256,
      "▁మార్గ": 1257,
      "▁হল": 1258,
      "ere": 1259,
      "कर": 1260,
      "▁వచ్చ": 1261,
      "মে": 1262,
      "▁India's": 1263,
      "ले": 1264,
      "▁స్వ": 1265,
      "০০": 1266,
      "a,": 1267,
      "▁थ": 1268,
      "▁హింద": 1269,
      "▁প্রতি": 1270,
      "li": 1271,
      "▁प्रा": 1272,
      "ంబ": 1273,
      "▁মহ": 1274,
      "▁com": 1275,
      "▁हिन्द": 1276,
      "దిన": 1277,
      "▁স্ব": 1278,
      "arg": 1279,
      "ंग्रे": 1280,
      "ధాన": 1281,
      "বে": 1282,
      "oun": 1283,
      "ाज्य": 1284,
      "రా": 1285,
      "্রি": 1286,
      "▁al": 1287,
      "ाष्ट": 1288,
      "ి,": 1289,
      "▁বৈ": 1290,
      "du": 1291,
      "ाष्ट्र": 1292,
      "్రమ": 1293,
      "তিক": 1294,
      "el": 1295,
      "िका": 1296,
      "▁అధిక": 1297,
      "দি": 1298,
      "over": 1299,
      "▁पा": 1300,
      "▁చె": 1301,
      "াষ": 1302,
      "▁v": 1303,
      "की": 1304,
      "▁మత": 1305,
      "না": 1306,
      "▁were": 1307,
      "द्ध": 1308,
      "క్షి": 1309,
      "▁কে": 1310,
      "ary": 1311,
      "बंध": 1312,
      "గు": 1313,
      "▁করে।": 1314,
      "ated": 1315,
      "मा": 1316,
      "ట్": 1317,
      "▁ব্য": 1318,
      "iv": 1319,
      "ला": 1320,
      "త్య": 1321,
      "▁রাজ্য": 1322,
      "ous": 1323,
      "िए": 1324,
      "పంచ": 1325,
      "),": 1326,
      "ear": 1327,
      "▁फ": 1328,
      "భా": 1329,
      "ছিল": 1330,
      "▁cent": 1331,
      "▁अधिक": 1332,
      "ానికి": 1333,
      "নের": 1334,
      "▁de": 1335,
      "▁दो": 1336,
      "ాల్": 1337,
      "ন্ন": 1338,
      "▁pr": 1339,
      "▁है,": 1340,
      "్రి": 1341,
      "ভি": 1342,
      "ch": 1343,
      "प्त": 1344,
      "▁ఎన్న": 1345,
      "মাণ": 1346,
      "ism": 1347,
      "र्थ": 1348,
      "▁కో": 1349,
      "য়ে": 1350,
      "ans": 1351,
      "ुर": 1352,
      "▁కూడా": 1353,
      "সে": 1354,
      "es,": 1355,
      "▁धर्म": 1356,
      "▁పార": 1357,
      "▁কেন্দ্র": 1358,
      "mp": 1359,
      "▁वर्ष": 1360,
      "▁పేరు": 1361,
      "ক্ষি": 1362,
      "ough": 1363,
      "▁शास": 1364,
      "▁ప్రధాన": 1365,
      "াই": 1366,
      "y,": 1367,
      "देश": 1368,
      "▁ప్రపంచ": 1369,
      "▁অঞ্চল": 1370,
      "▁As": 1371,
      "रे": 1372,
      "▁ప్రాంత": 1373,
      "▁কো": 1374,
      "▁wor": 1375,
      "सा": 1376,
      "▁రైలు": 1377,
      "▁ভাষ": 1378,
      "ect": 1379,
      "िन": 1380,
      "కర": 1381,
      "খ্যা": 1382,
      "fter": 1383,
      "▁रूप": 1384,
      "కృ": 1385,
      "গত": 1386,
      "se": 1387,
      "▁स्थ": 1388,
      "క్కు": 1389,
      "চিত": 1390,
      "▁ch": 1391,
      "दी": 1392,
      "తం": 1393,
      "ত্তর": 1394,
      "▁cont": 1395,
      "म्": 1396,
      "త్వ": 1397,
      "যোগ": 1398,
      "▁int": 1399,
      "ियों": 1400,
      "దాయ": 1401,
      "র্ণ": 1402,
      "▁part": 1403,
      "▁घ": 1404,
      "ప్": 1405,
      "ষ্ঠ": 1406,
      "▁sp": 1407,
      "▁जो": 1408,
      "సి": 1409,
      "সি": 1410,
      "our": 1411,
      "▁विश्व": 1412,
      "ాలలో": 1413,
      "ূল": 1414,
      "outh": 1415,
      "जा": 1416,
      "ుక": 1417,
      "োট": 1418,
      "▁Hin": 1419,
      "▁नाम": 1420,
      "▁కే": 1421,
      "▁ল": 1422,
      "▁co": 1423,
      "▁पूर्व": 1424,
      "▁క్రీ": 1425,
      "▁ক্ষ": 1426,
      "age": 1427,
      "▁राष्ट्र": 1428,
      "▁చే": 1429,
      "▁জাত": 1430,
      "ally": 1431,
      "ड़ा": 1432,
      "▁దక్షి": 1433,
      "▁সর্ব": 1434,
      "ame": 1435,
      "्प": 1436,
      "▁పా": 1437,
      "▁সাম": 1438,
      "conom": 1439,
      "▁अनु": 1440,
      "▁పార్ట": 1441,
      "▁স্থ": 1442,
      "og": 1443,
      "▁चु": 1444,
      "▁మధ్య": 1445,
      "ক্ষিণ": 1446,
      "overn": 1447,
      "▁हुआ": 1448,
      "▁రాజ్య": 1449,
      "গুলির": 1450,
      "▁U": 1451,
      "▁हुई": 1452,
      "▁వ్యవస్థ": 1453,
      "ণত": 1454,
      "av": 1455,
      "कि": 1456,
      "▁శా": 1457,
      "তাংশ": 1458,
      "ance": 1459,
      "मान": 1460,
      "ంప": 1461,
      "নি": 1462,
      "ers": 1463,
      "में": 1464,
      "క్కువ": 1465,
      "ভূ": 1466,
      "i,": 1467,
      "वि": 1468,
      "టు": 1469,
      "র্ম": 1470,
      "if": 1471,
      "सार": 1472,
      "వర": 1473,
      "ল্": 1474,
      "low": 1475,
      "ाग": 1476,
      "ాన్": 1477,
      "াট": 1478,
      "uring": 1479,
      "ैन": 1480,
      "ారం": 1481,
      "াড়": 1482,
      "▁bec": 1483,
      "ोड़": 1484,
      "ించింది.": 1485,
      "িতে": 1486,
      "ct": 1487,
      "००": 1488,
      "ించిన": 1489,
      "ীপ": 1490,
      "ish": 1491,
      "▁जाता": 1492,
      "ున్న": 1493,
      "েছে।": 1494,
      "ution": 1495,
      "▁स्व": 1496,
      "▁అయ": 1497,
      "▁ট": 1498,
      "▁W": 1499,
      "ध्य": 1500,
      "▁ఆర్": 1501,
      "▁এর": 1502,
      "▁econom": 1503,
      "स्क": 1504,
      "▁ఇతర": 1505,
      "▁নাম": 1506,
      "▁form": 1507,
      "ारी": 1508,
      "▁కాల": 1509,
      "▁শতাংশ": 1510,
      "▁into": 1511,
      "▁कु": 1512,
      "▁జనా": 1513,
      "জন": 1514,
      "▁larg": 1515,
      "▁दिया": 1516,
      "▁దేశంలో": 1517,
      "দেশ": 1518,
      "aj": 1519,
      "▁दे": 1520,
      "▁పరి": 1521,
      "ন।": 1522,
      "any": 1523,
      "▁भू": 1524,
      "▁ప్రజ": 1525,
      "ভাবে": 1526,
      "ass": 1527,
      "▁मान": 1528,
      "▁భాష": 1529,
      "স্ক": 1530,
      "illion": 1531,
      "▁शासन": 1532,
      "▁మొద": 1533,
      "স্ট": 1534,
      "overnment": 1535,
      "▁सि": 1536,
      "▁హిందూ": 1537,
      "াধীন": 1538,
      "▁R": 1539,
      "ंद्र": 1540,
      "తా": 1541,
      "ান্": 1542,
      "▁Ch": 1543,
      "नाव": 1544,
      "దు": 1545,
      "ীত": 1546,
      "▁India,": 1547,
      "यु": 1548,
      "లు,": 1549,
      "ুপ": 1550,
      "▁at": 1551,
      "रिक": 1552,
      "ష్": 1553,
      "ে।": 1554,
      "▁reg": 1555,
      "ष्": 1556,
      "స్కృ": 1557,
      "▁অর্থ": 1558,
      "ap": 1559,
      "हीं": 1560,
      "ాత్ర": 1561,
      "▁জাতীয়": 1562,
      "angu": 1563,
      "ाने": 1564,
      "ెద్ద": 1565,
      "▁দু": 1566,
      "e,": 1567,
      "ाली": 1568,
      "్యం": 1569,
      "▁দ্ব": 1570,
      "ore": 1571,
      "ोल": 1572,
      "▁కు": 1573,
      "▁বিশ্বের": 1574,
      "ress": 1575,
      "▁ई": 1576,
      "▁పర": 1577,
      "▁বৃহ": 1578,
      "stit": 1579,
      "▁ड": 1580,
      "▁పు": 1581,
      "▁যু": 1582,
      "▁k": 1583,
      "▁उप": 1584,
      "▁పార్టీ": 1585,
      "▁হয়ে": 1586,
      "▁ad": 1587,
      "▁पार": 1588,
      "▁రెండ": 1589,
      "খ্য": 1590,
      "▁cl": 1591,
      "▁बढ़": 1592,
      "▁వచ్చింది.": 1593,
      "তার": 1594,
      "▁centur": 1595,
      "▁यु": 1596,
      "▁సభ": 1597,
      "পি": 1598,
      "▁gr": 1599,
      "▁राज्यों": 1600,
      "▁సి": 1601,
      "যুক্ত": 1602,
      "▁le": 1603,
      "ँच": 1604,
      "ంద్ర": 1605,
      "াজ": 1606,
      "▁pl": 1607,
      "ंड": 1608,
      "క్క": 1609,
      "ুত": 1610,
      "▁se": 1611,
      "दान": 1612,
      "గర": 1613,
      "ুষ": 1614,
      "▁sub": 1615,
      "मुख": 1616,
      "గి": 1617,
      "েল": 1618,
      "ber": 1619,
      "्म": 1620,
      "దా": 1621,
      "ৈতিক": 1622,
      "inist": 1623,
      "्री": 1624,
      "పాల": 1625,
      "▁ঘ": 1626,
      "me": 1627,
      "▁छ": 1628,
      "ప్ప": 1629,
      "▁ড": 1630,
      "ry": 1631,
      "భుత": 1632,
      "▁উত্তর": 1633,
      "ts": 1634,
      "▁अन्य": 1635,
      "భుత్వ": 1636,
      "▁উল্": 1637,
      "▁J": 1638,
      "▁उत्तर": 1639,
      "మీ": 1640,
      "▁উৎ": 1641,
      "▁y": 1642,
      "▁केंद्र": 1643,
      "రిగ": 1644,
      "▁কর": 1645,
      "▁201": 1646,
      "▁थी": 1647,
      "రువ": 1648,
      "▁ক্র": 1649,
      "▁ag": 1650,
      "▁प्रमुख": 1651,
      "రువాత": 1652,
      "▁তার": 1653,
      "▁mar": 1654,
      "▁बन": 1655,
      "వాణా": 1656,
      "▁পা": 1657,
      "▁per": 1658,
      "▁मह": 1659,
      "ాలను": 1660,
      "চ্চ": 1661,
      "▁pop": 1662,
      "▁रह": 1663,
      "ుంది.": 1664,
      "ত্য": 1665,
      "cc": 1666,
      "▁लिए": 1667,
      "ుకు": 1668,
      "ত্তম": 1669,
      "ian": 1670,
      "▁समय": 1671,
      "్‌": 1672,
      "বাহ": 1673,
      "ire": 1674,
      "चीन": 1675,
      "్రె": 1676,
      "রিক": 1677,
      "mer": 1678,
      "जी": 1679,
      "▁అతి": 1680,
      "া,": 1681,
      "▁el": 1682,
      "टे": 1683,
      "▁అయిన": 1684,
      "্দ": 1685,
      "▁government": 1686,
      "शिया": 1687,
      "▁ఉంట": 1688,
      "▁অধ": 1689,
      "▁langu": 1690,
      "श्च": 1691,
      "▁ఉత్": 1692,
      "▁উল্লে": 1693,
      "▁rel": 1694,
      "ीप": 1695,
      "▁క్రీడ": 1696,
      "▁দক্ষিণ": 1697,
      "ence": 1698,
      "▁बना": 1699,
      "▁తరువాత": 1700,
      "▁প্রথ": 1701,
      "ener": 1702,
      "▁मिल": 1703,
      "▁ద్వ": 1704,
      "▁সঙ্গে": 1705,
      "lud": 1706,
      "▁संघ": 1707,
      "▁పట్ట": 1708,
      "▁১৯৯": 1709,
      "port": 1710,
      "▁हैं,": 1711,
      "▁ప్రభుత్వ": 1712,
      "-এ": 1713,
      "qu": 1714,
      "काल": 1715,
      "▁మార్గాలు": 1716,
      "কাল": 1717,
      "reas": 1718,
      "ड़ी": 1719,
      "▁వా": 1720,
      "গ্র": 1721,
      "▁K": 1722,
      "द्य": 1723,
      "▁స్థాన": 1724,
      "তিহ": 1725,
      "▁Hindu": 1726,
      "वं": 1727,
      "ం.": 1728,
      "বর্ত": 1729,
      "▁art": 1730,
      "श्चिम": 1731,
      "ంక": 1732,
      "রণ": 1733,
      "▁dec": 1734,
      "हर": 1735,
      "ందిన": 1736,
      "শিয়": 1737,
      "▁pri": 1738,
      "िये": 1739,
      "ంగ్రె": 1740,
      "শ্চ": 1741,
      "▁popul": 1742,
      "िस्त": 1743,
      "కీయ": 1744,
      "াচীন": 1745,
      "▁region": 1746,
      "िस्तान": 1747,
      "గ్": 1748,
      "ুন": 1749,
      "▁world": 1750,
      "ोक": 1751,
      "టిక": 1752,
      "▁বৃহত্তম": 1753,
      "ave": 1754,
      "्यव": 1755,
      "ణం": 1756,
      "▁সালের": 1757,
      "ates": 1758,
      "▁ख": 1759,
      "త్ర": 1760,
      "▁হার": 1761,
      "der": 1762,
      "▁अम": 1763,
      "బడ": 1764,
      "জাত": 1765,
      "irst": 1766,
      "▁करने": 1767,
      "లలో": 1768,
      "পূর্ব": 1769,
      "ome": 1770,
      "▁था।": 1771,
      "లా": 1772,
      "বল": 1773,
      "reat": 1774,
      "▁दश": 1775,
      "స్త్ర": 1776,
      "বাস": 1777,
      "ther": 1778,
      "▁द्व": 1779,
      "ాబ్": 1780,
      "শ্চি": 1781,
      "▁V": 1782,
      "▁देशों": 1783,
      "ారి": 1784,
      "ান্য": 1785,
      "▁Ind": 1786,
      "▁पाक": 1787,
      "ిల్ల": 1788,
      "ারণ": 1789,
      "▁comp": 1790,
      "▁रहा": 1791,
      "ిళ": 1792,
      "ার্ক": 1793,
      "▁first": 1794,
      "▁लग": 1795,
      "ుకో": 1796,
      "ুস": 1797,
      "▁sy": 1798,
      "▁संस्क": 1799,
      "్రదాయ": 1800,
      "েট": 1801,
      "▁tra": 1802,
      "▁हिन्दी": 1803,
      "▁ట": 1804,
      "্ম": 1805,
      "▁year": 1806,
      "तंत्र": 1807,
      "▁ను": 1808,
      "্র্য": 1809,
      "all": 1810,
      "ब्": 1811,
      "▁య": 1812,
      "▁অন্যান্য": 1813,
      "dition": 1814,
      "ारा": 1815,
      "▁అనే": 1816,
      "▁অর্থন": 1817,
      "ection": 1818,
      "ीच": 1819,
      "▁ఇది": 1820,
      "▁উল্লেখ": 1821,
      "oth": 1822,
      "▁या": 1823,
      "▁ఎక్కువ": 1824,
      "▁জনসং": 1825,
      "red": 1826,
      "▁196": 1827,
      "▁ఎన్నో": 1828,
      "▁দে": 1829,
      "uch": 1830,
      "▁अंग्रे": 1831,
      "▁ఏర్": 1832,
      "▁পূর্ব": 1833,
      "ved": 1834,
      "▁अनुसार": 1835,
      "▁కలి": 1836,
      "▁প্রাচীন": 1837,
      "▁end": 1838,
      "▁आध": 1839,
      "▁కొ": 1840,
      "▁বছ": 1841,
      "▁includ": 1842,
      "▁इसके": 1843,
      "▁కాంగ్రె": 1844,
      "▁বিচ": 1845,
      "▁sh": 1846,
      "▁एशिया": 1847,
      "▁కేంద్ర": 1848,
      "▁বিজ": 1849,
      "ff": 1850,
      "▁कई": 1851,
      "▁జరిగ": 1852,
      "▁ভূ": 1853,
      "gan": 1854,
      "▁कारण": 1855,
      "▁జనాభా": 1856,
      "▁শাস": 1857,
      "igh": 1858,
      "▁चुनाव": 1859,
      "▁దక్షిణ": 1860,
      "▁সহ": 1861,
      "mpire": 1862,
      "▁नहीं": 1863,
      "▁పాల": 1864,
      "▁সি": 1865,
      "ok": 1866,
      "▁निर्म": 1867,
      "▁పెద్ద": 1868,
      "▁সম্প": 1869,
      "odern": 1870,
      "▁पह": 1871,
      "▁బహ": 1872,
      "▁হিন্দ": 1873,
      "so": 1874,
      "▁पाकिस्तान": 1875,
      "▁ముఖ్య": 1876,
      "ওয়": 1877,
      "stem": 1878,
      "▁मध्य": 1879,
      "▁రవాణా": 1880,
      "দী": 1881,
      "stitution": 1882,
      "▁मै": 1883,
      "▁వంట": 1884,
      "ন্ধ": 1885,
      "used": 1886,
      "▁विक": 1887,
      "▁సంగ": 1888,
      "পর": 1889,
      "we": 1890,
      "▁हुए": 1891,
      "▁సాధ": 1892,
      "ভাগ": 1893,
      "▁India.": 1894,
      "▁होता": 1895,
      "হু": 1896,
      "▁became": 1897,
      "ंत्री": 1898,
      "ం:": 1899,
      "াধিক": 1900,
      "▁during": 1901,
      "क्षा": 1902,
      "ంగ్ల": 1903,
      "ারে": 1904,
      "▁over": 1905,
      "ज़": 1906,
      "ండు": 1907,
      "িয়ে": 1908,
      "▁system": 1909,
      "तिक": 1910,
      "కాల": 1911,
      "িল্প": 1912,
      "1,": 1913,
      "नों": 1914,
      "క్రమ": 1915,
      "ৃতি": 1916,
      "ajor": 1917,
      "पा": 1918,
      "డిప": 1919,
      "োল": 1920,
      "dh": 1921,
      "राज्य": 1922,
      "త్యధిక": 1923,
      "▁অবস্থ": 1924,
      "estern": 1925,
      "विधान": 1926,
      "దర": 1927,
      "▁এশিয়": 1928,
      "har": 1929,
      "सी": 1930,
      "ల్ప": 1931,
      "▁গঠ": 1932,
      "ign": 1933,
      "स्था": 1934,
      "సు": 1935,
      "▁পশ্চি": 1936,
      "ord": 1937,
      "ाण": 1938,
      "స్తుత": 1939,
      "▁ফলে": 1940,
      "pp": 1941,
      "िन्": 1942,
      "ా,": 1943,
      "▁বে": 1944,
      "sp": 1945,
      "िव": 1946,
      "ాక": 1947,
      "▁সংস্ক": 1948,
      "ted": 1949,
      "िश": 1950,
      "ావర": 1951,
      "▁স্বাধীন": 1952,
      "▁5": 1953,
      "्राज्य": 1954,
      "ాలో": 1955,
      "▁২০০": 1956,
      "▁ri": 1957,
      "▁ऊ": 1958,
      "ాల్లో": 1959,
      ")।": 1960,
      "▁but": 1961,
      "▁करोड़": 1962,
      "ిమ": 1963,
      "ক্র": 1964,
      "▁been": 1965,
      "▁गया।": 1966,
      "ిత్ర": 1967,
      "ক্ষম": 1968,
      "▁had": 1969,
      "▁जल": 1970,
      "ీన": 1971,
      "ছে।": 1972,
      "▁have": 1973,
      "▁जी": 1974,
      "ీర్": 1975,
      "ডি": 1976,
      "▁ne": 1977,
      "▁दशक": 1978,
      "ే.": 1979,
      "য়ন": 1980,
      "ational": 1981,
      "▁न्या": 1982,
      "▁అత్యధిక": 1983,
      "রো": 1984,
      "es.": 1985,
      "▁प्रति": 1986,
      "▁అధికార": 1987,
      "াশ": 1988,
      "ia": 1989,
      "▁प्राचीन": 1990,
      "▁ఆర్ధిక": 1991,
      "াড়া": 1992,
      "inister": 1993,
      "▁भाषाओं": 1994,
      "▁ఉత్తర": 1995,
      "াদেশ": 1996,
      "ric": 1997,
      "▁भूम": 1998,
      "▁ఏర్ప": 1999,
      "ান্ত্রিক": 2000,
      "ural": 2001,
      "▁मु": 2002,
      "▁కాలంలో": 2003,
      "ায়।": 2004,
      "▁3": 2005,
      "▁लोक": 2006,
      "▁గల": 2007,
      "িত।": 2008,
      "▁F": 2009,
      "▁सैन": 2010,
      "▁చిన్న": 2011,
      "ীল": 2012,
      "▁also": 2013,
      "▁साम्राज्य": 2014,
      "▁దేశాల": 2015,
      "ুট": 2016,
      "▁me": 2017,
      "▁सेना": 2018,
      "▁పాకి": 2019,
      "েই": 2020,
      "▁more": 2021,
      "▁हाल": 2022,
      "▁ప్రతి": 2023,
      "েত্রে": 2024,
      "▁relig": 2025,
      "▁ही": 2026,
      "▁ప్రాచ": 2027,
      "্জ": 2028,
      "▁sup": 2029,
      "ंप": 2030,
      "▁మహ": 2031,
      "০১": 2032,
      "atic": 2033,
      "ंग्रेस": 2034,
      "▁రాజకీయ": 2035,
      "▁ইউ": 2036,
      "ide": 2037,
      "खा": 2038,
      "▁వే": 2039,
      "▁দশ": 2040,
      "ongress": 2041,
      "ख्या": 2042,
      "▁శాస్త్ర": 2043,
      "▁দেশের": 2044,
      "ound": 2045,
      "त्य": 2046,
      "▁సిం": 2047,
      "▁বছর": 2048,
      "ower": 2049,
      "माण": 2050,
      "▁సంస్కృ": 2051,
      "▁মা": 2052,
      "ral": 2053,
      "योग": 2054,
      "▁సంగీ": 2055,
      "▁যদি": 2056,
      "wo": 2057,
      "रब": 2058,
      "▁సిని": 2059,
      "▁স্থাপ": 2060,
      "y.": 2061,
      "र्ण": 2062,
      "000": 2063,
      "-এর": 2064,
      "▁7": 2065,
      "र्ष": 2066,
      "ంధ": 2067,
      "ঁচ": 2068,
      "▁South": 2069,
      "शास": 2070,
      "ంతో": 2071,
      "গুল": 2072,
      "▁after": 2073,
      "सं": 2074,
      "కాలు": 2075,
      "চিত্র্য": 2076,
      "▁cons": 2077,
      "सद": 2078,
      "కొ": 2079,
      "ঞ্জ": 2080,
      "▁gener": 2081,
      "ियाँ": 2082,
      "జ్య": 2083,
      "ণি": 2084,
      "▁inf": 2085,
      "्यवस्था": 2086,
      "ట్ల": 2087,
      "দ্ধি": 2088,
      "▁increas": 2089,
      "▁ओ": 2090,
      "డ్డ": 2091,
      "ন্তর্": 2092,
      "▁lat": 2093,
      "▁किया।": 2094,
      "ఢిల్ల": 2095,
      "বার": 2096,
      "▁long": 2097,
      "▁गण": 2098,
      "ణి": 2099,
      "ম্প": 2100,
      "▁million": 2101,
      "▁गु": 2102,
      "తంత్ర": 2103,
      "মাণু": 2104,
      "▁minister": 2105,
      "▁चुनावों": 2106,
      "తిక": 2107,
      "যোগ্য": 2108,
      "▁modern": 2109,
      "▁नेत": 2110,
      "దం": 2111,
      "র্ষ": 2112,
      "▁most": 2113,
      "▁पश्चिम": 2114,
      "దార": 2115,
      "র্বাচ": 2116,
      "▁num": 2117,
      "▁पु": 2118,
      "ద్ర": 2119,
      "াকে": 2120,
      "▁pe": 2121,
      "▁पार्ट": 2122,
      "ద్ధి": 2123,
      "ারি": 2124,
      "▁pol": 2125,
      "▁प्रदेश": 2126,
      "ధి": 2127,
      "ার্কিন": 2128,
      "▁such": 2129,
      "▁प्रधान": 2130,
      "పతి": 2131,
      "িকে": 2132,
      "▁that": 2133,
      "▁बीच": 2134,
      "ప్పటిక": 2135,
      "ী।": 2136,
      "e.": 2137,
      "▁मैदान": 2138,
      "ముఖ": 2139,
      "ীতি": 2140,
      "hi": 2141,
      "▁सक": 2142,
      "యో": 2143,
      "েশন": 2144,
      "imal": 2145,
      "▁संबंध": 2146,
      "రో": 2147,
      "্বীপ": 2148,
      "mong": 2149,
      "▁संविधान": 2150,
      "లకు": 2151,
      "্বে": 2152,
      "orth": 2153,
      "▁स्वतंत्र": 2154,
      "లను": 2155,
      "▁৫": 2156,
      "pt": 2157,
      "ंगा": 2158,
      "ల్వ": 2159,
      "▁অব": 2160,
      "tin": 2161,
      "ई।": 2162,
      "విధ": 2163,
      "▁অধিক": 2164,
      "▁\"": 2165,
      "क्ति": 2166,
      "సింది.": 2167,
      "▁উল্লেখযোগ্য": 2168,
      "▁4": 2169,
      "च्च": 2170,
      "ాబా": 2171,
      "▁এছ": 2172,
      "▁L": 2173,
      "टी": 2174,
      "ీ;": 2175,
      "▁খ্রি": 2176,
      "▁he": 2177,
      "ण्": 2178,
      "ు.": 2179,
      "▁দেশে": 2180,
      "▁im": 2181,
      "द्योग": 2182,
      "ెంగ": 2183,
      "▁ধর্ম": 2184,
      "▁200": 2185,
      "धिकार": 2186,
      "ెల": 2187,
      "▁নির্বাচ": 2188,
      "▁both": 2189,
      "पू": 2190,
      "ెలు": 2191,
      "▁পুর": 2192,
      "▁ca": 2193,
      "बर": 2194,
      "ౌకర": 2195,
      "▁পরমাণু": 2196,
      "▁prime": 2197,
      "मंत्री": 2198,
      "్మ": 2199,
      "▁প্রথম": 2200,
      "▁rul": 2201,
      "र्थिक": 2202,
      "్యాయ": 2203,
      "▁বিস্ত": 2204,
      "▁two": 2205,
      "ाँ": 2206,
      "▁যদিও": 2207,
      "▁tradition": 2208,
      "ाय": 2209,
      "▁8": 2210,
      "▁শিল্প": 2211,
      "CE": 2212,
      "ृष": 2213,
      "▁–": 2214,
      "ক্ষণ": 2215,
      "ban": 2216,
      "ॉंग्रेस": 2217,
      "▁ఉప": 2218,
      "গর": 2219,
      "enc": 2220,
      "्यों": 2221,
      "▁కార": 2222,
      "নে": 2223,
      "ens": 2224,
      "▁జన": 2225,
      "প্রিয়": 2226,
      "etwe": 2227,
      "▁దేశంలోని": 2228,
      "ব্য": 2229,
      "etween": 2230,
      "▁अभ": 2231,
      "▁నడిప": 2232,
      "বস্থা": 2233,
      "istan": 2234,
      "▁आर्थिक": 2235,
      "▁పో": 2236,
      "ভূমি": 2237,
      "ition": 2238,
      "▁उन": 2239,
      "▁పట్టణ": 2240,
      "র্য": 2241,
      "o-": 2242,
      "▁क्र": 2243,
      "▁ప్రముఖ": 2244,
      "র্ধ": 2245,
      "ose": 2246,
      "▁कार्य": 2247,
      "▁ప్రస్తుత": 2248,
      "লার": 2249,
      "ren": 2250,
      "▁जनजा": 2251,
      "▁ప్రాంతాలు": 2252,
      "াত্র": 2253,
      "ust": 2254,
      "▁जाती": 2255,
      "▁బెంగ": 2256,
      "ানি": 2257,
      "urban": 2258,
      "▁थी।": 2259,
      "▁బ్రి": 2260,
      "ায়ু": 2261,
      "▁195": 2262,
      "▁द्वारा": 2263,
      "▁బహు": 2264,
      "ারা": 2265,
      "▁BCE": 2266,
      "▁निर्माण": 2267,
      "▁భారత్": 2268,
      "ালয়": 2269,
      "▁Congress": 2270,
      "▁नेतृत": 2271,
      "▁మూడ": 2272,
      "িব": 2273,
      "▁Empire": 2274,
      "▁ब्र": 2275,
      "▁మొదల": 2276,
      "িষ্ট": 2277,
      "▁cast": 2278,
      "▁बहुत": 2279,
      "▁రహ": 2280,
      "ুটবল": 2281,
      "▁class": 2282,
      "▁मा": 2283,
      "▁రెండు": 2284,
      "ূর্ণ": 2285,
      "▁large": 2286,
      "▁मुख": 2287,
      "▁వర్": 2288,
      "েষ": 2289,
      "▁major": 2290,
      "▁विस्त": 2291,
      "▁వివిధ": 2292,
      "্রা": 2293,
      "▁sc": 2294,
      "▁शुर": 2295,
      "▁సౌకర": 2296,
      "্রিকেট": 2297,
      "▁ser": 2298,
      "▁सैन्य": 2299,
      "▁సామ": 2300,
      "▁লা": 2301,
      "▁soc": 2302,
      "▁स्था": 2303,
      "▁సింధ": 2304,
      "▁৬": 2305,
      "▁years": 2306,
      "▁स्थित": 2307,
      "ంది": 2308,
      "▁অর্থনৈতিক": 2309,
      "ament": 2310,
      "णा": 2311,
      "ంత్రి": 2312,
      "▁উপক": 2313,
      "ep": 2314,
      "तर": 2315,
      "గలు": 2316,
      "▁এছাড়া": 2317,
      "eng": 2318,
      "त्": 2319,
      "గా,": 2320,
      "▁ক্রিকেট": 2321,
      "hed": 2322,
      "प्र": 2323,
      "చే": 2324,
      "▁করতে": 2325,
      "ince": 2326,
      "माणु": 2327,
      "టీ": 2328,
      "▁ক্ষেত্রে": 2329,
      "isation": 2330,
      "रो": 2331,
      "తాబ్": 2332,
      "▁গ্র": 2333,
      "lic": 2334,
      "वाद": 2335,
      "త్తం": 2336,
      "▁জনপ্রিয়": 2337,
      "lear": 2338,
      "ालय": 2339,
      "థిక": 2340,
      "▁পর্ব": 2341,
      "rough": 2342,
      "ील": 2343,
      "దారులు,": 2344,
      "▁পশ্চিম": 2345,
      "ritish": 2346,
      "ीस": 2347,
      "నాలు": 2348,
      "▁ফুটবল": 2349,
      "uclear": 2350,
      "ून": 2351,
      "నిక": 2352,
      "▁বাহ": 2353,
      "uddh": 2354,
      "ेष": 2355,
      "నుక": 2356,
      "▁মার্কিন": 2357,
      "ulture": 2358,
      "ोष": 2359,
      "భి": 2360,
      "▁যা": 2361,
      "▁O": 2362,
      "మిళ": 2363,
      "▁শত": 2364,
      "▁urban": 2365,
      "▁अल": 2366,
      "మ్య": 2367,
      "▁সংস": 2368,
      "▁अव": 2369,
      "ముద్ర": 2370,
      "▁সাহ": 2371,
      "▁202": 2372,
      "▁कॉंग्रेस": 2373,
      "రం": 2374,
      "▁হিসে": 2375,
      "▁British": 2376,
      "▁गणराज्य": 2377,
      "రిత్ర": 2378,
      "▁হিন্দু": 2379,
      "▁Buddh": 2380,
      "▁जनजाति": 2381,
      "రిహ": 2382,
      "▁২০১": 2383,
      "▁Un": 2384,
      "▁न्याया": 2385,
      "రిహద్ద": 2386,
      "ংগ": 2387,
      "▁coun": 2388,
      "▁पर्व": 2389,
      "ర్వహ": 2390,
      "ংগ্রে": 2391,
      "▁election": 2392,
      "▁परमाणु": 2393,
      "లతో": 2394,
      "ঐতিহ": 2395,
      "▁exp": 2396,
      "▁प्राप्त": 2397,
      "ల్వే": 2398,
      "ক্তি": 2399,
      "▁grow": 2400,
      "▁बा": 2401,
      "ళ్ల": 2402,
      "ক্ষর": 2403,
      "▁language": 2404,
      "▁मुख्य": 2405,
      "వచ్చ": 2406,
      "ক্ষা": 2407,
      "▁not": 2408,
      "▁में,": 2409,
      "వడ": 2410,
      "খা": 2411,
      "▁off": 2412,
      "▁राष्ट्रीय": 2413,
      "వత్": 2414,
      "ণিজ্য": 2415,
      "▁population": 2416,
      "▁सद": 2417,
      "వల": 2418,
      "তমাল": 2419,
      "▁res": 2420,
      "▁सह": 2421,
      "వు": 2422,
      "দ্বীপ": 2423,
      "▁this": 2424,
      "▁संग": 2425,
      "షు": 2426,
      "পু": 2427,
      "▁their": 2428,
      "▁स्थान": 2429,
      "స్య": 2430,
      "পে": 2431,
      "▁under": 2432,
      "▁हुआ।": 2433,
      "సియా": 2434,
      "ভাব": 2435,
      "6%": 2436,
      "ण्ड": 2437,
      "స్వా": 2438,
      "রাষ্ট্র": 2439,
      "ages": 2440,
      "ताब्": 2441,
      "స్తాన్": 2442,
      "র্ক": 2443,
      "akistan": 2444,
      "ताब्दी": 2445,
      "ాన్ని": 2446,
      "লব": 2447,
      "anc": 2448,
      "द्र": 2449,
      "ాతంత్ర": 2450,
      "শীল": 2451,
      "contin": 2452,
      "निक": 2453,
      "ాతావర": 2454,
      "সাবে": 2455,
      "continent": 2456,
      "न्द्र": 2457,
      "ాతావరణం": 2458,
      "হি": 2459,
      "ess": 2460,
      "फ़": 2461,
      "ాబిత": 2462,
      "াতি": 2463,
      "ik": 2464,
      "रूप": 2465,
      "ాలకు": 2466,
      "ান্ড": 2467,
      "ially": 2468,
      "िर": 2469,
      "ాలతో": 2470,
      "াব্দ": 2471,
      "ically": 2472,
      "ी,": 2473,
      "ిస్త": 2474,
      "ি,": 2475,
      "ine": 2476,
      "ीरे": 2477,
      "ించే": 2478,
      "িত্য": 2479,
      "ism,": 2480,
      "ृति": 2481,
      "ీప": 2482,
      "ী,": 2483,
      "lo": 2484,
      "्ल": 2485,
      "ూప": 2486,
      "েক": 2487,
      "lowing": 2488,
      "्ले": 2489,
      "్యా": 2490,
      "▁৪": 2491,
      "merg": 2492,
      "्तु": 2493,
      "▁আই": 2494,
      "ond": 2495,
      "्वीप": 2496,
      "▁ఖ": 2497,
      "▁আন্দ": 2498,
      "out": 2499,
      "▁अरब": 2500,
      "▁గా": 2501,
      "▁উপকূল": 2502,
      "ro": 2503,
      "▁अन्त": 2504,
      "▁197": 2505,
      "▁উৎস": 2506,
      "ree": 2507,
      "▁इन": 2508,
      "▁అను": 2509,
      "▁এটি": 2510,
      "rib": 2511,
      "▁ईसा": 2512,
      "▁అభి": 2513,
      "▁করা": 2514,
      "ures": 2515,
      "▁ओर": 2516,
      "▁అనేక": 2517,
      "▁ঘট": 2518,
      "vel": 2519,
      "▁कम": 2520,
      "▁ఆధ": 2521,
      "▁জনসংখ্যা": 2522,
      "vers": 2523,
      "▁क्षेत्रीय": 2524,
      "▁ఇండి": 2525,
      "▁দ্র": 2526,
      "▁199": 2527,
      "▁जिसमें": 2528,
      "▁ఎక్కువగా": 2529,
      "▁নে": 2530,
      "▁An": 2531,
      "▁नेतृत्व": 2532,
      "▁ఒకటి": 2533,
      "▁পর্য": 2534,
      "▁Con": 2535,
      "▁पहले": 2536,
      "▁కాంగ్రెసు": 2537,
      "▁পর্বতমাল": 2538,
      "▁between": 2539,
      "▁प्रधानमंत्री": 2540,
      "▁కూడిన": 2541,
      "▁বাণিজ্য": 2542,
      "▁began": 2543,
      "▁बहुम": 2544,
      "▁చరిత్ర": 2545,
      "▁মান": 2546,
      "▁dance": 2547,
      "▁ब्रि": 2548,
      "▁చైన": 2549,
      "▁যুদ্ধ": 2550,
      "▁ear": 2551,
      "▁युद्ध": 2552,
      "▁చెంద": 2553,
      "▁রাজ": 2554,
      "▁fol": 2555,
      "▁लिये": 2556,
      "▁చేయ": 2557,
      "▁শাসন": 2558,
      "▁land": 2559,
      "▁वर्षों": 2560,
      "▁జాబిత": 2561,
      "▁সু": 2562,
      "▁many": 2563,
      "▁विभ": 2564,
      "▁జరిగిన": 2565,
      "▁সঙ্গীত": 2566,
      "▁nort": 2567,
      "▁विकास": 2568,
      "▁తన": 2569,
      "▁সাহিত্য": 2570,
      "▁north": 2571,
      "▁शताब्दी": 2572,
      "▁తమిళ": 2573,
      "▁হিসাবে": 2574,
      "▁rec": 2575,
      "▁संसद": 2576,
      "▁దా": 2577,
      "▁১৯৫": 2578,
      "▁south": 2579,
      "▁समाज": 2580,
      "▁నగర": 2581,
      "ংগ্রেস": 2582,
      "▁ter": 2583,
      "▁स्थाप": 2584,
      "▁నే": 2585,
      "কাপ": 2586,
      "0,": 2587,
      "▁१९९": 2588,
      "▁నడిపించ": 2589,
      "জি": 2590,
      "ade": 2591,
      "▁నిర్వహ": 2592,
      "টার": 2593,
      "anges": 2594,
      "एँ": 2595,
      "▁నుండి": 2596,
      "ণতান্ত্রিক": 2597,
      "ci": 2598,
      "टिश": 2599,
      "▁పండు": 2600,
      "ন্ড": 2601,
      "ef": 2602,
      "ड़े": 2603,
      "▁పద్ధ": 2604,
      "প্ত": 2605,
      "ell": 2606,
      "धि": 2607,
      "▁పూ": 2608,
      "বেশ": 2609,
      "hern": 2610,
      "पर": 2611,
      "▁పరిశ": 2612,
      "বিধান": 2613,
      "ies,": 2614,
      "पाल": 2615,
      "▁పేర్": 2616,
      "ভারত": 2617,
      "ited": 2618,
      "बंधन": 2619,
      "▁ప్రజా": 2620,
      "ভিন্ন": 2621,
      "lu": 2622,
      "भग": 2623,
      "▁ప్రధానమ": 2624,
      "মহ": 2625,
      "ni": 2626,
      "भाव": 2627,
      "▁ప్రపంచంలో": 2628,
      "মালয়": 2629,
      "olog": 2630,
      "मिल": 2631,
      "▁ప్రాచీన": 2632,
      "য়।": 2633,
      "on-": 2634,
      "म्भ": 2635,
      "▁భారతదేశానికి": 2636,
      "র্তমান": 2637,
      "sh": 2638,
      "लय": 2639,
      "▁మన": 2640,
      "শাস": 2641,
      "ting": 2642,
      "स,": 2643,
      "▁మొత్తం": 2644,
      "শিষ্ট": 2645,
      "▁j": 2646,
      "संख्या": 2647,
      "▁మొదటి": 2648,
      "স্কার": 2649,
      "▁ra": 2650,
      "हाँ": 2651,
      "▁రో": 2652,
      "িখ": 2653,
      "▁up": 2654,
      "ाना": 2655,
      "▁రాష్ట్రపతి": 2656,
      "েলা": 2657,
      "▁It": 2658,
      "ॉल": 2659,
      "▁రైల్వే": 2660,
      "োর": 2661,
      "▁Pakistan": 2662,
      "ौर": 2663,
      "▁వల": 2664,
      "▁ঐতিহ": 2665,
      "▁app": 2666,
      "▁,": 2667,
      "▁వాతావరణం": 2668,
      "▁আজ": 2669,
      "▁caste": 2670,
      "▁-": 2671,
      "▁విశ": 2672,
      "▁ইন্দ": 2673,
      "▁east": 2674,
      "▁अस": 2675,
      "▁శతాబ్": 2676,
      "▁উদ্": 2677,
      "▁economic": 2678,
      "▁आद": 2679,
      "▁సమ": 2680,
      "▁কাল": 2681,
      "▁fore": 2682,
      "▁एवं": 2683,
      "▁సమా": 2684,
      "▁ক্ষম": 2685,
      "▁later": 2686,
      "▁कर्": 2687,
      "▁సరిహద్ద": 2688,
      "▁খ্রিষ্ট": 2689,
      "▁northern": 2690,
      "▁कि": 2691,
      "▁సర్వ": 2692,
      "▁গণ": 2693,
      "▁number": 2694,
      "▁किन": 2695,
      "▁సార": 2696,
      "▁গণতান্ত্রিক": 2697,
      "▁rep": 2698,
      "▁काल": 2699,
      "▁సంఖ్య": 2700,
      "▁ডলার": 2701,
      "▁tim": 2702,
      "▁कुछ": 2703,
      "▁సౌకర్య": 2704,
      "▁থাকে": 2705,
      "▁world's": 2706,
      "▁कुल": 2707,
      "▁స్వాతంత్ర": 2708,
      "▁দল": 2709,
      "▁गठ": 2710,
      "%),": 2711,
      "▁দশক": 2712,
      "ace": 2713,
      "▁जब": 2714,
      ").": 2715,
      "▁দুই": 2716,
      "aw": 2717,
      "▁जनसंख्या": 2718,
      ",000": 2719,
      "▁দেখা": 2720,
      "ard": 2721,
      "▁थे": 2722,
      "01": 2723,
      "▁নিজ": 2724,
      "duc": 2725,
      "▁दोनों": 2726,
      "50": 2727,
      "▁পার": 2728,
      "ered": 2729,
      "▁निभा": 2730,
      "ంగం": 2731,
      "▁প্রচ": 2732,
      "ilit": 2733,
      "▁पुर": 2734,
      "ంచి": 2735,
      "▁প্রযুক্ত": 2736,
      "istor": 2737,
      "▁ब्रिटिश": 2738,
      "ంటారు.": 2739,
      "▁বর্তমান": 2740,
      "ite": 2741,
      "▁भाग": 2742,
      "ంటే": 2743,
      "▁বহু": 2744,
      "iter": 2745,
      "▁भूमिका": 2746,
      "ంప్రదాయ": 2747,
      "▁বাহিন": 2748,
      "ket": 2749,
      "▁यू": 2750,
      "కా": 2751,
      "▁বিভিন্ন": 2752,
      "mon": 2753,
      "▁रक्षा": 2754,
      "కరణ": 2755,
      "▁মু": 2756,
      "omin": 2757,
      "▁राजनी": 2758,
      "క్షరా": 2759,
      "▁যুক্ত": 2760,
      "own": 2761,
      "▁लोग": 2762,
      "క్షరాస్య": 2763,
      "▁যে": 2764,
      "ugh": 2765,
      "▁व्या": 2766,
      "క్షరాస్యత": 2767,
      "▁রয়": 2768,
      "ublic": 2769,
      "▁विदेश": 2770,
      "ఖండ": 2771,
      "▁রাজন": 2772,
      "ular": 2773,
      "▁सर्व": 2774,
      "గం": 2775,
      "▁সংবিধান": 2776,
      "vi": 2777,
      "▁साल": 2778,
      "గంగా": 2779,
      "▁সামরিক": 2780,
      "▁18": 2781,
      "▁संस्कृति": 2782,
      "గో": 2783,
      "▁হয়েছে": 2784,
      "▁After": 2785,
      "▁सदस": 2786,
      "టిలో": 2787,
      "▁হিসেবে": 2788,
      "▁Al": 2789,
      "▁स्वतंत्रता": 2790,
      "టుంబ": 2791,
      "▁১৯৮": 2792,
      "▁Asia": 2793,
      "ట్లు": 2794,
      "-পূর্ব": 2795,
      "▁By": 2796,
      "ंब": 2797,
      "డే": 2798,
      "কি": 2799,
      "▁CE": 2800,
      "ंपरा": 2801,
      "డుకు": 2802,
      "ক্": 2803,
      "▁ab": 2804,
      "गत": 2805,
      "ఢిల్లీ": 2806,
      "কারী": 2807,
      "▁cr": 2808,
      "गर": 2809,
      "తులు": 2810,
      "ছিল।": 2811,
      "▁classical": 2812,
      "चल": 2813,
      "దన": 2814,
      "ঞ্চলে": 2815,
      "▁count": 2816,
      "ज़ी": 2817,
      "ద్య": 2818,
      "ড়ে": 2819,
      "▁emerg": 2820,
      "तु": 2821,
      "నులు,": 2822,
      "তায়": 2823,
      "▁ext": 2824,
      "थिय": 2825,
      "న్మ": 2826,
      "থে": 2827,
      "▁hum": 2828,
      "थियार": 2829,
      "న్నాయి.": 2830,
      "দিকে": 2831,
      "▁increased": 2832,
      "दल": 2833,
      "పూ": 2834,
      "ন্য": 2835,
      "▁influ": 2836,
      "धिकारिक": 2837,
      "ప్రదాయ": 2838,
      "ন্ত্রী": 2839,
      "▁peop": 2840,
      "पे": 2841,
      "పాలిత": 2842,
      "পতি": 2843,
      "▁rate": 2844,
      "मन": 2845,
      "మే": 2846,
      "পূর্ণ": 2847,
      "▁sec": 2848,
      "युक्त": 2849,
      "మై": 2850,
      "বর": 2851,
      "▁since": 2852,
      "र्त": 2853,
      "ము.": 2854,
      "ম্": 2855,
      "▁spec": 2856,
      "वल": 2857,
      "రత": 2858,
      "লিয়ন": 2859,
      "▁subcontinent": 2860,
      "शन": 2861,
      "ర్య": 2862,
      "াংশ": 2863,
      "▁tr": 2864,
      "सभा": 2865,
      "ర్ట": 2866,
      "িশ": 2867,
      "▁there": 2868,
      "स्थ": 2869,
      "ర్ష": 2870,
      "ুল": 2871,
      "▁western": 2872,
      "हरी": 2873,
      "లే": 2874,
      "ুরু": 2875,
      "-l": 2876,
      "हें": 2877,
      "లు.": 2878,
      "ৃতিক": 2879,
      "7,": 2880,
      "ाँकि": 2881,
      "ల్లో": 2882,
      "ৃত্য": 2883,
      "S$": 2884,
      "ांति": 2885,
      "ళ్లను": 2886,
      "োক": 2887,
      "a.": 2888,
      "ाजपा": 2889,
      "వి.": 2890,
      "োজ": 2891,
      "abl": 2892,
      "ारम्भ": 2893,
      "వృ": 2894,
      "োমি": 2895,
      "able": 2896,
      "िमालय": 2897,
      "వే": 2898,
      "্ঞ": 2899,
      "amil": 2900,
      "ीत": 2901,
      "వత్స": 2902,
      "্ড": 2903,
      "ari": 2904,
      "ुनिक": 2905,
      "శ్చ": 2906,
      "্যের": 2907,
      "as,": 2908,
      "ूल": 2909,
      "శ్చిమ": 2910,
      "্রুপ": 2911,
      "athe": 2912,
      "ेर": 2913,
      "సత్వ": 2914,
      "ative": 2915,
      "ोह": 2916,
      "స్,": 2917,
      "▁৭": 2918,
      "ately": 2919,
      "ोलन": 2920,
      "స్థాన్": 2921,
      "▁অন্যতম": 2922,
      "ations": 2923,
      "्लेट": 2924,
      "స్వామ్య": 2925,
      "▁আয়": 2926,
      "cient": 2927,
      "▁$": 2928,
      "ాఖ": 2929,
      "▁উচ্চ": 2930,
      "ever": 2931,
      "▁ऋ": 2932,
      "ామ": 2933,
      "▁কংগ্রেস": 2934,
      "ech": 2935,
      "▁५": 2936,
      "ాత్రం": 2937,
      "▁কৃ": 2938,
      "ected": 2939,
      "▁198": 2940,
      "ాబాద్": 2941,
      "▁কেন্দ্রীয়": 2942,
      "esp": 2943,
      "▁अर्थ": 2944,
      "ాయక": 2945,
      "▁জোট": 2946,
      "hm": 2947,
      "▁अपनी": 2948,
      "ాయి": 2949,
      "▁জন্য": 2950,
      "iod": 2951,
      "▁अपने": 2952,
      "ారసత్వ": 2953,
      "▁তথ": 2954,
      "ice": 2955,
      "▁अप्र": 2956,
      "ిప": 2957,
      "▁পাক": 2958,
      "ies.": 2959,
      "▁इंड": 2960,
      "ిక,": 2961,
      "▁পাত": 2962,
      "ions": 2963,
      "▁इसी": 2964,
      "ికత": 2965,
      "▁পৃ": 2966,
      "ise": 2967,
      "▁उत्प": 2968,
      "ికి": 2969,
      "▁প্রা": 2970,
      "ised": 2971,
      "▁करना": 2972,
      "ిక్": 2973,
      "▁প্রায়": 2974,
      "lim": 2975,
      "▁काम": 2976,
      "ుకోవడ": 2977,
      "▁প্রচল": 2978,
      "liament": 2979,
      "▁केन्द्र": 2980,
      "ుతున్న": 2981,
      "▁প্রধানম": 2982,
      "oduc": 2983,
      "▁गठबंधन": 2984,
      "ూచ": 2985,
      "▁বিশ্বকাপ": 2986,
      "omp": 2987,
      "▁घोष": 2988,
      "ే,": 2989,
      "▁বৃদ্ধি": 2990,
      "ph": 2991,
      "▁जिन": 2992,
      "ైగా": 2993,
      "▁মূল": 2994,
      "rol": 2995,
      "▁जाते": 2996,
      "▁যার": 2997,
      "sl": 2998,
      "▁तमिल": 2999,
      "▁ఐ": 3000,
      "▁রাষ্ট্র।": 3001,
      "ughal": 3002,
      "▁था,": 3003,
      "▁ఘ": 3004,
      "▁শক্তি": 3005,
      "usic": 3006,
      "▁दर": 3007,
      "▁ఫ": 3008,
      "▁সক্ষম": 3009,
      "vent": 3010,
      "▁देख": 3011,
      "▁সদ": 3012,
      "velop": 3013,
      "▁नद": 3014,
      "▁అని": 3015,
      "▁সংখ্যা": 3016,
      "versity": 3017,
      "▁नाग": 3018,
      "▁అభివృ": 3019,
      "▁সংসদ": 3020,
      "▁194": 3021,
      "▁न्यायालय": 3022,
      "▁ఆక్రమ": 3023,
      "▁সময়": 3024,
      "▁Chin": 3025,
      "▁पड़": 3026,
      "▁ఆధార": 3027,
      "▁স্বাধীনতা": 3028,
      "▁Mughal": 3029,
      "▁पै": 3030,
      "▁ఆర్థిక": 3031,
      "▁১৯৭": 3032,
      "▁Th": 3033,
      "▁प्लेट": 3034,
      "▁ఇవ": 3035,
      "-অ": 3036,
      "▁among": 3037,
      "▁परंपरा": 3038,
      "▁ఇండియా": 3039,
      ".৭": 3040,
      "▁cour": 3041,
      "▁पार्टी": 3042,
      "▁ఉంటాయి.": 3043,
      "উড": 3044,
      "▁develop": 3045,
      "▁प्रकार": 3046,
      "▁క్య": 3047,
      "কল": 3048,
      "▁general": 3049,
      "▁प्रभाव": 3050,
      "▁కార్య": 3051,
      "ক্রান্ত": 3052,
      "▁histor": 3053,
      "▁प्रारम्भ": 3054,
      "▁కుటుంబ": 3055,
      "গণ": 3056,
      "▁lif": 3057,
      "▁बड़ा": 3058,
      "▁కేంద్రపాలిత": 3059,
      "গুলিতে": 3060,
      "▁liter": 3061,
      "▁बने": 3062,
      "▁కొన్ని": 3063,
      "জাতিক": 3064,
      "▁largest": 3065,
      "▁मन": 3066,
      "▁గు": 3067,
      "ঞ্চলিক": 3068,
      "▁mid": 3069,
      "▁रहे": 3070,
      "▁గో": 3071,
      "টির": 3072,
      "▁nuclear": 3073,
      "▁ला": 3074,
      "▁చెందిన": 3075,
      "টিশ": 3076,
      "▁new": 3077,
      "▁लिया": 3078,
      "▁జాబితా": 3079,
      "ণী": 3080,
      "▁occ": 3081,
      "▁लगभग": 3082,
      "▁దీ": 3083,
      "ণ্ড": 3084,
      "▁power": 3085,
      "▁वर्ग": 3086,
      "▁దక్షిణా": 3087,
      "থিব": 3088,
      "▁parliament": 3089,
      "▁संयुक्त": 3090,
      "▁దక్షిణాన": 3091,
      "থিবীর": 3092,
      "▁people": 3093,
      "▁सेवा": 3094,
      "▁దేశాలలో": 3095,
      "দ্র": 3096,
      "▁period": 3097,
      "▁हथियार": 3098,
      "▁ద్వీప": 3099,
      "ধী": 3100,
      "▁pro": 3101,
      "▁हिमालय": 3102,
      "▁నా": 3103,
      "নও": 3104,
      "▁river": 3105,
      "▁हालाँकि": 3106,
      "▁న్యాయ": 3107,
      "নিক": 3108,
      "▁state": 3109,
      "▁२००": 3110,
      "▁పత": 3111,
      "ন্ট": 3112,
      "▁than": 3113,
      "▁పశ్చిమ": 3114,
      "ন্ধু": 3115,
      "▁war": 3116,
      "ंक": 3117,
      "▁పాత్ర": 3118,
      "বাদ": 3119,
      "-d": 3120,
      "एं": 3121,
      "▁పైగా": 3122,
      "বিক": 3123,
      "0.": 3124,
      "करण": 3125,
      "▁పొ": 3126,
      "ব্দ": 3127,
      "5.": 3128,
      "जन": 3129,
      "▁పరిశ్రమ": 3130,
      "বর্তী": 3131,
      "ansk": 3132,
      "टन": 3133,
      "▁పాకిస్థాన్": 3134,
      "ভ্য": 3135,
      "anskrit": 3136,
      "तम": 3137,
      "▁పుట్ట": 3138,
      "ম্ব": 3139,
      "athem": 3140,
      "त्त": 3141,
      "▁ప్రధానమంత్రి": 3142,
      "মহাদেশ": 3143,
      "ation,": 3144,
      "दा": 3145,
      "▁ప్రస్తుతం": 3146,
      "ষে": 3147,
      "dic": 3148,
      "न्न": 3149,
      "▁బెంగాల": 3150,
      "সভ": 3151,
      "enni": 3152,
      "पु": 3153,
      "▁బ్రిటి": 3154,
      "স্তান": 3155,
      "engal": 3156,
      "पालिका": 3157,
      "▁భారతదేశపు": 3158,
      "াপ্ত": 3159,
      "ennium": 3160,
      "म,": 3161,
      "▁భారతదేశంలోని": 3162,
      "ায়ী": 3163,
      "eral": 3164,
      "लों": 3165,
      "▁మాత్రం": 3166,
      "িত্র": 3167,
      "hen": 3168,
      "लावा": 3169,
      "▁మే": 3170,
      "ীব": 3171,
      "ild": 3172,
      "वरी": 3173,
      "▁ముంబ": 3174,
      "ৃতীয়": 3175,
      "illennium": 3176,
      "शील": 3177,
      "▁మూడు": 3178,
      "োষ": 3179,
      "jab": 3180,
      "शासित": 3181,
      "▁యు": 3182,
      "্রিটিশ": 3183,
      "o,": 3184,
      "स्ट": 3185,
      "▁రకాల": 3186,
      "▁৩": 3187,
      "orm": 3188,
      "स्व": 3189,
      "▁రహదారులు,": 3190,
      "▁অধিকাংশ": 3191,
      "oss": 3192,
      "सेना": 3193,
      "▁రాజ్యాలు": 3194,
      "▁অন্যদিকে": 3195,
      "ple": 3196,
      "ा,": 3197,
      "▁రాష్ట్రాల": 3198,
      "▁আঞ্চলিক": 3199,
      "rig": 3200,
      "ांध": 3201,
      "▁రోడ్": 3202,
      "▁আইন": 3203,
      "ten": 3204,
      "ाप्त": 3205,
      "▁లక్ష": 3206,
      "▁ইং": 3207,
      "ty": 3208,
      "ाद्वीप": 3209,
      "▁లే": 3210,
      "▁উত্তর-পূর্ব": 3211,
      "ultan": 3212,
      "ार्": 3213,
      "▁లోక్": 3214,
      "▁উৎসব": 3215,
      "unjab": 3216,
      "ियन": 3217,
      "▁వహ": 3218,
      "▁এছাড়াও": 3219,
      "urop": 3220,
      "ुल": 3221,
      "▁వారసత్వ": 3222,
      "▁কর্ত": 3223,
      "vement": 3224,
      "ूच": 3225,
      "▁వై": 3226,
      "▁কাপ": 3227,
      "▁Bengal": 3228,
      "ूस": 3229,
      "▁వంటి": 3230,
      "▁খেলা": 3231,
      "▁East": 3232,
      "ृद्ध": 3233,
      "▁వచ్చిన": 3234,
      "▁চল": 3235,
      "▁Ma": 3236,
      "ृष्ट": 3237,
      "▁విభ": 3238,
      "▁জলব": 3239,
      "▁Pl": 3240,
      "ेक": 3241,
      "▁విస్త": 3242,
      "▁ধ্রুপ": 3243,
      "▁Punjab": 3244,
      "ैल": 3245,
      "▁శతాబ్దం": 3246,
      "▁নিয়ে": 3247,
      "▁Sanskrit": 3248,
      "ैली": 3249,
      "▁సు": 3250,
      "▁নেত": 3251,
      "▁US$": 3252,
      "ॉलर": 3253,
      "▁సంక": 3254,
      "▁নির্বাচিত": 3255,
      "▁bas": 3256,
      "ोत": 3257,
      "▁సంఘ": 3258,
      "▁পরে": 3259,
      "▁caused": 3260,
      "ोर": 3261,
      "▁సంప్రదాయ": 3262,
      "▁পরিণত": 3263,
      "▁constitution": 3264,
      "्त्र": 3265,
      "▁సంవత్స": 3266,
      "▁পাঁচ": 3267,
      "▁est": 3268,
      "्यता": 3269,
      "▁సంగీతం": 3270,
      "▁পৃথিবীর": 3271,
      "▁including": 3272,
      "▁ऑ": 3273,
      "▁సంస్కృతి": 3274,
      "▁প্রযুক্তি": 3275,
      "▁lead": 3276,
      "▁సభ్య": 3277,
      "▁বলে": 3278,
      "▁milit": 3279,
      "▁अफ": 3280,
      "▁సర్వీ": 3281,
      "▁বু": 3282,
      "▁music": 3283,
      "▁अंग्रेजी": 3284,
      "▁సాం": 3285,
      "▁ব্যা": 3286,
      "▁non-": 3287,
      "▁अर्थव": 3288,
      "▁సాంప్రదాయ": 3289,
      "▁বাং": 3290,
      "▁ref": 3291,
      "▁अलग": 3292,
      "▁సాధించ": 3293,
      "▁বিচার": 3294,
      "▁set": 3295,
      "▁आक": 3296,
      "▁సామ్రా": 3297,
      "▁বিশ্বে": 3298,
      "▁social": 3299,
      "▁आग": 3300,
      "▁సినిమా": 3301,
      "▁বিস্তার": 3302,
      "▁though": 3303,
      "▁आधिकारिक": 3304,
      "▁స్వతంత్ర": 3305,
      "▁ভাষা": 3306,
      "▁through": 3307,
      "▁आधुनिक": 3308,
      "..": 3309,
      "▁মোট": 3310,
      "▁them": 3311,
      "▁उस": 3312,
      "17": 3313,
      "▁মানুষ": 3314,
      "-larg": 3315,
      "▁ऊँच": 3316,
      "30": 3317,
      "▁যুগ": 3318,
      "-largest": 3319,
      "▁कह": 3320,
      "47": 3321,
      "▁রাজনৈতিক": 3322,
      "1.": 3323,
      "▁कर्ज": 3324,
      "5,": 3325,
      "▁লক্ষ": 3326,
      "ared": 3327,
      "▁किन्तु": 3328,
      "ంగ్లా": 3329,
      "▁শব্দ": 3330,
      "eat": 3331,
      "▁की।": 3332,
      "ంగ్లాదేశ": 3333,
      "▁শহ": 3334,
      "ex": 3335,
      "▁गंगा": 3336,
      "ందు": 3337,
      "▁সংর": 3338,
      "ever,": 3339,
      "▁गए": 3340,
      "ంధీ": 3341,
      "▁সংস্কৃতি": 3342,
      "heast": 3343,
      "▁गति": 3344,
      "ంపె": 3345,
      "▁সদস": 3346,
      "ied": 3347,
      "▁गांध": 3348,
      "ంపెన": 3349,
      "▁সম্পর্ক": 3350,
      "ident": 3351,
      "▁चार": 3352,
      "ంబూ": 3353,
      "▁সরকারি": 3354,
      "imalay": 3355,
      "▁चीन": 3356,
      "ంలో,": 3357,
      "▁সর্বাধিক": 3358,
      "ird": 3359,
      "▁जिन्": 3360,
      "కళ": 3361,
      "▁হয়েছে।": 3362,
      "ivil": 3363,
      "▁जनता": 3364,
      "కారం": 3365,
      "▁হিমালয়": 3366,
      "ly,": 3367,
      "▁जिसके": 3368,
      "కో": 3369,
      "▁১৯৫০": 3370,
      "odi": 3371,
      "▁डॉलर": 3372,
      "కులు": 3373,
      ".২": 3374,
      "ood": 3375,
      "▁तीस": 3376,
      "క్తి": 3377,
      ".৮": 3378,
      "ording": 3379,
      "▁धीरे": 3380,
      "గిన": 3381,
      "ক্ষরতার": 3382,
      "owever,": 3383,
      "▁निर": 3384,
      "గరికత": 3385,
      "খ্যার": 3386,
      "per": 3387,
      "▁पहा": 3388,
      "గువ": 3389,
      "গোল": 3390,
      "ron": 3391,
      "▁बड़ी": 3392,
      "గోళ": 3393,
      "ঙ্ক": 3394,
      "read": 3395,
      "▁बड़े": 3396,
      "జాలు": 3397,
      "চ্চিত্র": 3398,
      "rew": 3399,
      "▁बहुमत": 3400,
      "జి": 3401,
      "জাতন্ত্র": 3402,
      "ritor": 3403,
      "▁युग": 3404,
      "టం": 3405,
      "তু": 3406,
      "sc": 3407,
      "▁वाल": 3408,
      "టర్": 3409,
      "তো": 3410,
      "t,": 3411,
      "▁व्यवस्था": 3412,
      "టా": 3413,
      "ত্র": 3414,
      "ta": 3415,
      "▁विज": 3416,
      "టో": 3417,
      "তিহাস": 3418,
      "tern": 3419,
      "▁विदेशी": 3420,
      "ట్టమ": 3421,
      "দেশের": 3422,
      "uslim": 3423,
      "▁विस्तृत": 3424,
      "ట్టమొ": 3425,
      "ধর": 3426,
      "▁6": 3427,
      "▁व्याप": 3428,
      "ట్టమొద": 3429,
      "নিয়": 3430,
      "▁9": 3431,
      "▁शुरू": 3432,
      "ట్టమొదటి": 3433,
      "ন্তর্জাতিক": 3434,
      "▁12": 3435,
      "▁सभ": 3436,
      "డిన": 3437,
      "বহ": 3438,
      "▁स्तर": 3439,
      "ణంగా": 3440,
      "বা": 3441,
      "▁Comp": 3442,
      "▁संस्कृत": 3443,
      "ణిజ్య": 3444,
      "বাসী": 3445,
      "▁Himalay": 3446,
      "▁सहयोग": 3447,
      "తుల": 3448,
      "ব্যবস্থা": 3449,
      "▁Indo-": 3450,
      "▁होती": 3451,
      "తాక": 3452,
      "ভক্ত": 3453,
      "▁Indus": 3454,
      "▁१९७": 3455,
      "దాపు": 3456,
      "ম,": 3457,
      "▁Sik": 3458,
      "▁१९८": 3459,
      "దినాలు": 3460,
      "মাণবিক": 3461,
      "▁St": 3462,
      "-स": 3463,
      "ద్ధం": 3464,
      "রব": 3465,
      "▁all": 3466,
      "నది": 3467,
      "রেখ": 3468,
      "▁billion": 3469,
      "ंह": 3470,
      "నలో": 3471,
      "র্শ": 3472,
      "▁def": 3473,
      "इन": 3474,
      "నుకటి": 3475,
      "শাসিত": 3476,
      "▁dire": 3477,
      "जरा": 3478,
      "న్నడ": 3479,
      "শিষ্ট্য": 3480,
      "▁emp": 3481,
      "णी": 3482,
      "న్నిక": 3483,
      "ষ্ঠিত": 3484,
      "▁far": 3485,
      "तः": 3486,
      "పాదన": 3487,
      "সাম": 3488,
      "▁forest": 3489,
      "तमान": 3490,
      "పుకు": 3491,
      "স্থান": 3492,
      "▁gra": 3493,
      "तिह": 3494,
      "పూ.": 3495,
      "াইল": 3496,
      "▁led": 3497,
      "तिहास": 3498,
      "ప్పటికీ,": 3499,
      "ানে": 3500,
      "▁life": 3501,
      "द्योगिक": 3502,
      "బంధ": 3503,
      "াব্দীর": 3504,
      "▁main": 3505,
      "पीय": 3506,
      "బడ్డ": 3507,
      "ামিল": 3508,
      "▁mathem": 3509,
      "पूर्ण": 3510,
      "బె": 3511,
      "ালিত": 3512,
      "▁millennium": 3513,
      "फल": 3514,
      "బడిన": 3515,
      "িন্ন": 3516,
      "▁military": 3517,
      "मह": 3518,
      "భారత": 3519,
      "িস্তান": 3520,
      "▁other": 3521,
      "म्ब": 3522,
      "మతి": 3523,
      "িলোমি": 3524,
      "▁one": 3525,
      "यास": 3526,
      "మన": 3527,
      "েম": 3528,
      "▁pre": 3529,
      "रु": 3530,
      "మాన": 3531,
      "েত্র": 3532,
      "▁polit": 3533,
      "रोपीय": 3534,
      "మాబాద్": 3535,
      "ৈচিত্র্য": 3536,
      "▁rural": 3537,
      "र्थन": 3538,
      "మించ": 3539,
      "্থান": 3540,
      "▁religi": 3541,
      "वी": 3542,
      "మె": 3543,
      "্যান্ড": 3544,
      "▁sign": 3545,
      "वीं": 3546,
      "మ్మ": 3547,
      "্রাজ্য": 3548,
      "▁some": 3549,
      "वायु": 3550,
      "ములో": 3551,
      "▁served": 3552,
      "शत": 3553,
      "మైనది.": 3554,
      "▁ছ": 3555,
      "▁sty": 3556,
      "ष्ठ": 3557,
      "యాలు": 3558,
      "▁ছিল": 3559,
      "▁who": 3560,
      "ष्ण": 3561,
      "యాలో": 3562,
      "▁অংশ": 3563,
      "%.": 3564,
      "स्त्र": 3565,
      "రే": 3566,
      "▁অন্তর্": 3567,
      "ाई": 3568,
      "రుపుకు": 3569,
      "▁অভি": 3570,
      "ाह": 3571,
      "రుష": 3572,
      "▁অনু": 3573,
      "ack": 3574,
      "ांड": 3575,
      "ర్,": 3576,
      "▁অনুস": 3577,
      "ank": 3578,
      "ान,": 3579,
      "ర్జ": 3580,
      "▁অনেক": 3581,
      "arn": 3582,
      "िन्न": 3583,
      "ర్త": 3584,
      "▁অবস্থিত": 3585,
      "ccording": 3586,
      "िल्": 3587,
      "ర్తి": 3588,
      "▁আগ": 3589,
      "dle": 3590,
      "िस्": 3591,
      "ర్మ": 3592,
      "▁আদ": 3593,
      "dust": 3594,
      "ोच्च": 3595,
      "లంప": 3596,
      "▁আধ": 3597,
      "ean": 3598,
      "ोढ़": 3599,
      "లిం": 3600,
      "▁আন": 3601,
      "eh": 3602,
      "ोसी": 3603,
      "లతో,": 3604,
      "▁আন্তর্জাতিক": 3605,
      "ed,": 3606,
      "्रीका": 3607,
      "లామాబాద్": 3608,
      "▁আন্দোল": 3609,
      "ehr": 3610,
      "లిచ": 3611,
      "▁ইতিহাস": 3612,
      "entral": 3613,
      "▁टे": 3614,
      "వె": 3615,
      "▁ইংরে": 3616,
      "gl": 3617,
      "▁(क": 3618,
      "వచ్చు.": 3619,
      "▁ইন্দো": 3620,
      "ins": 3621,
      "వలం": 3622,
      "▁উপদ্বীপ": 3623,
      "ing,": 3624,
      "▁अग": 3625,
      "విధ్య": 3626,
      "▁উপমহাদেশ": 3627,
      "istic": 3628,
      "▁अब": 3629,
      "విస్త": 3630,
      "▁উপর": 3631,
      "les": 3632,
      "▁अंग्रेज़ी": 3633,
      "వెనుకటి": 3634,
      "▁উৎপ": 3635,
      "mit": 3636,
      "▁अधिकार": 3637,
      "ష్ణ": 3638,
      "▁একাধিক": 3639,
      "ments": 3640,
      "▁अप्रैल": 3641,
      "సులు": 3642,
      "▁এশিয়ার": 3643,
      "ost": 3644,
      "▁अफ्रीका": 3645,
      "స్లామాబాద్": 3646,
      "▁কারণ": 3647,
      "ocal": 3648,
      "▁अभी": 3649,
      "స్కృతిక": 3650,
      "▁করেছে।": 3651,
      "ock": 3652,
      "▁अमरी": 3653,
      "స్థాన": 3654,
      "▁কৃষ": 3655,
      "omen": 3656,
      "▁अर्थव्यवस्था": 3657,
      "హార": 3658,
      "▁কেন্দ্রশাসিত": 3659,
      "omet": 3660,
      "▁आन्द": 3661,
      "ాస": 3662,
      "▁কোটি": 3663,
      "orld": 3664,
      "▁आया": 3665,
      "ాతి": 3666,
      "▁গা": 3667,
      "ould": 3668,
      "▁आदि": 3669,
      "ాతో": 3670,
      "▁গঠন": 3671,
      "raph": 3672,
      "▁इसकी": 3673,
      "ారా": 3674,
      "▁চন্দ্র": 3675,
      "til": 3676,
      "▁उद्योग": 3677,
      "ారంభ": 3678,
      "▁চলচ্চিত্র": 3679,
      "ultanate": 3680,
      "▁उन्": 3681,
      "ారిగా": 3682,
      "▁জি": 3683,
      "very": 3684,
      "▁उत्पाद": 3685,
      "ాలనే": 3686,
      "▁তৃতীয়": 3687,
      "▁en": 3688,
      "▁ऋतु": 3689,
      "ాలయ": 3690,
      "▁তেল": 3691,
      "▁us": 3692,
      "▁करता": 3693,
      "ాలా": 3694,
      "▁থাকে।": 3695,
      "▁used": 3696,
      "▁केवल": 3697,
      "ాలెండ": 3698,
      "▁দা": 3699,
      "▁2011": 3700,
      "▁गांधी": 3701,
      "ాలు.": 3702,
      "▁দৈ": 3703,
      "▁Company": 3704,
      "▁जाना": 3705,
      "ాలుగు": 3706,
      "▁নিক": 3707,
      "▁Del": 3708,
      "▁जै": 3709,
      "ాలెండర్": 3710,
      "▁নিয়": 3711,
      "▁En": 3712,
      "▁जबकि": 3713,
      "ించి,": 3714,
      "▁নৃত্য": 3715,
      "▁Gand": 3716,
      "▁जलवायु": 3717,
      "ినీ": 3718,
      "▁নামে": 3719,
      "▁Isl": 3720,
      "▁जलोढ़": 3721,
      "ిమాలయ": 3722,
      "▁নেতৃত": 3723,
      "▁Jain": 3724,
      "▁तो": 3725,
      "ీటిలో": 3726,
      "▁পার্": 3727,
      "▁Muslim": 3728,
      "▁दृष्ट": 3729,
      "ీర్ణ": 3730,
      "▁পর্বতমালা": 3731,
      "▁Plate": 3732,
      "▁दिया।": 3733,
      "ుకొ": 3734,
      "▁পর্যন্ত": 3735,
      "▁Sh": 3736,
      "▁निय": 3737,
      "ుతుంది.": 3738,
      "▁পাকিস্তান": 3739,
      "▁Sikh": 3740,
      "▁पड़ोसी": 3741,
      "ుత్": 3742,
      "▁পারমাণবিক": 3743,
      "▁World": 3744,
      "▁प्रयास": 3745,
      "ూట": 3746,
      "▁পুরুষ": 3747,
      "▁agric": 3748,
      "▁प्रतिशत": 3749,
      "ూరు": 3750,
      "▁প্রজাতন্ত্র": 3751,
      "▁ass": 3752,
      "▁बनी": 3753,
      "ెహ": 3754,
      "▁বর্ষ": 3755,
      "▁cit": 3756,
      "▁बार": 3757,
      "ెలవు": 3758,
      "▁বায়ু": 3759,
      "▁col": 3760,
      "▁बै": 3761,
      "ెలుగు": 3762,
      "▁ব্রিটিশ": 3763,
      "▁culture": 3764,
      "▁बनाने": 3765,
      "్ళ": 3766,
      "▁বর্তমানে": 3767,
      "▁central": 3768,
      "▁भाजपा": 3769,
      "్యాప": 3770,
      "▁বাহিনী": 3771,
      "▁century,": 3772,
      "▁महा": 3773,
      "‌స": 3774,
      "▁বিবাহ": 3775,
      "▁coal": 3776,
      "▁मो": 3777,
      "▁డ": 3778,
      "▁বিবে": 3779,
      "▁coast": 3780,
      "▁यूरोपीय": 3781,
      "▁తి": 3782,
      "▁বিভক্ত": 3783,
      "▁cook": 3784,
      "▁राजनीतिक": 3785,
      "▁(వెనుకటి": 3786,
      "▁বিশেষ": 3787,
      "▁contrib": 3788,
      "▁ले": 3789,
      "▁বৈচিত্র্য": 3790,
      "▁control": 3791,
      "▁लाख": 3792,
      "▁1947": 3793,
      "▁বৈশিষ্ট্য": 3794,
      "▁country": 3795,
      "▁वे": 3796,
      "▁26": 3797,
      "▁ভাষায়": 3798,
      "▁court": 3799,
      "▁वर्ण": 3800,
      "▁అవ": 3801,
      "▁মাল": 3802,
      "▁disp": 3803,
      "▁वर्तमान": 3804,
      "▁అహ": 3805,
      "▁মৌ": 3806,
      "▁economy": 3807,
      "▁विवाद": 3808,
      "▁అభివృద్ధి": 3809,
      "▁মহাক": 3810,
      "▁found": 3811,
      "▁विभिन्न": 3812,
      "▁ఇంగ్ల": 3813,
      "▁যায়।": 3814,
      "▁following": 3815,
      "▁व्यापार": 3816,
      "▁ఇవి": 3817,
      "▁যুক্তরাষ্ট্র": 3818,
      "▁great": 3819,
      "▁शिक": 3820,
      "▁ఇస్లామాబాద్": 3821,
      "▁রয়েছে": 3822,
      "▁growth": 3823,
      "▁श्री": 3824,
      "▁ఉండ": 3825,
      "▁রাষ্ট্রপতি": 3826,
      "▁high": 3827,
      "▁सी": 3828,
      "▁ఉంటుంది.": 3829,
      "▁লোক": 3830,
      "▁human": 3831,
      "▁सु": 3832,
      "▁ఉన్నారు.": 3833,
      "▁শতাব্দীর": 3834,
      "▁include": 3835,
      "▁समर्थन": 3836,
      "▁ఉపఖండ": 3837,
      "▁শতাংশ।": 3838,
      "▁influenc": 3839,
      "▁समाप्त": 3840,
      "▁ఎన్నిక": 3841,
      "▁সার": 3842,
      "▁made": 3843,
      "▁सम्प": 3844,
      "▁ఏర్పడ్డ": 3845,
      "▁সে": 3846,
      "▁no": 3847,
      "▁सर्वोच्च": 3848,
      "▁ఒకే": 3849,
      "▁সংরক্ষণ": 3850,
      "▁out": 3851,
      "▁स्थापना": 3852,
      "▁కంపెన": 3853,
      "▁সংস্কৃত": 3854,
      "▁plain": 3855,
      "▁हिन्दू": 3856,
      "▁కథ": 3857,
      "▁সদস্য": 3858,
      "▁political": 3859,
      "▁होते": 3860,
      "▁కన్నడ": 3861,
      "▁সাং": 3862,
      "▁religious": 3863,
      "▁१९६": 3864,
      "▁కల": 3865,
      "▁সাধ": 3866,
      "▁sur": 3867,
      ");": 3868,
      "▁కల్ప": 3869,
      "▁সাম্রাজ্য": 3870,
      "▁tech": 3871,
      "6.": 3872,
      "▁కి": 3873,
      "▁সিন্ধু": 3874,
      "▁territor": 3875,
      "ंजा": 3876,
      "▁కింద": 3877,
      "▁স্থাপত্য": 3878,
      "▁third": 3879,
      "ंजाब": 3880,
      "▁కుల": 3881,
      "▁স্বা": 3882,
      "▁trans": 3883,
      "ंत्रिक": 3884,
      "▁కలిగి": 3885,
      "▁হলে": 3886,
      "▁wide": 3887,
      "ंबे": 3888,
      "▁కలిసి": 3889,
      "▁women": 3890,
      "क्": 3891,
      "▁కార్యక్రమ": 3892,
      "-আ": 3893,
      "क्षर": 3894,
      "▁కూడుకు": 3895,
      "-প": 3896,
      "19": 3897,
      "डी": 3898,
      "▁కేవలం": 3899,
      "-ব": 3900,
      "20": 3901,
      "ण,": 3902,
      "▁కోర్ట": 3903,
      ".১": 3904,
      "3.": 3905,
      "त्या": 3906,
      "▁క్యాలెండర్": 3907,
      ".৬": 3908,
      "4%": 3909,
      "थी": 3910,
      "▁క్రీ.": 3911,
      "কটি": 3912,
      "6,": 3913,
      "दार": 3914,
      "▁క్రీడలు": 3915,
      "ক্ষে": 3916,
      "JP": 3917,
      "दारी": 3918,
      "▁గణ": 3919,
      "ক্ষেত্র": 3920,
      "af": 3921,
      "धार": 3922,
      "▁గాంధీ": 3923,
      "ক্ষমতা": 3924,
      "are": 3925,
      "धानी": 3926,
      "▁గుర్త": 3927,
      "খণ্ড": 3928,
      "au": 3929,
      "ध्यम": 3930,
      "▁చాలా": 3931,
      "খন": 3932,
      "ades": 3933,
      "नत": 3934,
      "▁చేసింది.": 3935,
      "গঠ": 3936,
      "ainting": 3937,
      "नै": 3938,
      "▁జంబూ": 3939,
      "গত।": 3940,
      "alle": 3941,
      "नेमा": 3942,
      "▁జన్మ": 3943,
      "গোলিক": 3944,
      "als": 3945,
      "नैतिक": 3946,
      "▁జరుపుకు": 3947,
      "ঘল": 3948,
      "aman": 3949,
      "न्ध": 3950,
      "▁జనాభ": 3951,
      "ঘাট": 3952,
      "ange": 3953,
      "पि": 3954,
      "▁టె": 3955,
      "চ্": 3956,
      "arat": 3957,
      "पेक्ष": 3958,
      "▁టై": 3959,
      "জাতি": 3960,
      "ction": 3961,
      "भाषा": 3962,
      "▁తక్కువ": 3963,
      "টো": 3964,
      "ew": 3965,
      "मी": 3966,
      "▁తెలుగు": 3967,
      "থাক": 3968,
      "ecially": 3969,
      "महाद्वीप": 3970,
      "▁తరువాతి": 3971,
      "দান": 3972,
      "ehru": 3973,
      "यन": 3974,
      "▁దక్షిణాసియా": 3975,
      "দায়": 3976,
      "emoc": 3977,
      "र-": 3978,
      "▁దాదాపు": 3979,
      "দ্য": 3980,
      "especially": 3981,
      "र्तग": 3982,
      "▁దేశానికి": 3983,
      "দেশিক": 3984,
      "glish": 3985,
      "लिम": 3986,
      "▁దేశంగా": 3987,
      "দ্ধির": 3988,
      "hes": 3989,
      "ल्त": 3990,
      "▁ద్వారా": 3991,
      "ধ্যমে": 3992,
      "ia,": 3993,
      "ल्तनत": 3994,
      "▁నాలుగు": 3995,
      "ধ্যুষ": 3996,
      "ians": 3997,
      "वर्ष": 3998,
      "▁నాగరికత": 3999,
      "ধ্যুষিত": 4000,
      "iz": 4001,
      "वास": 4002,
      "▁నిర్మ": 4003,
      "নশীল": 4004,
      "ific": 4005,
      "सि": 4006,
      "▁నిర్వహణ": 4007,
      "নার": 4008,
      "ight": 4009,
      "सित": 4010,
      "▁నుంచి": 4011,
      "ন্ডিয়": 4012,
      "ity,": 4013,
      "सून": 4014,
      "▁పంచ": 4015,
      "ন্ধন": 4016,
      "ives": 4017,
      "स्लिम": 4018,
      "▁పద": 4019,
      "পাত": 4020,
      "led": 4021,
      "हुँच": 4022,
      "▁పతకాలు": 4023,
      "পেক্ষ": 4024,
      "main": 4025,
      "ाट": 4026,
      "▁పద్ధతి": 4027,
      "বিভাগ": 4028,
      "nolog": 4029,
      "ाजिक": 4030,
      "▁పరంగా": 4031,
      "ভূত": 4032,
      "oin": 4033,
      "ादा": 4034,
      "▁పరిపాల": 4035,
      "ময়": 4036,
      "ograph": 4037,
      "ास्त": 4038,
      "▁పరిశ్రమలు": 4039,
      "য়ের": 4040,
      "ork": 4041,
      "िख": 4042,
      "▁పాక్": 4043,
      "যোগিত": 4044,
      "ped": 4045,
      "िरा": 4046,
      "▁పాకిస్తాన్": 4047,
      "র,": 4048,
      "reated": 4049,
      "ियां": 4050,
      "▁పురుష": 4051,
      "রত": 4052,
      "rigin": 4053,
      "िल्ली": 4054,
      "▁పేర్కొ": 4055,
      "রি": 4056,
      "str": 4057,
      "ीफ": 4058,
      "▁పొందిన": 4059,
      "রোপ": 4060,
      "ually": 4061,
      "ीर": 4062,
      "▁ప్రదేశ": 4063,
      "লমান": 4064,
      "ulpt": 4065,
      "ुआ": 4066,
      "▁ప్రారంభ": 4067,
      "লা,": 4068,
      "ultural": 4069,
      "ुष": 4070,
      "▁ప్రజల": 4071,
      "লিউড": 4072,
      "und": 4073,
      "ृतिक": 4074,
      "▁ప్రజాస్వామ్య": 4075,
      "স,": 4076,
      "uropean": 4077,
      "ेट": 4078,
      "▁ప్రతిపాదన": 4079,
      "সর": 4080,
      "vid": 4081,
      "ेल": 4082,
      "▁బంగ్లాదేశ": 4083,
      "স্কৃতিক": 4084,
      "ving": 4085,
      "ेरिका": 4086,
      "▁బహుళ": 4087,
      "স্ত্র": 4088,
      "vol": 4089,
      "ोटे": 4090,
      "▁బెంగాలీ": 4091,
      "াভ": 4092,
      "verse": 4093,
      "ोव": 4094,
      "▁భిన్న": 4095,
      "াটক": 4096,
      "west": 4097,
      "ौद्योगिक": 4098,
      "▁భౌ": 4099,
      "াপে": 4100,
      "work": 4101,
      "ौह": 4102,
      "▁భాగ": 4103,
      "াবা": 4104,
      "ya": 4105,
      "्ञ": 4106,
      "▁భాషలు": 4107,
      "াবাদ": 4108,
      "्‍": 4109,
      "▁మంది": 4110,
      "ামা": 4111,
      "▁ent": 4112,
      "्टा": 4113,
      "▁మా": 4114,
      "ারেশন": 4115,
      "▁especially": 4116,
      "्यादा": 4117,
      "▁మాత": 4118,
      "ালত": 4119,
      "▁her": 4120,
      "्यात": 4121,
      "▁మై": 4122,
      "ালু": 4123,
      "▁17": 4124,
      "०,": 4125,
      "▁మౌ": 4126,
      "িজ": 4127,
      "४.": 4128,
      "▁మనదేశం": 4129,
      "িক্ষ": 4130,
      "▁Central": 4131,
      "५०": 4132,
      "▁ముంబై": 4133,
      "িলোমিটার": 4134,
      "▁Constitution": 4135,
      "▁%": 4136,
      "▁ముఖ్యమైన": 4137,
      "ীক": 4138,
      "▁English": 4139,
      "▁మొట్టమొదటి": 4140,
      "ুগ": 4141,
      "▁Ganges": 4142,
      "▁ऐ": 4143,
      "▁మొదలైన": 4144,
      "ুত্ব": 4145,
      "▁Hindi": 4146,
      "▁ढ": 4147,
      "▁రంగ": 4148,
      "ুনিক": 4149,
      "▁Its": 4150,
      "▁६": 4151,
      "▁రాజ్యా": 4152,
      "ুপ্ত": 4153,
      "▁Jan": 4154,
      "▁1,": 4155,
      "▁రాష్ట్రాలు": 4156,
      "ুসলমান": 4157,
      "▁Nehru": 4158,
      "▁రైళ్లను": 4159,
      "ূচ": 4160,
      "▁There": 4161,
      "▁రోడ్డు": 4162,
      "ৃক": 4163,
      "▁United": 4164,
      "▁1965": 4165,
      "▁లేదా": 4166,
      "েড": 4167,
      "▁ancient": 4168,
      "▁1971": 4169,
      "▁వీటిలో": 4170,
      "েপি": 4171,
      "▁animal": 4172,
      "▁వ్యాప": 4173,
      "েয়": 4174,
      "▁arch": 4175,
      "▁अलावा": 4176,
      "▁వర్గ": 4177,
      "োয়": 4178,
      "▁arm": 4179,
      "▁अन्तर": 4180,
      "▁వాణిజ్య": 4181,
      "োষ্ঠ": 4182,
      "▁areas": 4183,
      "▁अपना": 4184,
      "▁విద్య": 4185,
      "ৌগোলিক": 4186,
      "▁bi": 4187,
      "▁अभिया": 4188,
      "▁విభిన్న": 4189,
      "্ট": 4190,
      "▁bir": 4191,
      "▁अमेरिका": 4192,
      "▁వేగంగా": 4193,
      "্লি": 4194,
      "▁cap": 4195,
      "▁आज": 4196,
      "▁వైవిధ్య": 4197,
      "্ঞান": 4198,
      "▁cens": 4199,
      "▁आधार": 4200,
      "▁వ్యవస్థలో": 4201,
      "্প্র": 4202,
      "▁century": 4203,
      "▁आन्दोलन": 4204,
      "▁శెలవు": 4205,
      "্প্রতিক": 4206,
      "▁dra": 4207,
      "▁इतिहास": 4208,
      "▁శ్రీ": 4209,
      "্যে": 4210,
      "▁dev": 4211,
      "▁इंडिया": 4212,
      "▁శాస్త్రం,": 4213,
      "্রদায়": 4214,
      "▁diff": 4215,
      "▁उच्च": 4216,
      "▁శాస్త్రీయ": 4217,
      "্রমে": 4218,
      "▁dis": 4219,
      "▁उभ": 4220,
      "▁సముద్ర": 4221,
      "▁তি": 4222,
      "▁diversity": 4223,
      "▁उत्त": 4224,
      "▁సహ": 4225,
      "▁লি": 4226,
      "▁direct": 4227,
      "▁उपमहाद्वीप": 4228,
      "▁సూచ": 4229,
      "▁(ম": 4230,
      "▁early": 4231,
      "▁उसके": 4232,
      "▁సై": 4233,
      "▁অর্": 4234,
      "▁emerged": 4235,
      "▁एव": 4236,
      "▁సంబంధ": 4237,
      "▁অঞ্চলের": 4238,
      "▁export": 4239,
      "▁किये": 4240,
      "▁సంగీత": 4241,
      "▁অন্তর্গত।": 4242,
      "▁feat": 4243,
      "▁किस": 4244,
      "▁సంప్రదాయాలు": 4245,
      "▁অবস্থিত।": 4246,
      "▁fed": 4247,
      "▁कृष": 4248,
      "▁సమాఖ్య": 4249,
      "▁আদালত": 4250,
      "▁fig": 4251,
      "▁कहते": 4252,
      "▁సర్వీసులు": 4253,
      "▁ইংরেজি": 4254,
      "▁grew": 4255,
      "▁किया,": 4256,
      "▁సాంస్కృతిక": 4257,
      "▁ঐতিহ্য": 4258,
      "▁indust": 4259,
      "▁कोई": 4260,
      "▁సాంప్రదాయిక": 4261,
      "▁কম": 4262,
      "▁last": 4263,
      "▁गई": 4264,
      "▁సామ్రాజ్య": 4265,
      "▁কিলোমিটার": 4266,
      "▁li": 4267,
      "▁गई।": 4268,
      "▁సింధు": 4269,
      "▁কর্তৃক": 4270,
      "▁local": 4271,
      "▁गुप्त": 4272,
      "▁సినిమ": 4273,
      "▁কোনও": 4274,
      "▁leg": 4275,
      "▁घोषणा": 4276,
      "▁స్వాతంత్ర్య": 4277,
      "▁কোম্প": 4278,
      "▁literac": 4279,
      "▁चल": 4280,
      "▁హిమాలయ": 4281,
      "▁ক্রয়": 4282,
      "▁majority": 4283,
      "▁चला": 4284,
      "▁హై": 4285,
      "▁ক্ষমতায়": 4286,
      "▁marri": 4287,
      "▁छोड़": 4288,
      "▁హిందూదేశం": 4289,
      "▁খাত": 4290,
      "▁movement": 4291,
      "▁जहाँ": 4292,
      "\",": 4293,
      "▁গড়ে": 4294,
      "▁origin": 4295,
      "▁जून": 4296,
      "%,": 4297,
      "▁গঠিত": 4298,
      "▁occup": 4299,
      "▁जनवरी": 4300,
      "-ఢిల్లీ": 4301,
      "▁চতু": 4302,
      "▁painting": 4303,
      "▁जिसका": 4304,
      "-లా": 4305,
      "▁চার": 4306,
      "▁parliamentary": 4307,
      "▁जीत": 4308,
      "-ఢిల్లీ-లా": 4309,
      "▁জৈ": 4310,
      "▁party": 4311,
      "▁जीव": 4312,
      "-ఢిల్లీ-లాహ": 4313,
      "▁জনসংখ্যার": 4314,
      "▁remain": 4315,
      "▁तट": 4316,
      "-ఢిల్లీ-లాహో": 4317,
      "▁জলবায়ু": 4318,
      "▁righ": 4319,
      "▁थे।": 4320,
      "-ఢిల్లీ-లాహోర్": 4321,
      "▁তামিল": 4322,
      "▁sculpt": 4323,
      "▁दिल्ली": 4324,
      ".7": 4325,
      "▁দিক": 4326,
      "▁second": 4327,
      "▁दृष्टि": 4328,
      "0%": 4329,
      "▁দিয়ে": 4330,
      "▁stat": 4331,
      "▁देखा": 4332,
      "▁দুটি": 4333,
      "▁supp": 4334,
      "▁नव": 4335,
      "02": 4336,
      "▁দ্বীপ": 4337,
      "▁support": 4338,
      "▁नदियाँ": 4339,
      "004": 4340,
      "▁দ্রুত": 4341,
      "▁they": 4342,
      "▁निर्": 4343,
      "1లో": 4344,
      "▁ধ্রুপদি": 4345,
      "▁निभाई": 4346,
      "2,": 4347,
      "▁নদী": 4348,
      "▁पंजाब": 4349,
      "3,": 4350,
      "▁নির": 4351,
      "4.": 4352,
      "▁पहुँच": 4353,
      "4%,": 4354,
      "▁নেতৃত্বে": 4355,
      "9.": 4356,
      "▁पर्य": 4357,
      "42": 4358,
      "▁পো": 4359,
      "DP": 4360,
      "▁पर्वत": 4361,
      "62": 4362,
      "▁পরী": 4363,
      "ach": 4364,
      "▁पुर्तग": 4365,
      "7లో": 4366,
      "▁পরিচ": 4367,
      "ains": 4368,
      "▁पूर्वी": 4369,
      "▁পরিষে": 4370,
      "alth": 4371,
      "▁प्रचल": 4372,
      "CEE": 4373,
      "▁পার্টি": 4374,
      "alled": 4375,
      "▁प्रत्य": 4376,
      "ం;": 4377,
      "▁পুরস্কার": 4378,
      "amm": 4379,
      "▁प्रशास": 4380,
      "ంజ": 4381,
      "▁পুরুষদের": 4382,
      "ances": 4383,
      "▁प्रौद्योगिक": 4384,
      "ంకా": 4385,
      "▁প্রত্য": 4386,
      "ands": 4387,
      "▁फ्र": 4388,
      "ంకే": 4389,
      "▁প্রভাব": 4390,
      "ants": 4391,
      "▁बंग": 4392,
      "ంకేతిక": 4393,
      "▁প্রস্ত": 4394,
      "ar,": 4395,
      "▁बौ": 4396,
      "ంగారు": 4397,
      "▁প্রচলিত": 4398,
      "ati": 4399,
      "▁बढ़कर": 4400,
      "ంగా,": 4401,
      "▁প্রধানমন্ত্রী": 4402,
      "ating": 4403,
      "▁भाषाएँ": 4404,
      "ంటి": 4405,
      "▁বস": 4406,
      "bal": 4407,
      "▁भील": 4408,
      "ంటుంది.": 4409,
      "▁বো": 4410,
      "cent": 4411,
      "▁भूमि": 4412,
      "ంటున్న": 4413,
      "▁বিলিয়ন": 4414,
      "daman": 4415,
      "▁मंत्र": 4416,
      "ంటూ": 4417,
      "▁বিষ": 4418,
      "day": 4419,
      "▁मूल": 4420,
      "ంటో": 4421,
      "▁বিচারে": 4422,
      "dom": 4423,
      "▁मौ": 4424,
      "ండా": 4425,
      "▁বুদ্ধ": 4426,
      "dian": 4427,
      "▁माध्यम": 4428,
      "ండో": 4429,
      "▁বৈদেশিক": 4430,
      "eak": 4431,
      "▁मानसून": 4432,
      "ండ్": 4433,
      "▁ব্যবস্থ": 4434,
      "ecut": 4435,
      "▁माना": 4436,
      "ంతర్జ": 4437,
      "▁ব্যবস্থা": 4438,
      "educ": 4439,
      "▁मिलियन": 4440,
      "ంతర్జాత": 4441,
      "▁মতো": 4442,
      "enins": 4443,
      "▁रही": 4444,
      "ంతర్జాతీయ": 4445,
      "▁মাধ্যমে": 4446,
      "er,": 4447,
      "▁राजधानी": 4448,
      "కాత": 4449,
      "▁মুঘল": 4450,
      "ers,": 4451,
      "▁राजनैतिक": 4452,
      "కూ": 4453,
      "▁রূ": 4454,
      "etic": 4455,
      "▁लोगों": 4456,
      "కాహార": 4457,
      "▁রাম": 4458,
      "fore": 4459,
      "▁वा": 4460,
      "కాతా": 4461,
      "▁শুরু": 4462,
      "ft": 4463,
      "▁वीं": 4464,
      "కు,": 4465,
      "▁সংস্থ": 4466,
      "hat": 4467,
      "▁वै": 4468,
      "కుల": 4469,
      "▁সমাজ": 4470,
      "hi,": 4471,
      "▁विकसित": 4472,
      "క్టో": 4473,
      "▁সাক্ষরতার": 4474,
      "i)": 4475,
      "▁विस्तार": 4476,
      "క్కన": 4477,
      "▁সাম্প্রতিক": 4478,
      "iet": 4479,
      "▁शांति": 4480,
      "క్కను": 4481,
      "▁হকি": 4482,
      "ix": 4483,
      "▁शुरुआ": 4484,
      "క్టోర": 4485,
      "▁হন।": 4486,
      "icial": 4487,
      "▁सल्तनत": 4488,
      "క్టోరల్": 4489,
      "▁১১": 4490,
      "ics": 4491,
      "▁संगीत": 4492,
      "క్షం": 4493,
      "▁১৯৯১": 4494,
      "ificant": 4495,
      "▁संघर्ष": 4496,
      "గణ": 4497,
      "%)": 4498,
      "inc": 4499,
      "▁सरकारें": 4500,
      "గాన్ని": 4501,
      ",৬": 4502,
      "ingdom": 4503,
      "▁सामाजिक": 4504,
      "గిస్త": 4505,
      "-ভারত": 4506,
      "ings": 4507,
      "▁सिंह": 4508,
      "గినది.": 4509,
      "-১": 4510,
      "inistr": 4511,
      "▁सिनेमा": 4512,
      "గుబ": 4513,
      ".৪": 4514,
      "ished": 4515,
      "▁हिस्": 4516,
      "గుబా": 4517,
      ".৬%": 4518,
      "ked": 4519,
      "▁हुई।": 4520,
      "గుబాటు": 4521,
      "এল": 4522,
      "leg": 4523,
      "▁१८": 4524,
      "గోళిక": 4525,
      "ওয়া": 4526,
      "min": 4527,
      "▁२०": 4528,
      "చయ": 4529,
      "ওয়ায়": 4530,
      "ministr": 4531,
      "చుకోవడ": 4532,
      "কু": 4533,
      "ned": 4534,
      "-प": 4535,
      "చయిత": 4536,
      "কালে": 4537,
      "ody": 4538,
      ".३": 4539,
      "చుకోవడం": 4540,
      "কালের": 4541,
      "ors": 4542,
      "15": 4543,
      "చ్చే": 4544,
      "কেন্দ্র": 4545,
      "osed": 4546,
      "జిక,": 4547,
      "ক্তির": 4548,
      "oup": 4549,
      "In": 4550,
      "జిత": 4551,
      "গতভাবে": 4552,
      "outher": 4553,
      "జ్": 4554,
      "গ্রহ": 4555,
      "outheast": 4556,
      "టన్": 4557,
      "ট,": 4558,
      "outhern": 4559,
      "ंका": 4560,
      "టలు": 4561,
      "ঠে।": 4562,
      "quent": 4563,
      "ंट": 4564,
      "టే": 4565,
      "ণতন্ত্র": 4566,
      "ra,": 4567,
      "ंत": 4568,
      "ట్ర": 4569,
      "ত্থান": 4570,
      "ract": 4571,
      "ंत्रण": 4572,
      "టర్లకు": 4573,
      "ত্ব": 4574,
      "sequent": 4575,
      "ंदिरा": 4576,
      "ట్రో": 4577,
      "থাক্রমে": 4578,
      "ual": 4579,
      "ंधु": 4580,
      "ట్లకు": 4581,
      "দর্শ": 4582,
      "urther": 4583,
      "ई,": 4584,
      "ట్లా": 4585,
      "ধা": 4586,
      "uted": 4587,
      "कट": 4588,
      "ట్లాడే": 4589,
      "নক": 4590,
      "ven": 4591,
      "क्ट": 4592,
      "ఠభ": 4593,
      "নাত": 4594,
      "wn": 4595,
      "कालीन": 4596,
      "ఠభూ": 4597,
      "ন্দি": 4598,
      "yan": 4599,
      "क्षण": 4600,
      "ఠభూమ": 4601,
      "পুর": 4602,
      "▁educ": 4603,
      "चार": 4604,
      "డమ": 4605,
      "পিপি": 4606,
      "▁1.": 4607,
      "च्": 4608,
      "డుతున్న": 4609,
      "ফি,": 4610,
      "▁15": 4611,
      "च्छ": 4612,
      "డైన": 4613,
      "ফ্রিক": 4614,
      "▁1947,": 4615,
      "जट": 4616,
      "డివి": 4617,
      "বস": 4618,
      "▁According": 4619,
      "टक": 4620,
      "డు\"": 4621,
      "বর্তিত": 4622,
      "▁Act": 4623,
      "णाली": 4624,
      "డుకుంటూ": 4625,
      "বসতি": 4626,
      "▁Among": 4627,
      "ण्डल": 4628,
      "ఢాక": 4629,
      "বহৃত": 4630,
      "▁Andaman": 4631,
      "त्न": 4632,
      "ఢాకా": 4633,
      "বিদ": 4634,
      "▁BJP": 4635,
      "नेक": 4636,
      "ఢాకా-ఢిల్లీ-లాహోర్": 4637,
      "ভৃতি": 4638,
      "▁Buddhist": 4639,
      "पात": 4640,
      "ఢిల్లీ,": 4641,
      "ভূম": 4642,
      "▁China": 4643,
      "पूर्व": 4644,
      "ణించ": 4645,
      "মাত্র": 4646,
      "▁During": 4647,
      "प्रिय": 4648,
      "ణులు": 4649,
      "মিক": 4650,
      "▁Delhi": 4651,
      "बो": 4652,
      "తం,": 4653,
      "মানিক": 4654,
      "▁Gandhi": 4655,
      "बंधीय": 4656,
      "తంగా": 4657,
      "য়ারি": 4658,
      "▁Indians": 4659,
      "भु": 4660,
      "తను": 4661,
      "য়েকটি": 4662,
      "▁National": 4663,
      "भाग": 4664,
      "తల": 4665,
      "রণ্য": 4666,
      "▁Pers": 4667,
      "म्न": 4668,
      "తారు.": 4669,
      "রেখার": 4670,
      "▁Tamil": 4671,
      "यक": 4672,
      "తీ": 4673,
      "রোধ": 4674,
      "▁These": 4675,
      "ये": 4676,
      "త్రీ": 4677,
      "রোপীয়": 4678,
      "▁Western": 4679,
      "या।": 4680,
      "తరాలు": 4681,
      "র্ধনশীল": 4682,
      "▁acc": 4683,
      "रह": 4684,
      "తి,": 4685,
      "র্যাদ": 4686,
      "▁air": 4687,
      "रि": 4688,
      "తులతో": 4689,
      "র্যাদা": 4690,
      "▁based": 4691,
      "रोध": 4692,
      "త్రిక": 4693,
      "লাদেশ": 4694,
      "▁become": 4695,
      "र्च": 4696,
      "త్రీలు": 4697,
      "লী": 4698,
      "▁car": 4699,
      "लंका": 4700,
      "త్వంలో": 4701,
      "শাক": 4702,
      "▁created": 4703,
      "लीवि": 4704,
      "థ్యం": 4705,
      "শৈ": 4706,
      "▁centuries": 4707,
      "व,": 4708,
      "దగా": 4709,
      "ষণ": 4710,
      "▁commer": 4711,
      "वे": 4712,
      "దరంగ": 4713,
      "ষ্টি": 4714,
      "▁common": 4715,
      "वंश": 4716,
      "దరణ": 4717,
      "ষ্ণ": 4718,
      "▁contin": 4719,
      "वादी": 4720,
      "దావర": 4721,
      "সংক্রান্ত": 4722,
      "▁decl": 4723,
      "शाली": 4724,
      "దాయంలో": 4725,
      "সভা": 4726,
      "▁earli": 4727,
      "शेष": 4728,
      "దుగా": 4729,
      "াতা": 4730,
      "▁eastern": 4731,
      "श्म": 4732,
      "నం": 4733,
      "াদি": 4734,
      "▁endem": 4735,
      "श्मीर": 4736,
      "నన": 4737,
      "াদে": 4738,
      "▁execut": 4739,
      "ष्क": 4740,
      "నాథ": 4741,
      "াদের": 4742,
      "▁federal": 4743,
      "सत": 4744,
      "నిజాలు": 4745,
      "ানু": 4746,
      "▁ind": 4747,
      "स्कृतिक": 4748,
      "నుమ": 4749,
      "ান্ধী": 4750,
      "▁inter": 4751,
      "स्थान": 4752,
      "న్నీ": 4753,
      "ান্স": 4754,
      "▁low": 4755,
      "स्वरूप": 4756,
      "న్నై": 4757,
      "াপক": 4758,
      "▁lower": 4759,
      "हों": 4760,
      "పడిన": 4761,
      "াব্য": 4762,
      "▁languages": 4763,
      "हायक": 4764,
      "పరి": 4765,
      "ামান": 4766,
      "▁longer": 4767,
      "ाओं": 4768,
      "పాల్": 4769,
      "ারণতন্ত্র": 4770,
      "▁man": 4771,
      "ात": 4772,
      "పుత": 4773,
      "ার্য": 4774,
      "▁market": 4775,
      "ामस्वरूप": 4776,
      "పెద్ద": 4777,
      "ালে": 4778,
      "▁mathematic": 4779,
      "ालर": 4780,
      "పై": 4781,
      "িখে": 4782,
      "▁national": 4783,
      "ाषी": 4784,
      "పో": 4785,
      "িতীয়": 4786,
      "▁often": 4787,
      "ास्तव": 4788,
      "ప్ర": 4789,
      "িত্ত": 4790,
      "▁penins": 4791,
      "िं": 4792,
      "ప్రి": 4793,
      "িনি": 4794,
      "▁pres": 4795,
      "िप": 4796,
      "పాంత": 4797,
      "ীণ": 4798,
      "▁prom": 4799,
      "िबंधीय": 4800,
      "పాటు": 4801,
      "ুমানিক": 4802,
      "▁popular": 4803,
      "िणामस्वरूप": 4804,
      "పాడుకుంటూ": 4805,
      "ুত্বপূর্ণ": 4806,
      "▁produc": 4807,
      "िमण्डल": 4808,
      "పావ": 4809,
      "ুরুত্বপূর্ণ": 4810,
      "▁rates": 4811,
      "ियत": 4812,
      "పాల్,": 4813,
      "েয়ে": 4814,
      "▁rock": 4815,
      "ीकरण": 4816,
      "పుకో": 4817,
      "েরু": 4818,
      "▁regional": 4819,
      "ीक्षण": 4820,
      "పుణులు": 4821,
      "োদ": 4822,
      "▁republic": 4823,
      "ीति": 4824,
      "ప్పుకో": 4825,
      "োহ": 4826,
      "▁sm": 4827,
      "ीव": 4828,
      "ప్పటికినీ": 4829,
      "্রফি,": 4830,
      "▁southern": 4831,
      "ीं।": 4832,
      "ప్రిల్": 4833,
      "০-এর": 4834,
      "▁sultanate": 4835,
      "ुट": 4836,
      "బి": 4837,
      "৪৭": 4838,
      "▁sever": 4839,
      "ुष्क": 4840,
      "బడతారు.": 4841,
      "৮টি": 4842,
      "▁states": 4843,
      "ुलना": 4844,
      "బడింది.": 4845,
      "▁৯": 4846,
      "▁technolog": 4847,
      "ूत": 4848,
      "భరత": 4849,
      "▁(এ": 4850,
      "▁union": 4851,
      "ृत्य": 4852,
      "భవ": 4853,
      "▁(বি": 4854,
      "▁well": 4855,
      "ेक्षा": 4856,
      "భాష": 4857,
      "▁অঞ্চলে": 4858,
      "▁won": 4859,
      "ेज": 4860,
      "మల": 4861,
      "▁অতি": 4862,
      "▁whose": 4863,
      "ॉकी": 4864,
      "మహ": 4865,
      "▁অরণ্য": 4866,
      "ोवियत": 4867,
      "మారు": 4868,
      "▁অনুয": 4869,
      "-g": 4870,
      "ोहन": 4871,
      "మూ": 4872,
      "▁অনুসারে": 4873,
      "-m": 4874,
      "ौसेना": 4875,
      "మే.": 4876,
      "▁আক": 4877,
      "0s,": 4878,
      "ौर्य": 4879,
      "మాజిక,": 4880,
      "▁আফ্রিক": 4881,
      "1%": 4882,
      "्रिय": 4883,
      "మీటర్లకు": 4884,
      "▁আবার": 4885,
      "्लाम": 4886,
      "ము,": 4887,
      "▁আম": 4888,
      "०००": 4889,
      "ముఖ్య": 4890,
      "▁আর্থ": 4891,
      "8.": 4892,
      "१४": 4893,
      "మెర": 4894,
      "▁আধুনিক": 4895,
      "adi": 4896,
      "४०": 4897,
      "మెరిక": 4898,
      "▁আনুমানিক": 4899,
      "ah": 4900,
      "४७": 4901,
      "యమించ": 4902,
      "▁আন্দামান": 4903,
      "ai": 4904,
      "యింది.": 4905,
      "▁আন্দোলনের": 4906,
      "ax": 4907,
      "యాళ": 4908,
      "▁ইন্ডিয়": 4909,
      "act": 4910,
      "యోగిస్త": 4911,
      "▁ইউরোপীয়": 4912,
      "ale": 4913,
      "యోజ": 4914,
      "▁উঠ": 4915,
      "als,": 4916,
      "▁झ": 4917,
      "ర,": 4918,
      "▁উত্থান": 4919,
      "am,": 4920,
      "▁३": 4921,
      "రాజ": 4922,
      "▁উন্ন": 4923,
      "amp": 4924,
      "▁८": 4925,
      "రిగా": 4926,
      "▁উভ": 4927,
      "ani": 4928,
      "▁1950": 4929,
      "రిస్త": 4930,
      "▁উপগ্রহ": 4931,
      "angered": 4932,
      "▁22": 4933,
      "రుగుబాటు": 4934,
      "▁এস": 4935,
      "anted": 4936,
      "రోపా": 4937,
      "▁এশিয়া": 4938,
      "ars": 4939,
      "▁अति": 4940,
      "ర్చ": 4941,
      "▁এশিয়ান": 4942,
      "ashm": 4943,
      "▁अनेक": 4944,
      "ర్ణ": 4945,
      "▁ওঠে।": 4946,
      "ather": 4947,
      "▁अश": 4948,
      "ర్థ్యం": 4949,
      "▁কয়েকটি": 4950,
      "ature": 4951,
      "▁अह": 4952,
      "ర్పు": 4953,
      "▁কাজ": 4954,
      "bian": 4955,
      "▁अमरीकी": 4956,
      "ర్శ": 4957,
      "▁কি": 4958,
      "ble": 4959,
      "▁अवशेष": 4960,
      "ర్షణ": 4961,
      "▁করেছিল": 4962,
      "can": 4963,
      "▁आप": 4964,
      "లంక": 4965,
      "▁করেছে": 4966,
      "cho": 4967,
      "▁आम": 4968,
      "లక్టోరల్": 4969,
      "▁করেন।": 4970,
      "chool": 4971,
      "▁आय": 4972,
      "లయాళ": 4973,
      "▁ক্রয়ক্ষমতা": 4974,
      "de": 4975,
      "▁आस": 4976,
      "లుగా": 4977,
      "▁খনি": 4978,
      "ded": 4979,
      "▁आगमन": 4980,
      "లువ": 4981,
      "▁খেল": 4982,
      "dit": 4983,
      "▁आयात": 4984,
      "లేదు": 4985,
      "▁খ্রিষ্টপূর্ব": 4986,
      "elf": 4987,
      "▁इंदिरा": 4988,
      "లో,": 4989,
      "▁গান্ধী": 4990,
      "ember": 4991,
      "▁इसका": 4992,
      "లోమీటర్లకు": 4993,
      "▁গুরুত্বপূর্ণ": 4994,
      "epend": 4995,
      "▁इसमें": 4996,
      "ల్‌": 4997,
      "▁ঘোষ": 4998,
      "eration": 4999,
      "▁इसे": 5000,
      "ల్‌కాతా": 5001,
      "▁চীন": 5002,
      "ility": 5003,
      "▁इस्लाम": 5004,
      "ళి,": 5005,
      "▁চতুর্থ": 5006,
      "ions,": 5007,
      "▁उष्ण": 5008,
      "ళ్ళ": 5009,
      "▁চারটি": 5010,
      "ising": 5011,
      "▁उसे": 5012,
      "వరి": 5013,
      "▁জনপ্রিয়।": 5014,
      "isl": 5015,
      "▁उत्": 5016,
      "వల్ల": 5017,
      "▁জিডি": 5018,
      "iss": 5019,
      "▁उत्तरी": 5020,
      "వారి": 5021,
      "▁ট্রফি,": 5022,
      "ists": 5023,
      "▁उनकी": 5024,
      "విం": 5025,
      "▁তথ্য": 5026,
      "ived": 5027,
      "▁उनके": 5028,
      "విత్ర": 5029,
      "▁থাক": 5030,
      "ively": 5031,
      "▁उन्हें": 5032,
      "వుతుంది.": 5033,
      "▁থেকেই": 5034,
      "lief": 5035,
      "▁उपयोग": 5036,
      "వులు,": 5037,
      "▁দলের": 5038,
      "loy": 5039,
      "▁ऊँची": 5040,
      "వ్యవస్థ": 5041,
      "▁দেয়।": 5042,
      "mary": 5043,
      "▁कट": 5044,
      "వచ్చని": 5045,
      "▁দেশজ": 5046,
      "mas": 5047,
      "▁कश्मीर": 5048,
      "వాదం": 5049,
      "▁দেশীয়": 5050,
      "mb": 5051,
      "▁किए": 5052,
      "విస్తారు.": 5053,
      "▁দ্বারা": 5054,
      "nown": 5055,
      "▁करती": 5056,
      "శాఖ": 5057,
      "▁দ্বিতীয়": 5058,
      "ons": 5059,
      "▁करते": 5060,
      "శాన": 5061,
      "▁নয়": 5062,
      "ption": 5063,
      "▁कार्यकाल": 5064,
      "శీ": 5065,
      "▁নিদর্শ": 5066,
      "roduc": 5067,
      "▁कार्यपालिका": 5068,
      "శ్": 5069,
      "▁নিকট": 5070,
      "rop": 5071,
      "▁किसी": 5072,
      "శ్ర": 5073,
      "▁পশ্চিমঘাট": 5074,
      "rac": 5075,
      "▁कृषि": 5076,
      "శాన్య": 5077,
      "▁পাতের": 5078,
      "rahm": 5079,
      "▁क्रम": 5080,
      "శ్మీ": 5081,
      "▁পূর্বে": 5082,
      "ript": 5083,
      "▁गुजरा": 5084,
      "షయాలు": 5085,
      "▁পোশাক": 5086,
      "tle": 5087,
      "▁छोटे": 5088,
      "సన": 5089,
      "▁প্রক": 5090,
      "ternal": 5091,
      "▁जमा": 5092,
      "సా": 5093,
      "▁প্রভৃতি": 5094,
      "though": 5095,
      "▁ज़": 5096,
      "సాయ": 5097,
      "▁প্রতিযোগিত": 5098,
      "ue": 5099,
      "▁जाति": 5100,
      "సీ": 5101,
      "▁প্রত্যক্ষ": 5102,
      "uj": 5103,
      "▁जिनमें": 5104,
      "సే": 5105,
      "▁প্রাচীনতম": 5106,
      "urren": 5107,
      "▁जिन्हें": 5108,
      "స్ర": 5109,
      "▁ফেড": 5110,
      "utes": 5111,
      "▁जीवन": 5112,
      "సిద్ధి": 5113,
      "▁বঙ্গ": 5114,
      "val": 5115,
      "▁जैसे": 5116,
      "సియాలో": 5117,
      "▁বন": 5118,
      "▁z": 5119,
      "▁टेलीवि": 5120,
      "స్కరణ": 5121,
      "▁বাম": 5122,
      "▁193": 5123,
      "▁डालर": 5124,
      "స్ట్": 5125,
      "▁বেশ": 5126,
      "▁2.": 5127,
      "▁तनाव": 5128,
      "స్లిం": 5129,
      "▁বসবাস": 5130,
      "▁Af": 5131,
      "▁तरह": 5132,
      "స్వ": 5133,
      "▁বাংলাদেশ": 5134,
      "▁Ara": 5135,
      "▁तीन": 5136,
      "స్తులు": 5137,
      "▁বাণিজ্যিক": 5138,
      "▁Although": 5139,
      "▁तुलना": 5140,
      "స్రాబ్": 5141,
      "▁বিগত": 5142,
      "▁Bhar": 5143,
      "▁दर्": 5144,
      "స్రాబ్ది": 5145,
      "▁বিজয়": 5146,
      "▁Brahm": 5147,
      "▁दिव": 5148,
      "హారం": 5149,
      "▁বিজেপি": 5150,
      "▁CE,": 5151,
      "▁दी": 5152,
      "ాంబ": 5153,
      "▁বিবেচিত": 5154,
      "▁GDP": 5155,
      "▁नम": 5156,
      "ాధ": 5157,
      "▁বিস্তৃত": 5158,
      "▁Kashm": 5159,
      "▁नौसेना": 5160,
      "ాను": 5161,
      "▁বৃদ্ধির": 5162,
      "▁Persian": 5163,
      "▁नागरिक": 5164,
      "ాకీ": 5165,
      "▁ব্যবহৃত": 5166,
      "▁Raj": 5167,
      "▁निम्न": 5168,
      "ాతం": 5169,
      "▁ব্যাপক": 5170,
      "▁Se": 5171,
      "▁नेहर": 5172,
      "ాత్": 5173,
      "▁ভৌগোলিক": 5174,
      "▁Southeast": 5175,
      "▁परिणामस्वरूप": 5176,
      "ాత్మా": 5177,
      "▁ভারতকে": 5178,
      "▁Sanskrit,": 5179,
      "▁परीक्षण": 5180,
      "ానీ": 5181,
      "▁ভাষার": 5182,
      "▁This": 5183,
      "▁परंपरागत": 5184,
      "ాబాదు": 5185,
      "▁ভূখণ্ড": 5186,
      "▁Union": 5187,
      "▁पर्यटन": 5188,
      "ాయు": 5189,
      "▁মর্যাদা": 5190,
      "▁aff": 5191,
      "▁पश्चिमी": 5192,
      "ారిత్ర": 5193,
      "▁মাইল": 5194,
      "▁administr": 5195,
      "▁पाया": 5196,
      "ారిత్రక": 5197,
      "▁মহান": 5198,
      "▁along": 5199,
      "▁पुरुष": 5200,
      "ార్క్": 5201,
      "▁মহাকাশ": 5202,
      "▁ann": 5203,
      "▁पूरा": 5204,
      "ార్త": 5205,
      "▁মানুষের": 5206,
      "▁around": 5207,
      "▁पूरे": 5208,
      "ార్థ": 5209,
      "▁যথাক্রমে": 5210,
      "▁art,": 5211,
      "▁प्रणाली": 5212,
      "ావరాలు": 5213,
      "▁যুদ্ধের": 5214,
      "▁bl": 5215,
      "▁प्रदान": 5216,
      "ాసముద్ర": 5217,
      "▁রাজ্যে": 5218,
      "▁birth": 5219,
      "▁प्रत्येक": 5220,
      "ిర": 5221,
      "▁লাভ": 5222,
      "▁civil": 5223,
      "▁प्रौद्योगिकी": 5224,
      "ింగ్": 5225,
      "▁শ্র": 5226,
      "▁caus": 5227,
      "▁फैली": 5228,
      "ింది": 5229,
      "▁শক্তিধর": 5230,
      "▁char": 5231,
      "▁फ्रां": 5232,
      "ించారు.": 5233,
      "▁শতকে": 5234,
      "▁coalition": 5235,
      "▁बजट": 5236,
      "ించినట్లు": 5237,
      "▁শব্দটি": 5238,
      "▁comple": 5239,
      "▁बदल": 5240,
      "ిక్‌": 5241,
      "▁সকল": 5242,
      "▁conduc": 5243,
      "▁बह": 5244,
      "ిస్తున్న": 5245,
      "▁সফ": 5246,
      "▁consid": 5247,
      "▁बे": 5248,
      "ీకరణ": 5249,
      "▁সভ্য": 5250,
      "▁domin": 5251,
      "▁बढ़ती": 5252,
      "ీక్ష": 5253,
      "▁সুপ": 5254,
      "▁dist": 5255,
      "▁बाहरी": 5256,
      "ీఠభూమ": 5257,
      "▁স্ত": 5258,
      "▁differ": 5259,
      "▁बौद्ध": 5260,
      "ీదగా": 5261,
      "▁সংস্কার": 5262,
      "▁empire": 5263,
      "▁भर": 5264,
      "ీషు": 5265,
      "▁সংস্থা": 5266,
      "▁eth": 5267,
      "▁भागी": 5268,
      "ీర్ణం": 5269,
      "▁সমগ্র": 5270,
      "▁every": 5271,
      "▁भाषाएं": 5272,
      "ుగ": 5273,
      "▁সময়ে": 5274,
      "▁earliest": 5275,
      "▁मिश": 5276,
      "ుల్": 5277,
      "▁সম্ম": 5278,
      "▁education": 5279,
      "▁मी": 5280,
      "ుకొని": 5281,
      "▁সম্প্রদায়": 5282,
      "▁election,": 5283,
      "▁मौर्य": 5284,
      "ుకోబడతారు.": 5285,
      "▁সরকারের": 5286,
      "▁employ": 5287,
      "▁मंत्रिमण्डल": 5288,
      "ుతో": 5289,
      "▁সর্বো": 5290,
      "▁endangered": 5291,
      "▁मिला": 5292,
      "ులకు": 5293,
      "▁সাংস্কৃতিক": 5294,
      "▁establ": 5295,
      "▁मुस्लिम": 5296,
      "ులను": 5297,
      "▁সাধারণতন্ত্র": 5298,
      "▁estim": 5299,
      "▁मैदानी": 5300,
      "ూనది": 5301,
      "▁সাম্রাজ্যের": 5302,
      "▁executive": 5303,
      "▁यहाँ": 5304,
      "ూపాంత": 5305,
      "▁স্থান": 5306,
      "▁famil": 5307,
      "▁रख": 5308,
      "ూర్పు": 5309,
      "▁হয়,": 5310,
      "▁fast": 5311,
      "▁रूस": 5312,
      "ూటాన్": 5313,
      "▁হয়েছিল": 5314,
      "▁five": 5315,
      "▁रहा।": 5316,
      "ూడండి": 5317,
      "▁হলেন": 5318,
      "▁fl": 5319,
      "▁राजवंश": 5320,
      "ెట్": 5321,
      "▁হিমালয়ের": 5322,
      "▁four": 5323,
      "▁राज्यसभा": 5324,
      "ెట్ట": 5325,
      "▁১২": 5326,
      "▁further": 5327,
      "▁लंबे": 5328,
      "ెట్రో": 5329,
      "▁১৯৪৭": 5330,
      "▁formed": 5331,
      "▁लड़ा": 5332,
      "ెర్": 5333,
      "▁২১": 5334,
      "▁gar": 5335,
      "▁लेकर": 5336,
      "ెల్ల": 5337,
      "▁২০১১": 5338,
      "▁glo": 5339,
      "▁लोकप्रिय": 5340,
      "ెస్": 5341,
      "-ক": 5342,
      "▁group": 5343,
      "▁वाली": 5344,
      "ెలకొ": 5345,
      "-ধা": 5346,
      "▁however,": 5347,
      "▁वास्तव": 5348,
      "ెలుచుకోవడం": 5349,
      "-প্র": 5350,
      "▁held": 5351,
      "▁विरोध": 5352,
      "ేజి": 5353,
      "-বি": 5354,
      "▁import": 5355,
      "▁विभाज": 5356,
      "ేయ": 5357,
      "-ম": 5358,
      "▁indi": 5359,
      "▁विशेष": 5360,
      "ైల": 5361,
      "-স": 5362,
      "▁increasing": 5363,
      "▁शक्त": 5364,
      "ోధ": 5365,
      "-২": 5366,
      "▁independ": 5367,
      "▁शक्ति": 5368,
      "ౌక": 5369,
      "-অধ্যুষিত": 5370,
      "▁influenced": 5371,
      "▁शहर": 5372,
      "ౌద్ధ": 5373,
      "-ধাঁচ": 5374,
      "▁kingdom": 5375,
      "▁शहरी": 5376,
      "ౌర": 5377,
      "-বিরো": 5378,
      "▁left": 5379,
      "▁शिक्ष": 5380,
      "్యాయాలు": 5381,
      "-বিরোধী": 5382,
      "▁leading": 5383,
      "▁शुरुआत": 5384,
      "్రై": 5385,
      "νδ": 5386,
      "▁legisl": 5387,
      "▁श्रीलंका": 5388,
      "్రమే": 5389,
      "ঁড়": 5390,
      "▁liber": 5391,
      "▁सफल": 5392,
      "్రాన్": 5393,
      "ঁদের": 5394,
      "▁literacy": 5395,
      "▁सश": 5396,
      "్రామ": 5397,
      "ংহ": 5398,
      "▁mak": 5399,
      "▁सहायक": 5400,
      "్వత్రిక": 5401,
      "আই": 5402,
      "▁men": 5403,
      "▁सूच": 5404,
      "‌సభ": 5405,
      "উথ": 5406,
      "▁middle": 5407,
      "▁सोवियत": 5408,
      "এ)": 5409,
      "▁now": 5410,
      "▁संघीय": 5411,
      "▁=": 5412,
      "এফ": 5413,
      "▁ob": 5414,
      "▁संबंधों": 5415,
      "এস": 5416,
      "▁old": 5417,
      "▁सक्रिय": 5418,
      "▁ఓ": 5419,
      "এলভি": 5420,
      "▁official": 5421,
      "▁सदस्य": 5422,
      "▁ఢిల్లీ": 5423,
      "এসএলভি": 5424,
      "▁peninsular": 5425,
      "▁सदस्यों": 5426,
      "▁ఢిల్లీ,": 5427,
      "কলা": 5428,
      "▁polic": 5429,
      "▁सभ्यता": 5430,
      "▁థ": 5431,
      "ক্য": 5432,
      "▁proc": 5433,
      "▁समझ": 5434,
      "▁ధ": 5435,
      "কালীন": 5436,
      "▁prot": 5437,
      "▁समृद्ध": 5438,
      "▁\"భరత": 5439,
      "কেন্দ্রিক": 5440,
      "▁rise": 5441,
      "▁सां": 5442,
      "▁(0.": 5443,
      "ক্টো": 5444,
      "▁ren": 5445,
      "▁सामरिक": 5446,
      "▁10": 5447,
      "ক্স": 5448,
      "▁resp": 5449,
      "▁सिंधु": 5450,
      "ক্টোবর": 5451,
      "▁record": 5452,
      "▁से,": 5453,
      "▁185": 5454,
      "ক্ষিত": 5455,
      "▁religions": 5456,
      "▁हर": 5457,
      "ক্ষিণাত": 5458,
      "▁rule": 5459,
      "▁हस्त": 5460,
      "খানে": 5461,
      "▁sing": 5462,
      "▁हॉकी": 5463,
      "খিত": 5464,
      "▁sculpture": 5465,
      "▁हिन्दु": 5466,
      "▁29": 5467,
      "খনো": 5468,
      "▁significant": 5469,
      "▁हैं:": 5470,
      "▁26న": 5471,
      "খ্যক": 5472,
      "▁spread": 5473,
      "▁होना": 5474,
      "▁7/": 5475,
      "গঠন": 5476,
      "▁species,": 5477,
      "▁१५": 5478,
      "▁అంతర్జాతీయ": 5479,
      "গুলোর": 5480,
      "▁str": 5481,
      "▁२४": 5482,
      "▁అంద": 5483,
      "গ্রাম": 5484,
      "▁subsequent": 5485,
      "▁२००४": 5486,
      "▁అక్షరాస్యత": 5487,
      "ঘর্ষ": 5488,
      "▁surv": 5489,
      "▁అణ": 5490,
      "ঙ্গাল": 5491,
      "▁system,": 5492,
      ",4": 5493,
      "▁అన్ని": 5494,
      "চনা": 5495,
      "▁tem": 5496,
      "-अ": 5497,
      "▁అప్ప": 5498,
      "চি": 5499,
      "▁tex": 5500,
      "-आ": 5501,
      "▁అమెరిక": 5502,
      "চ্ছে": 5503,
      "▁trib": 5504,
      "-ध": 5505,
      "▁అవి": 5506,
      "ছিন্ন": 5507,
      "▁term": 5508,
      "-पूर्व": 5509,
      "▁అతిపెద్ద": 5510,
      "জ,": 5511,
      "▁three": 5512,
      "-व": 5513,
      "▁అధికారం": 5514,
      "টের": 5515,
      "▁time": 5516,
      "-धीरे": 5517,
      "▁అధికారిక": 5518,
      "ট্ট": 5519,
      "▁times": 5520,
      "-पश्चिम": 5521,
      "▁అయినా,": 5522,
      "ণীর": 5523,
      "▁traditional": 5524,
      "▁ఆహారం": 5525,
      "ণ্য": 5526,
      "▁until": 5527,
      "▁ఆధారపడిన": 5528,
      "তন্ত্র": 5529,
      "▁vari": 5530,
      "▁ఇండో": 5531,
      "তান্ত্রিক": 5532,
      "▁vast": 5533,
      "Ind": 5534,
      "▁ఇక్క": 5535,
      "তিত": 5536,
      "▁vill": 5537,
      "▁ఇటీ": 5538,
      "ত্তি": 5539,
      "▁we": 5540,
      "▁ఇంగ్లీషు": 5541,
      "ত্যন্ত": 5542,
      "▁west": 5543,
      "ns": 5544,
      "▁ఇతరదేశ": 5545,
      "ত্যাদি": 5546,
      "▁wild": 5547,
      "oon": 5548,
      "▁ఇవిక": 5549,
      "দা": 5550,
      "▁win": 5551,
      "▁ఈశాన్య": 5552,
      "দার": 5553,
      "▁widely": 5554,
      "onsoon": 5555,
      "▁ఈస్ట్": 5556,
      "দ্র্য": 5557,
      "▁worn": 5558,
      "ंच": 5559,
      "▁ఉత్తరాన": 5560,
      "দিবাসী": 5561,
      "-b": 5562,
      "ंजन": 5563,
      "▁ఉపయోగిస్త": 5564,
      "দেশি": 5565,
      "-f": 5566,
      "ंती": 5567,
      "▁ఎలక్టోరల్": 5568,
      "দেশে": 5569,
      "-p": 5570,
      "ंथी": 5571,
      "▁ఎన్నుకు": 5572,
      "ধর্ম": 5573,
      "-r": 5574,
      "ंबर": 5575,
      "▁ఎన్నుకోబడతారు.": 5576,
      "ধি": 5577,
      "-s": 5578,
      "ंश": 5579,
      "▁ఎన్నికల్లో": 5580,
      "ধান্য": 5581,
      "-dra": 5582,
      "ंतरिक": 5583,
      "▁ఏక": 5584,
      "ন,": 5585,
      "-dramas": 5586,
      "ंदोलन": 5587,
      "▁ఏప్రిల్": 5588,
      "ন্ব": 5589,
      "0,000": 5590,
      "क,": 5591,
      "▁ఏర్పడ్డాయి.": 5592,
      "নিবেশ": 5593,
      "3%": 5594,
      "काज": 5595,
      "▁ఐరోపా": 5596,
      "ন্ম": 5597,
      "4,": 5598,
      "क्टू": 5599,
      "▁ఒలంప": 5600,
      "ন্তর": 5601,
      "क्टूबर": 5602,
      "▁ఒకటిగా": 5603,
      "ন্ত্রণ": 5604,
      "7%": 5605,
      "क्षरता": 5606,
      "▁కంటే": 5607,
      "ন্নড়": 5608,
      "7.": 5609,
      "खन": 5610,
      "▁కనుక": 5611,
      "ন্যপ": 5612,
      "8,": 5613,
      "गढ़": 5614,
      "▁కనుమ": 5615,
      "ন্যপ্র": 5616,
      "9%": 5617,
      "गति": 5618,
      "▁కబడ్డ": 5619,
      "ন্যপ্রা": 5620,
      "ai,": 5621,
      "गोल": 5622,
      "▁కలు": 5623,
      "পস": 5624,
      "ail": 5625,
      "ग्र": 5626,
      "▁కళ": 5627,
      "পরি": 5628,
      "aist": 5629,
      "जों": 5630,
      "▁కృ": 5631,
      "পসাগ": 5632,
      "ability": 5633,
      "झे": 5634,
      "▁కంపెనీ": 5635,
      "পুঞ্জ": 5636,
      "ably": 5637,
      "टना": 5638,
      "▁కాపాడుకుంటూ": 5639,
      "প্তর": 5640,
      "acted": 5641,
      "टल": 5642,
      "▁కాశ్మీ": 5643,
      "প্রবাহ": 5644,
      "aceut": 5645,
      "ठक": 5646,
      "▁కాంగ్రెస్": 5647,
      "বঙ্গ": 5648,
      "aceutical": 5649,
      "ठा": 5650,
      "▁కారణంగా": 5651,
      "বর্ণ": 5652,
      "ained": 5653,
      "ठार": 5654,
      "▁కార్యక్రమాలు": 5655,
      "বৈচিত্র্য": 5656,
      "aksh": 5657,
      "ठित": 5658,
      "▁కాలంలో,": 5659,
      "বর্তনের": 5660,
      "alley": 5661,
      "डिया": 5662,
      "▁కిలోమీటర్లకు": 5663,
      "বিশিষ্ট": 5664,
      "amic": 5665,
      "डु": 5666,
      "▁కిందకు": 5667,
      "বেল": 5668,
      "amental": 5669,
      "तन": 5670,
      "▁కులాలు,": 5671,
      "বেষণ": 5672,
      "ara": 5673,
      "तपु": 5674,
      "▁కూడి": 5675,
      "ভব": 5676,
      "ash": 5677,
      "त्म": 5678,
      "▁కూడుకొని": 5679,
      "ভাষ": 5680,
      "astri": 5681,
      "त्व": 5682,
      "▁కూడుకుని": 5683,
      "ভে": 5684,
      "ata": 5685,
      "तपुड़ा": 5686,
      "▁కోల్‌కాతా": 5687,
      "ভৌ": 5688,
      "atical": 5689,
      "ता,": 5690,
      "▁క్రీ.పూ.": 5691,
      "ভাগে": 5692,
      "ator": 5693,
      "तांत्रिक": 5694,
      "▁క్రీడలలో": 5695,
      "ভূমির": 5696,
      "aving": 5697,
      "त्ति": 5698,
      "▁క్రీడా": 5699,
      "মিত": 5700,
      "cial": 5701,
      "त्र,": 5702,
      "▁ఖనిజాలు": 5703,
      "মু": 5704,
      "cr": 5705,
      "थान": 5706,
      "▁గంగ": 5707,
      "মাই": 5708,
      "cross": 5709,
      "दाय": 5710,
      "▁గత": 5711,
      "মান্ত": 5712,
      "dually": 5713,
      "दिक": 5714,
      "▁గెలుచుకోవడం": 5715,
      "মেন্ট": 5716,
      "duced": 5717,
      "दों": 5718,
      "▁గణతంత్ర": 5719,
      "ম্নক": 5720,
      "eated": 5721,
      "द्वीप": 5722,
      "▁గోదావర": 5723,
      "ম্পি": 5724,
      "ely": 5725,
      "द्यपि": 5726,
      "▁చదరంగ": 5727,
      "ম্পিউ": 5728,
      "eograph": 5729,
      "द्रोह": 5730,
      "▁చవి": 5731,
      "যান": 5732,
      "equ": 5733,
      "नियों": 5734,
      "▁చారిత్రక": 5735,
      "যুগ": 5736,
      "emb": 5737,
      "नेट": 5738,
      "▁చి": 5739,
      "য়লা": 5740,
      "emocr": 5741,
      "पंथी": 5742,
      "▁చూడండి": 5743,
      "রু": 5744,
      "emocratic": 5745,
      "पान": 5746,
      "▁చెన్నై": 5747,
      "রেশ": 5748,
      "erc": 5749,
      "पास": 5750,
      "▁చెప్పుకో": 5751,
      "রাঞ্চল": 5752,
      "ering": 5753,
      "परेश": 5754,
      "▁చెందాయి.": 5755,
      "রাণ": 5756,
      "ers.": 5757,
      "परेशन": 5758,
      "▁చెందుతున్న": 5759,
      "রুভূমি": 5760,
      "ert": 5761,
      "बूत": 5762,
      "▁చైనా,": 5763,
      "রেশীয়": 5764,
      "erv": 5765,
      "भर": 5766,
      "▁చైనాను": 5767,
      "র্গ": 5768,
      "esc": 5769,
      "मु": 5770,
      "▁జల": 5771,
      "র্ঘ": 5772,
      "ett": 5773,
      "मोहन": 5774,
      "▁జో": 5775,
      "র্ড": 5776,
      "etwork": 5777,
      "यपालिका": 5778,
      "▁జనగణ": 5779,
      "র্ভ": 5780,
      "gen": 5781,
      "यर": 5782,
      "▁జనతా": 5783,
      "র্মস": 5784,
      "gu": 5785,
      "रान": 5786,
      "▁జనవరి": 5787,
      "র্মসূচ": 5788,
      "gy": 5789,
      "रिकी": 5790,
      "▁జనాభాతో": 5791,
      "লক": 5792,
      "han": 5793,
      "री,": 5794,
      "▁జరిగే": 5795,
      "শাল": 5796,
      "harm": 5797,
      "रीब": 5798,
      "▁జరుపుకుంటారు.": 5799,
      "শ্রে": 5800,
      "harmaceutical": 5801,
      "र्मण": 5802,
      "▁జాతులు,": 5803,
      "সঙ্গ": 5804,
      "here": 5805,
      "लिस": 5806,
      "▁టైటి": 5807,
      "সল": 5808,
      "hedul": 5809,
      "ल्": 5810,
      "▁తత్వ": 5811,
      "সা": 5812,
      "ico": 5813,
      "ली,": 5814,
      "▁తర్వ": 5815,
      "সিয়": 5816,
      "ident,": 5817,
      "वत": 5818,
      "▁తూర్పు": 5819,
      "স্ব": 5820,
      "ified": 5821,
      "वेश": 5822,
      "▁తె": 5823,
      "সরকার": 5824,
      "igr": 5825,
      "व्य": 5826,
      "▁తే": 5827,
      "সিসি": 5828,
      "imately": 5829,
      "सम": 5830,
      "▁తిరుగుబాటు": 5831,
      "সেনা": 5832,
      "ined": 5833,
      "सूच": 5834,
      "▁తెలుగు,": 5835,
      "স্থানীয়": 5836,
      "ines,": 5837,
      "सों": 5838,
      "▁దేశపు": 5839,
      "হকারী": 5840,
      "ining": 5841,
      "हारी": 5842,
      "▁దేశం.": 5843,
      "হিন্দি": 5844,
      "ingh": 5845,
      "हित": 5846,
      "▁నాయక": 5847,
      "াকৃতিক": 5848,
      "ion,": 5849,
      "हित्य": 5850,
      "▁నె": 5851,
      "াগত": 5852,
      "ism.": 5853,
      "होंने": 5854,
      "▁నెలకొ": 5855,
      "াগোষ্ঠ": 5856,
      "itect": 5857,
      "ाइन": 5858,
      "▁నగరాలు": 5859,
      "াজিক": 5860,
      "ites": 5861,
      "ाटी": 5862,
      "▁నిడివి": 5863,
      "াতে": 5864,
      "iving": 5865,
      "ा।": 5866,
      "▁నిపుణులు": 5867,
      "াত্ত": 5868,
      "ks": 5869,
      "ागर": 5870,
      "▁నియమించ": 5871,
      "াদশ": 5872,
      "liance": 5873,
      "ातार": 5874,
      "▁నిర్వహించింది.": 5875,
      "ানির": 5876,
      "lied": 5877,
      "ानी": 5878,
      "▁నేపాల్,": 5879,
      "ানুয়ারি": 5880,
      "lif": 5881,
      "ामिल": 5882,
      "▁న్యాయవ్యవస్థ": 5883,
      "াপি": 5884,
      "miss": 5885,
      "ारख": 5886,
      "▁పక్కన": 5887,
      "াপেক্ষা": 5888,
      "mitt": 5889,
      "ारे": 5890,
      "▁పతాక": 5891,
      "াবি": 5892,
      "o.": 5893,
      "ार्द": 5894,
      "▁పర్వ": 5895,
      "াবাডি": 5896,
      "otion": 5897,
      "ालदी": 5898,
      "▁పలు": 5899,
      "ারক": 5900,
      "oci": 5901,
      "ाली,": 5902,
      "▁పల్ల": 5903,
      "ারিত": 5904,
      "old": 5905,
      "ासागर": 5906,
      "▁పవిత్ర": 5907,
      "ারী।": 5908,
      "ole": 5909,
      "िएशन": 5910,
      "▁పార్": 5911,
      "ার্চ": 5912,
      "olence": 5913,
      "ियर": 5914,
      "▁పీఠభూమ": 5915,
      "ার্ষ": 5916,
      "olid": 5917,
      "ियस": 5918,
      "▁పండుగలు": 5919,
      "ারিদ্র্য": 5920,
      "ommon": 5921,
      "ियो": 5922,
      "▁పట్టణాలు,": 5923,
      "ার্সি": 5924,
      "ones": 5925,
      "िरपेक्ष": 5926,
      "▁పరీక్ష": 5927,
      "ার্ষিক": 5928,
      "orn": 5929,
      "िवार": 5930,
      "▁పర్యాయాలు": 5931,
      "াশ্ম": 5932,
      "orter": 5933,
      "ीक": 5934,
      "▁పరిపాలన": 5935,
      "াশ্মীর": 5936,
      "ortion": 5937,
      "ीपी": 5938,
      "▁పశ్చిమాన": 5939,
      "াসাগ": 5940,
      "ouch": 5941,
      "ुक": 5942,
      "▁పాకిస్థాన్,": 5943,
      "াহি": 5944,
      "ouse": 5945,
      "ूह": 5946,
      "▁పార్టీ,": 5947,
      "িআ": 5948,
      "pro": 5949,
      "ूल्य": 5950,
      "▁పాలనలో": 5951,
      "িষ্ঠিত": 5952,
      "row": 5953,
      "ृद्धि": 5954,
      "▁పాలించారు.": 5955,
      "িস": 5956,
      "ry,": 5957,
      "ेड": 5958,
      "▁పుట్టి": 5959,
      "িল্লি": 5960,
      "ravi": 5961,
      "ेंद्र": 5962,
      "▁పూర్వ": 5963,
      "ীড়": 5964,
      "ravidian": 5965,
      "ैर-": 5966,
      "▁పేరు,": 5967,
      "ীমান্ত": 5968,
      "reme": 5969,
      "ैनिक": 5970,
      "▁పేర్లు": 5971,
      "ীত।": 5972,
      "reasing": 5973,
      "ोने": 5974,
      "▁ప్రకారం": 5975,
      "ীতি।": 5976,
      "rial": 5977,
      "ोवा": 5978,
      "▁ప్రత్య": 5979,
      "ীববৈচিত্র্য": 5980,
      "rica": 5981,
      "ोंड": 5982,
      "▁ప్రయోజ": 5983,
      "ুগু": 5984,
      "rox": 5985,
      "ौहार्द": 5986,
      "▁ప్రసిద్ధి": 5987,
      "ুটি": 5988,
      "roximately": 5989,
      "्ञान": 5990,
      "▁ప్రజలు": 5991,
      "ুক্তি": 5992,
      "scri": 5993,
      "्टाफ": 5994,
      "▁ప్రజాదరణ": 5995,
      "ৃদ্ধি": 5996,
      "tal": 5997,
      "५२": 5998,
      "▁ప్రతిప": 5999,
      "ৃষ্টি": 6000,
      "touch": 6001,
      "८५": 6002,
      "▁ప్రతిపాదనకు": 6003,
      "ৃহ": 6004,
      "ty,": 6005,
      "▁ప్రపంచములో": 6006,
      "ৃত্ব": 6007,
      "uary": 6008,
      "▁टी": 6009,
      "▁ప్రపంచంలోని": 6010,
      "েদের": 6011,
      "ued": 6012,
      "▁ठ": 6013,
      "▁ప్రభుత్వం": 6014,
      "েন্": 6015,
      "ulti": 6016,
      "▁।": 6017,
      "▁ప్రభుత్వాన్ని": 6018,
      "োতি": 6019,
      "ulting": 6020,
      "▁७": 6021,
      "▁ప్రముఖమైన": 6022,
      "োপসাগ": 6023,
      "undamental": 6024,
      "▁९": 6025,
      "▁ప్రాంతాల్లో": 6026,
      "োবেল": 6027,
      "urned": 6028,
      "▁‘": 6029,
      "▁ప్రాంతీయ": 6030,
      "োজক": 6031,
      "ured": 6032,
      "▁(०,": 6033,
      "▁ప్రారంభించ": 6034,
      "োজিত": 6035,
      "vention": 6036,
      "▁ఫల": 6037,
      "্ছিন্ন": 6038,
      "wan": 6039,
      "▁1960": 6040,
      "▁బంగారు": 6041,
      "্নে": 6042,
      "ward": 6043,
      "▁1962": 6044,
      "▁బౌద్ధ": 6045,
      "্বভৌ": 6046,
      "–2": 6047,
      "▁1965,": 6048,
      "▁బంగ్లాదేశ్‌": 6049,
      "্বিক": 6050,
      "▁Y": 6051,
      "▁1980": 6052,
      "▁బ్రిటీ": 6053,
      "্যাস": 6054,
      "▁er": 6055,
      "▁1999": 6056,
      "▁బ్రిటిషు": 6057,
      "্যোতি": 6058,
      "▁qu": 6059,
      "▁अक्टूबर": 6060,
      "▁బ్రిటిష్": 6061,
      "্যাড": 6062,
      "▁ve": 6063,
      "▁अच्छ": 6064,
      "▁భక్తి": 6065,
      "্রন্ট": 6066,
      "▁(c": 6067,
      "▁अधि": 6068,
      "▁భూటాన్": 6069,
      "্রাট": 6070,
      "▁अर्": 6071,
      "▁భాగాన్ని": 6072,
      "্রো": 6073,
      "▁13": 6074,
      "▁अगस्त": 6075,
      "▁భారతదేశం.": 6076,
      "০০০": 6077,
      "▁1200": 6078,
      "▁अनुसूच": 6079,
      "▁భారత్,": 6080,
      "১৭": 6081,
      "▁1950,": 6082,
      "▁अन्ततः": 6083,
      "▁భాషలను": 6084,
      "২টি": 6085,
      "▁50": 6086,
      "▁अन्तर्": 6087,
      "▁భాషా": 6088,
      "৪৫": 6089,
      "▁Africa": 6090,
      "▁अपेक्षा": 6091,
      "▁భౌగోళిక": 6092,
      "Ἰνδ": 6093,
      "▁All": 6094,
      "▁अभियान": 6095,
      "▁మంత్ర": 6096,
      "▁ঠ": 6097,
      "▁Ancient": 6098,
      "▁अमे": 6099,
      "▁మర": 6100,
      "▁ষ": 6101,
      "▁Asia,": 6102,
      "▁अल्प": 6103,
      "▁మరో": 6104,
      "▁(পূর্ব": 6105,
      "▁Asian": 6106,
      "▁अवधि": 6107,
      "▁మలయాళ": 6108,
      "▁(হিন্দি": 6109,
      "▁Ass": 6110,
      "▁अवस": 6111,
      "▁మాన": 6112,
      "▁(০": 6113,
      "▁Bh": 6114,
      "▁असम": 6115,
      "▁మీదగా": 6116,
      "▁(১": 6117,
      "▁Bi": 6118,
      "▁अहिं": 6119,
      "▁మతాలు": 6120,
      "▁(২": 6121,
      "▁BCE,": 6122,
      "▁आंतरिक": 6123,
      "▁మహాత్మా": 6124,
      "▁(Ἰνδ": 6125,
      "▁Bharat": 6126,
      "▁आंदोलन": 6127,
      "▁మహాసముద్ర": 6128,
      "▁(এন": 6129,
      "▁Buddhism": 6130,
      "▁आते": 6131,
      "▁మహిళ": 6132,
      "▁অগ্র": 6133,
      "▁Civil": 6134,
      "▁आर": 6135,
      "▁మాట్లాడే": 6136,
      "▁অত্যন্ত": 6137,
      "▁Constit": 6138,
      "▁आकर्मण": 6139,
      "▁మాత్రమే": 6140,
      "▁অভ": 6141,
      "▁Dec": 6142,
      "▁आगे": 6143,
      "▁ముడి": 6144,
      "▁অস্ত্র": 6145,
      "▁Des": 6146,
      "▁आसपास": 6147,
      "▁ముస్లిం": 6148,
      "▁অ্যাড": 6149,
      "▁Dravidian": 6150,
      "▁ईद": 6151,
      "▁ముఖ్యంగా": 6152,
      "▁অধিষ্ঠিত": 6153,
      "▁European": 6154,
      "▁ईस्ट": 6155,
      "▁మొగలు": 6156,
      "▁অনুযায়ী": 6157,
      "▁Ghat": 6158,
      "▁उत्तर-पश्चिम": 6159,
      "▁మౌర్య": 6160,
      "▁অবদান": 6161,
      "▁Gree": 6162,
      "▁उनका": 6163,
      "▁రకాలు": 6164,
      "▁আদিবাসী": 6165,
      "▁Guj": 6166,
      "▁उभरा": 6167,
      "▁రచయిత": 6168,
      "▁আবাস": 6169,
      "▁Gup": 6170,
      "▁ऊपर": 6171,
      "▁రి": 6172,
      "▁আর": 6173,
      "▁However,": 6174,
      "▁ऊँचाई": 6175,
      "▁రూప": 6176,
      "▁আরব": 6177,
      "▁Himalayas": 6178,
      "▁एन": 6179,
      "▁రూపాంత": 6180,
      "▁আসে": 6181,
      "▁Hinduism": 6182,
      "▁ऑपरेशन": 6183,
      "▁రాజు": 6184,
      "▁আগে": 6185,
      "▁Hinduism,": 6186,
      "▁ऑफ": 6187,
      "▁రాజ్యంగా": 6188,
      "▁আদালতের": 6189,
      "▁Hindust": 6190,
      "▁कंप": 6191,
      "▁రాజ్యాంగం": 6192,
      "▁ইত্যাদি": 6193,
      "▁Indo-A": 6194,
      "▁कप": 6195,
      "▁రాజ్యాలుగా": 6196,
      "▁ইউনিয়": 6197,
      "▁January": 6198,
      "▁कटिबंधीय": 6199,
      "▁రాష్ట్రాలు,": 6200,
      "▁ইউরেশীয়": 6201,
      "▁Kashmir": 6202,
      "▁कमांड": 6203,
      "▁రెండవ": 6204,
      "▁উঠে": 6205,
      "▁Many": 6206,
      "▁करे": 6207,
      "▁రెండో": 6208,
      "▁উদ্ভব": 6209,
      "▁Mo": 6210,
      "▁करो": 6211,
      "▁రైల్వేశాఖ": 6212,
      "▁উদ্ভি": 6213,
      "▁Maur": 6214,
      "▁कामकाज": 6215,
      "▁లకు": 6216,
      "▁উন্নয়ন": 6217,
      "▁Nuclear": 6218,
      "▁केंद्रीय": 6219,
      "▁లా": 6220,
      "▁উপনিবেশ": 6221,
      "▁Par": 6222,
      "▁केन्द्रशासित": 6223,
      "▁లె": 6224,
      "▁উপমহাদেশের": 6225,
      "▁Pakistan.": 6226,
      "▁क्रय": 6227,
      "▁లౌక": 6228,
      "▁উৎপাদ": 6229,
      "▁Plateau": 6230,
      "▁क्षेत्रों": 6231,
      "▁లోక్‌సభ": 6232,
      "▁এগুলি": 6233,
      "▁Punjab,": 6234,
      "▁गैर-": 6235,
      "▁వం": 6236,
      "▁এদেশের": 6237,
      "▁Re": 6238,
      "▁गोंड": 6239,
      "▁వాయు": 6240,
      "▁একই": 6241,
      "▁Singh": 6242,
      "▁गया,": 6243,
      "▁వెల్ల": 6244,
      "▁কলক": 6245,
      "▁States": 6246,
      "▁गुजरात": 6247,
      "▁వ్య": 6248,
      "▁কাবাডি": 6249,
      "▁Their": 6250,
      "▁घाटी": 6251,
      "▁వలన": 6252,
      "▁কার্য": 6253,
      "▁Valley": 6254,
      "▁घोषित": 6255,
      "▁వలస": 6256,
      "▁কাশ্মীর": 6257,
      "▁West": 6258,
      "▁चर": 6259,
      "▁వాహ": 6260,
      "▁কের": 6261,
      "▁about": 6262,
      "▁విధ": 6263,
      "▁কারণে": 6264,
      "▁again": 6265,
      "▁విమాన": 6266,
      "▁কৃষি": 6267,
      "▁ago.": 6268,
      "▁విలువ": 6269,
      "▁কোম্পানি": 6270,
      "▁agricultural": 6271,
      "▁విషయాలు": 6272,
      "▁ক্রম": 6273,
      "▁agriculture": 6274,
      "▁విద్యుత్": 6275,
      "▁ক্ষমতা": 6276,
      "▁approximately": 6277,
      "▁విశ్వ": 6278,
      "▁খ্রিস্ট": 6279,
      "▁architect": 6280,
      "▁వేద": 6281,
      "▁খ্রিষ্টীয়": 6282,
      "▁areas.": 6283,
      "▁వేల": 6284,
      "▁খ্রিষ্টপূর্বাব্দ": 6285,
      "▁body": 6286,
      "▁వ్యాపార": 6287,
      "▁গবেষণ": 6288,
      "▁before": 6289,
      "▁శి": 6290,
      "▁গু": 6291,
      "▁below": 6292,
      "▁శాసన": 6293,
      "▁গৌ": 6294,
      "▁called": 6295,
      "▁శెలవుదినాలు": 6296,
      "▁গ্রিক": 6297,
      "▁can": 6298,
      "▁సిక్": 6299,
      "▁গণিত": 6300,
      "▁che": 6301,
      "▁సంస్కరణ": 6302,
      "▁গাছ": 6303,
      "▁creat": 6304,
      "▁సంకీర్ణ": 6305,
      "▁গ্রাম": 6306,
      "▁cult": 6307,
      "▁సంవత్సర": 6308,
      "▁চালু": 6309,
      "▁curren": 6310,
      "▁సభను": 6311,
      "▁চুক্তি": 6312,
      "▁capit": 6313,
      "▁సభ్యులు": 6314,
      "▁ছোট": 6315,
      "▁census": 6316,
      "▁సమరం": 6317,
      "▁জাতি": 6318,
      "▁changes": 6319,
      "▁సమాజ": 6320,
      "▁জীববৈচিত্র্য": 6321,
      "▁cities": 6322,
      "▁సమాఖ్య.": 6323,
      "▁জু": 6324,
      "▁commercial": 6325,
      "▁సముద్రతీ": 6326,
      "▁জ্যোতি": 6327,
      "▁commonly": 6328,
      "▁సరిహద్దు": 6329,
      "▁জনতা": 6330,
      "▁composed": 6331,
      "▁సహస్రాబ్ది": 6332,
      "▁জিডিপি": 6333,
      "▁conducted": 6334,
      "▁సాంకేతిక": 6335,
      "▁ডে": 6336,
      "▁consolid": 6337,
      "▁సామాజిక,": 6338,
      "▁ডলারের": 6339,
      "▁continued": 6340,
      "▁సాధించిన": 6341,
      "▁তবে": 6342,
      "▁contribution": 6343,
      "▁సామర్థ్యం": 6344,
      "▁তাই": 6345,
      "▁cooked": 6346,
      "▁సారస్వ": 6347,
      "▁তথা": 6348,
      "▁cooking": 6349,
      "▁సార్వత్రిక": 6350,
      "▁তেলুগু": 6351,
      "▁crust": 6352,
      "▁సింధూనది": 6353,
      "▁থর": 6354,
      "▁dances": 6355,
      "▁సినిమాలు": 6356,
      "▁দায়": 6357,
      "▁der": 6358,
      "▁సూచించినట్లు": 6359,
      "▁দারিদ্র্য": 6360,
      "▁dance-dramas": 6361,
      "▁సైనిక": 6362,
      "▁দশকে": 6363,
      "▁decades": 6364,
      "▁సౌకర్యాలలో": 6365,
      "▁দশকগুলিতে": 6366,
      "▁developed": 6367,
      "▁సౌకర్యాలు": 6368,
      "▁দশকের": 6369,
      "▁development": 6370,
      "▁స్త్రీలు": 6371,
      "▁দাঁড়": 6372,
      "▁diverse": 6373,
      "▁స్థా": 6374,
      "▁দাক্ষিণাত": 6375,
      "▁different": 6376,
      "▁స్థావరాలు": 6377,
      "▁দেশ।": 6378,
      "▁directly": 6379,
      "▁స్థానం": 6380,
      "▁দৈনিক": 6381,
      "▁equ": 6382,
      "▁స్థానంలో": 6383,
      "▁দ্বীপপুঞ্জ": 6384,
      "▁enacted": 6385,
      "▁స్థానాలను": 6386,
      "▁ধার": 6387,
      "▁established": 6388,
      "▁స్వీ": 6389,
      "▁ধর্মীয়": 6390,
      "▁estimated": 6391,
      "▁స్వాతంత్ర్యం": 6392,
      "▁নদ": 6393,
      "▁exc": 6394,
      "▁హాకీ": 6395,
      "▁না": 6396,
      "▁exch": 6397,
      "▁హైదర": 6398,
      "▁নাটক": 6399,
      "▁external": 6400,
      "▁নান": 6401,
      "▁extant": 6402,
      "%).": 6403,
      "▁নীতি": 6404,
      "▁extens": 6405,
      "▁নোবেল": 6406,
      "▁fam": 6407,
      "):": 6408,
      "▁নৌ": 6409,
      "▁flow": 6410,
      ",01": 6411,
      "▁নিম্নক": 6412,
      "▁fundamental": 6413,
      ",2": 6414,
      "▁নিযুক্ত": 6415,
      "▁families": 6416,
      ",5": 6417,
      "▁নিজেদের": 6418,
      "▁features": 6419,
      ",9": 6420,
      "▁নিয়ন্ত্রণ": 6421,
      "▁figure": 6422,
      ",000,000": 6423,
      "▁নিরপেক্ষ": 6424,
      "▁foreign": 6425,
      ",01,9": 6426,
      "▁নির্বাচনে": 6427,
      "▁global": 6428,
      ",01,93,": 6429,
      "▁পতিত": 6430,
      "▁greater": 6431,
      ",01,93,42": 6432,
      "▁পাল": 6433,
      "▁his": 6434,
      ",01,93,422": 6435,
      "▁পালিত": 6436,
      "▁head": 6437,
      ",01,93,422.": 6438,
      "▁পি": 6439,
      "▁here": 6440,
      ",26": 6441,
      "▁পু": 6442,
      "▁important": 6443,
      ",263": 6444,
      "▁পুন": 6445,
      "▁invol": 6446,
      ",517": 6447,
      "▁পেয়ে": 6448,
      "▁indigen": 6449,
      "-ఆ": 6450,
      "▁পৌ": 6451,
      "▁industry": 6452,
      "-ఇ": 6453,
      "▁পরিমাণ": 6454,
      "▁influence": 6455,
      "-ఖ": 6456,
      "▁পরিচাল": 6457,
      "▁introduc": 6458,
      "-ట": 6459,
      "▁পরিষেবা": 6460,
      "▁just": 6461,
      "-ద": 6462,
      "▁পরীক্ষণ": 6463,
      "▁known": 6464,
      "-దేశ": 6465,
      "▁পরেই": 6466,
      "▁kingdoms": 6467,
      "-ఆర్య": 6468,
      "▁পশ্চিমে": 6469,
      "▁lay": 6470,
      "-ఆర్యన్": 6471,
      "▁পশ্চিমবঙ্গ": 6472,
      "▁lo": 6473,
      "-ఆర్యన్,": 6474,
      "▁প্রজাতি": 6475,
      "▁languag": 6476,
      "-ఇస్త": 6477,
      "▁প্রব": 6478,
      "▁member": 6479,
      "-ఇస్తాంబ": 6480,
      "▁প্রবর্তিত": 6481,
      "▁mon": 6482,
      "-ఇస్తాంబుల్": 6483,
      "▁প্রশাস": 6484,
      "▁meat": 6485,
      "-ఖో": 6486,
      "▁প্রাকৃতিক": 6487,
      "▁mid-": 6488,
      "-ఖో,": 6489,
      "▁প্রতিষ্ঠ": 6490,
      "▁minister.": 6491,
      "-టెహ": 6492,
      "▁প্রতিষ্ঠিত": 6493,
      "▁nat": 6494,
      "-టెహ్రాన్": 6495,
      "▁প্রধানমন্ত্র": 6496,
      "▁near": 6497,
      "-టెహ్రాన్-ఇస్తాంబుల్": 6498,
      "▁প্রাণী": 6499,
      "▁oldest": 6500,
      "-దండా": 6501,
      "▁প্রাধান্য": 6502,
      "▁pharmaceutical": 6503,
      "-దండా)": 6504,
      "▁ফিল": 6505,
      "▁pract": 6506,
      "-దేశాలు.": 6507,
      "▁ফেডারেশন": 6508,
      "▁public": 6509,
      ".2": 6510,
      "▁বন্যপ্রা": 6511,
      "▁partition": 6512,
      ".30": 6513,
      "▁বর্ণ": 6514,
      "▁place": 6515,
      ".8": 6516,
      "▁বর্ধনশীল": 6517,
      "▁plate": 6518,
      ".ఇ": 6519,
      "▁বহি": 6520,
      "▁play": 6521,
      ".ఈ": 6522,
      "▁বার্ষিক": 6523,
      "▁poll": 6524,
      ".క": 6525,
      "▁বঙ্গোপসাগ": 6526,
      "▁prov": 6527,
      "..).": 6528,
      "▁বছরের": 6529,
      "▁reduced": 6530,
      "...": 6531,
      "▁বন্যা": 6532,
      "▁ret": 6533,
      ".23": 6534,
      "▁বাজ": 6535,
      "▁recorded": 6536,
      ".23%).": 6537,
      "▁বায়ুপ্রবাহ": 6538,
      "▁reform": 6539,
      ".30%),": 6540,
      "▁বিংশ": 6541,
      "▁regions": 6542,
      ".70": 6543,
      "▁বিদেশি": 6544,
      "▁religion": 6545,
      ".72": 6546,
      "▁বিচ্ছিন্ন": 6547,
      "▁renew": 6548,
      ".70%),": 6549,
      "▁বিচারব্যবস্থা": 6550,
      "▁resulting": 6551,
      ".72%),": 6552,
      "▁বিজ্ঞান": 6553,
      "▁rights": 6554,
      ".80%": 6555,
      "▁বিভক্ত।": 6556,
      "▁rule.": 6557,
      ".ఇ,": 6558,
      "▁বিষয়": 6559,
      "▁saf": 6560,
      ".కి.": 6561,
      "▁বিস্তৃত।": 6562,
      "▁school": 6563,
      ".కి.మీ": 6564,
      "▁বৃহৎ": 6565,
      "▁so": 6566,
      "/G": 6567,
      "▁বেসরকার": 6568,
      "▁sum": 6569,
      "04%,": 6570,
      "▁বৈচিত্র্যময়": 6571,
      "▁secular": 6572,
      "00,000": 6573,
      "▁ব্যবস্থার": 6574,
      "▁serv": 6575,
      "003": 6576,
      "▁ভরত": 6577,
      "▁show": 6578,
      "003–": 6579,
      "▁ভিত্ত": 6580,
      "▁single": 6581,
      "003–2": 6582,
      "▁ভিন্ন": 6583,
      "▁small": 6584,
      "003–2004": 6585,
      "▁ভাষাগোষ্ঠ": 6586,
      "▁societ": 6587,
      "010": 6588,
      "▁ভূমিক": 6589,
      "▁south-": 6590,
      "1,01,93,422.": 6591,
      "▁মন্ত্রী": 6592,
      "▁sport": 6593,
      "14%,": 6594,
      "▁মরুভূমি": 6595,
      "▁species": 6596,
      "16": 6597,
      "▁মাত্র": 6598,
      "▁ste": 6599,
      "16;": 6600,
      "▁মুসলমান": 6601,
      "▁tax": 6602,
      "17.23%).": 6603,
      "▁মধ্যবর্তী": 6604,
      "▁technology": 6605,
      "17;": 6606,
      "▁মহাসাগ": 6607,
      "▁third-largest": 6608,
      "1లోను": 6609,
      "▁মহানগর": 6610,
      "▁thought": 6611,
      "▁মাঝ": 6612,
      "▁took": 6613,
      "2,14%,": 6614,
      "▁মাথ": 6615,
      "▁traditionally": 6616,
      "2,8": 6617,
      "▁যন্ত্র": 6618,
      "▁upper": 6619,
      "2,87": 6620,
      "▁যুক্তরাষ্ট্রীয়": 6621,
      "▁waist": 6622,
      "2,87,263": 6623,
      "▁যুগের": 6624,
      "▁wear": 6625,
      "3.72%),": 6626,
      "▁রন্ধন": 6627,
      "▁when": 6628,
      "3.80%": 6629,
      "▁রয়েছে।": 6630,
      "▁writ": 6631,
      "32,87,263": 6632,
      "▁রাজ্যের": 6633,
      "▁within": 6634,
      "36": 6635,
      "▁রাষ্ট্রে": 6636,
      "\".": 6637,
      "3,04%,": 6638,
      "▁রূপে": 6639,
      "36%),": 6640,
      "▁শিখ": 6641,
      "46": 6642,
      "▁শিশ": 6643,
      "-di": 6644,
      "4లో,": 6645,
      "▁শেষ": 6646,
      "-k": 6647,
      "46)": 6648,
      "▁শহরে": 6649,
      "2%": 6650,
      "5%": 6651,
      "▁শাসনাধীন": 6652,
      "2.": 6653,
      "5.30%),": 6654,
      "▁সারা": 6655,
      "201": 6656,
      "52": 6657,
      "▁সীমান্ত": 6658,
      "400": 6659,
      "56": 6660,
      "▁সূ": 6661,
      "8%": 6662,
      "5న": 6663,
      "▁সৃষ্টি": 6664,
      "8–2": 6665,
      "5,7": 6666,
      "▁সেই": 6667,
      "DA": 6668,
      "5,7%.": 6669,
      "▁স্": 6670,
      "European": 6671,
      "65,": 6672,
      "▁সংঘর্ষ": 6673,
      "HO": 6674,
      "652": 6675,
      "▁সংখ্যাগর": 6676,
      "PA": 6677,
      "62లో": 6678,
      "▁সংসদের": 6679,
      "after": 6680,
      "8.70%),": 6681,
      "▁সংসদীয়": 6682,
      "aic": 6683,
      "8లో": 6684,
      "▁সংস্কৃতিতে": 6685,
      "aren": 6686,
      "9%)": 6687,
      "▁সংস্কৃতির": 6688,
      "abad": 6689,
      "9,000": 6690,
      "▁সভ্যতার": 6691,
      "abit": 6692,
      "AL": 6693,
      "▁সমর্থ": 6694,
      "abitat": 6695,
      "C,": 6696,
      "▁সময়কালের": 6697,
      "ables,": 6698,
      "HZ": 6699,
      "▁সম্মিল": 6700,
      "aced": 6701,
      "IN": 6702,
      "▁সর্বাপেক্ষা": 6703,
      "ached": 6704,
      "IN):": 6705,
      "▁সর্বোচ্চ": 6706,
      "acter": 6707,
      "PAL": 6708,
      "▁সহায়": 6709,
      "adesh": 6710,
      "PIN):": 6711,
      "▁সাউথ": 6712,
      "ales": 6713,
      "SI": 6714,
      "▁সাগর": 6715,
      "ali": 6716,
      "Ty": 6717,
      "▁সাথে": 6718,
      "ality": 6719,
      "Typ": 6720,
      "▁সার্বভৌ": 6721,
      "alw": 6722,
      "Type": 6723,
      "▁সাহিত্যিক": 6724,
      "allav": 6725,
      "V;": 6726,
      "▁সিংহ": 6727,
      "ally,": 6728,
      "ం\",": 6729,
      "▁স্তন্যপ": 6730,
      "ample": 6731,
      "ం....": 6732,
      "▁স্থানীয়": 6733,
      "amee": 6734,
      "ంకణి": 6735,
      "▁স্থাপন": 6736,
      "ameez": 6737,
      "ంకెలు": 6738,
      "▁স্থাপিত": 6739,
      "anag": 6740,
      "ంకణి;": 6741,
      "▁স্বাধীনতার": 6742,
      "anch": 6743,
      "ంకాగా": 6744,
      "▁হয়;": 6745,
      "ann": 6746,
      "ంకెలు.": 6747,
      "▁হয়েছিল।": 6748,
      "anced": 6749,
      "ంగంగా": 6750,
      "▁হিন্দি": 6751,
      "and,": 6752,
      "ంగల": 6753,
      "▁হিন্দু,": 6754,
      "anding": 6755,
      "ంగానికి": 6756,
      "▁১৭": 6757,
      "anged": 6758,
      "ంగాళ": 6759,
      "▁১৮": 6760,
      "angl": 6761,
      "ంగాళాఖ": 6762,
      "▁১৯৬": 6763,
      "angladesh": 6764,
      "ంగాళాఖాతం": 6765,
      "▁১৯৯০-এর": 6766,
      "aries": 6767,
      "ంగ్లేయ": 6768,
      "▁১৯৯৬": 6769,
      "arly": 6770,
      "ంగ్లేయులు": 6771,
      "▁১৯৯৮": 6772,
      "aro,": 6773,
      "ంగ్లేయులు)": 6774,
      "▁২০০৭": 6775,
      "assing": 6776,
      "ంచిన": 6777,
      "▁২০০৮": 6778,
      "ates,": 6779,
      "ంచే": 6780,
      "▁৩৩": 6781,
      "ats": 6782,
      "ంజాబ": 6783,
      "▁৫৫": 6784,
      "avi": 6785,
      "ంజూరు": 6786,
      "▁৭৪": 6787,
      "avour": 6788,
      "ంజాబీ;": 6789,
      "%)।": 6790,
      "aws": 6791,
      "ంటర": 6792,
      "%।": 6793,
      "bar": 6794,
      "ంటార్క్": 6795,
      "'।": 6796,
      "bell": 6797,
      "ంటిప": 6798,
      "))": 6799,
      "bellion": 6800,
      "ంటైన": 6801,
      ",৩": 6802,
      "cast": 6803,
      "ంటరీ": 6804,
      ",৫": 6805,
      "ced": 6806,
      "ంటార్క్‌": 6807,
      ",৫১৭": 6808,
      "cean": 6809,
      "ంటార్క్‌టిక": 6810,
      ",৬৭": 6811,
      "ctions": 6812,
      "ంటార్క్‌టికాలో": 6813,
      ",৬৭১": 6814,
      "daro,": 6815,
      "ంటిపే": 6816,
      "-উ": 6817,
      "ds": 6818,
      "ంటిపేర్": 6819,
      "-চ": 6820,
      "diately": 6821,
      "ంటిపేర్లు": 6822,
      "-তে": 6823,
      "die": 6824,
      "ంటున్నది.": 6825,
      "-যুক্ত": 6826,
      "dient": 6827,
      "ంటున్నారు.": 6828,
      "-সাম": 6829,
      "dieval": 6830,
      "ంటైనెర్": 6831,
      "-আয়": 6832,
      "ditional": 6833,
      "ంటో,": 6834,
      "-আয়োজক": 6835,
      "edic": 6836,
      "ంటోంది.": 6837,
      "-চীন": 6838,
      "eign": 6839,
      "ండమ": 6840,
      "-ধাঁচের": 6841,
      "ective": 6842,
      "ండయ": 6843,
      "-প্রসি": 6844,
      "ector": 6845,
      "ండర్": 6846,
      "-প্রসিদ্ধ": 6847,
      "embly": 6848,
      "ండ్య": 6849,
      "-ভারতীয়": 6850,
      "emocrac": 6851,
      "ండ్రా": 6852,
      "-মুসলমান": 6853,
      "ened": 6854,
      "ండ్ల": 6855,
      "-যুক্তরাষ্ট্র": 6856,
      "ening": 6857,
      "ండమస్,": 6858,
      "-যুক্তরাষ্ট্রীয়": 6859,
      "ense": 6860,
      "ండయాత్ర": 6861,
      "-সামাজিক": 6862,
      "ency,": 6863,
      "ండయాత్రలతో,": 6864,
      "-২০": 6865,
      "energy": 6866,
      "ండి,": 6867,
      ".০": 6868,
      "er.": 6869,
      "ండిచ్చే": 6870,
      ".৩": 6871,
      "erch": 6872,
      "ండిచ్చేరి": 6873,
      ".৯": 6874,
      "eri": 6875,
      "ండిచ్చేరి,": 6876,
      ".৭%": 6877,
      "estic": 6878,
      "ండుట": 6879,
      ".৭%),": 6880,
      "form": 6881,
      "ండుటచే": 6882,
      ".৯%)": 6883,
      "ffect": 6884,
      "ండ్లు": 6885,
      "ge": 6886,
      "ండ్యులు": 6887,
      "get": 6888,
      "ండ్రా)": 6889,
      "Indi": 6890,
      "gth": 6891,
      "ండ్లను": 6892,
      "India": 6893,
      "ganisation": 6894,
      "ంతంగా,": 6895,
      "guard": 6896,
      "ంతటా": 6897,
      "US$": 6898,
      "hok": 6899,
      "ంతమైన": 6900,
      "ংস": 6901,
      "hā": 6902,
      "ంతల": 6903,
      "ঈদ": 6904,
      "heduled": 6905,
      "ంతి,": 6906,
      "ঈদুল": 6907,
      "henj": 6908,
      "ంతు": 6909,
      "এই": 6910,
      "henjo-": 6911,
      "ంతై": 6912,
      "এসএলভি,": 6913,
      "henjo-daro,": 6914,
      "ంతువు": 6915,
      "ও,": 6916,
      "hoka": 6917,
      "ంతువు:": 6918,
      "ওয়্য": 6919,
      "ie": 6920,
      "ంత్రికి": 6921,
      "ওয়্যার": 6922,
      "ia.": 6923,
      "ంత్రివ": 6924,
      "ক,": 6925,
      "ic,": 6926,
      "ంత్రివర్": 6927,
      "কর": 6928,
      "ices": 6929,
      "ంత్రివర్గం": 6930,
      "কো": 6931,
      "ict": 6932,
      "ందని": 6933,
      "কল্প": 6934,
      "ictor": 6935,
      "ందరో": 6936,
      "কালে,": 6937,
      "iddle": 6938,
      "ందింది.": 6939,
      "কেই": 6940,
      "igration": 6941,
      "ంద్రీ": 6942,
      "ক্রমে": 6943,
      "ilomet": 6944,
      "ందిరా": 6945,
      "ক্রিয়": 6946,
      "ilw": 6947,
      "ందుగా": 6948,
      "ক্ষবিশিষ্ট": 6949,
      "ilometres": 6950,
      "ందులో": 6951,
      "ক্ষভাবে": 6952,
      "ilway": 6953,
      "ందువల్ల": 6954,
      "ক্ষাদ": 6955,
      "imes": 6956,
      "ంద్రనాథ": 6957,
      "ক্ষার": 6958,
      "in,": 6959,
      "ంద్రనాథ్": 6960,
      "ক্ষী": 6961,
      "indh": 6962,
      "ంద్రీకృ": 6963,
      "ক্ষের": 6964,
      "ine,": 6965,
      "ంద్రీకృత": 6966,
      "ক্ষাদ্বীপ": 6967,
      "ine.": 6968,
      "ంద్రీకృతమై": 6969,
      "ক্ষিপ্ত": 6970,
      "inn": 6971,
      "ంపిన": 6972,
      "ক্ষেপ": 6973,
      "is.": 6974,
      "ంబిళ": 6975,
      "ক্ষেপণ": 6976,
      "isen": 6977,
      "ంబిళ్ళ": 6978,
      "খর": 6979,
      "ises": 6980,
      "ంలో)": 6981,
      "খাত": 6982,
      "ites,": 6983,
      "ంలోని": 6984,
      "খি": 6985,
      "ither": 6986,
      "ఆంగ్లేయులు)": 6987,
      "খ্য,": 6988,
      "itud": 6989,
      "ఇదే": 6990,
      "খ্যাত": 6991,
      "itions": 6992,
      "ఇదే,": 6993,
      "গতি": 6994,
      "ivity": 6995,
      "ఉదా": 6996,
      "গর্ভ": 6997,
      "ject": 6998,
      "ఉదా:": 6999,
      "গঠিত": 7000,
      "k,": 7001,
      "ఋత": 7002,
      "গর্ভস্থ": 7003,
      "kh": 7004,
      "ఋతు": 7005,
      "গুণ": 7006,
      "la": 7007,
      "ఋతుప": 7008,
      "গুণ।": 7009,
      "land": 7010,
      "ఋతుపవ": 7011,
      "গুলো": 7012,
      "les,": 7013,
      "ఋతుపవనాలు": 7014,
      "গুলিও": 7015,
      "long": 7016,
      "ఏ.ఇ,": 7017,
      "গ্রাস": 7018,
      "lus": 7019,
      "ఒక": 7020,
      "গ্রাসন": 7021,
      "mar": 7022,
      "ఔట్": 7023,
      "ঙ্গেয়": 7024,
      "mend": 7025,
      "ఔట్‌స": 7026,
      "ঙ্গালুরু": 7027,
      "mediately": 7028,
      "ఔట్‌సొ": 7029,
      "চিত।": 7030,
      "mission": 7031,
      "ఔట్‌సొర్": 7032,
      "ছু": 7033,
      "mitted": 7034,
      "ఔట్‌సొర్స": 7035,
      "জয়": 7036,
      "no": 7037,
      "ఔట్‌సొర్సింగ్": 7038,
      "জরা": 7039,
      "ods": 7040,
      "కం": 7041,
      "জায়": 7042,
      "odiversity": 7043,
      "కత్": 7044,
      "জুন": 7045,
      "ogn": 7046,
      "కమే": 7047,
      "জ্ঞান": 7048,
      "omestic": 7049,
      "కమైన": 7050,
      "জরাটের": 7051,
      "omic": 7052,
      "కల": 7053,
      "ঝায়।": 7054,
      "oming": 7055,
      "కల్ప": 7056,
      "ঝি": 7057,
      "ometimes": 7058,
      "కార": 7059,
      "ঞ্জাব": 7060,
      "onial": 7061,
      "కెట్": 7062,
      "ঞ্জাম": 7063,
      "operation": 7064,
      "క్య": 7065,
      "টওয়্যার": 7066,
      "opical": 7067,
      "క్యం": 7068,
      "টটি": 7069,
      "oral": 7070,
      "క్ర": 7071,
      "টি)": 7072,
      "orce": 7073,
      "కత్తా": 7074,
      "টি-২০": 7075,
      "osen": 7076,
      "కత్తా),": 7077,
      "ঠাম": 7078,
      "oted": 7079,
      "కమేనన": 7080,
      "ঠামো": 7081,
      "other": 7082,
      "కమేననీ,": 7083,
      "ড্র": 7084,
      "ott": 7085,
      "కరమే": 7086,
      "ড়িশ": 7087,
      "overeign": 7088,
      "కరించింది.": 7089,
      "ড়ুর": 7090,
      "pay": 7091,
      "కరమేన": 7092,
      "ড়ে।": 7093,
      "pend": 7094,
      "కరమేనని": 7095,
      "ড়েছে।": 7096,
      "pic": 7097,
      "కల్పం": 7098,
      "ডিএ)": 7099,
      "pts": 7100,
      "కళి": 7101,
      "ঢ়": 7102,
      "pur": 7103,
      "కాగా": 7104,
      "ণারণ": 7105,
      "put": 7106,
      "కారం,": 7107,
      "ণ্যের": 7108,
      "ran": 7109,
      "కాలం": 7110,
      "ণিপুর": 7111,
      "reen": 7112,
      "కాలంలో": 7113,
      "ত।": 7114,
      "reg": 7115,
      "కాలతో": 7116,
      "তনের": 7117,
      "ret": 7118,
      "కీయాల్లో": 7119,
      "তাত্ত": 7120,
      "reath": 7121,
      "కుండా": 7122,
      "তানি": 7123,
      "redomin": 7124,
      "కుంతల": 7125,
      "তাবাদ": 7126,
      "rength": 7127,
      "కుడు": 7128,
      "তূল": 7129,
      "resent": 7130,
      "కుడైన": 7131,
      "ত্ম": 7132,
      "ressed": 7133,
      "కులను": 7134,
      "তাত্ত্বিক": 7135,
      "ricket": 7136,
      "కులనుండి": 7137,
      "তিন": 7138,
      "road": 7139,
      "కృష్ట": 7140,
      "তূল্য": 7141,
      "romise": 7142,
      "కృష్టమైన": 7143,
      "ত্ত্ব": 7144,
      "ryan": 7145,
      "కృష్టమైన,": 7146,
      "ত্ত্বে": 7147,
      "s;": 7148,
      "కొంటున్నది.": 7149,
      "ত্ত্বেও": 7150,
      "scrimin": 7151,
      "కోర్ట": 7152,
      "ত্রপাত": 7153,
      "struc": 7154,
      "కోర్టులు": 7155,
      "থু": 7156,
      "tain": 7157,
      "క్,": 7158,
      "থেষ্ট": 7159,
      "the": 7160,
      "క్తులు": 7161,
      "দার্": 7162,
      "ti": 7163,
      "క్న": 7164,
      "দিক": 7165,
      "tr": 7166,
      "క్కటే": 7167,
      "দে": 7168,
      "ts,": 7169,
      "క్కలు": 7170,
      "দানির": 7171,
      "ture": 7172,
      "క్కొ": 7173,
      "দার্থ": 7174,
      "ternational": 7175,
      "క్కనుంది.": 7176,
      "দি,": 7177,
      "touchability": 7178,
      "క్కులకు": 7179,
      "দ্রাবাদ": 7180,
      "uent": 7181,
      "క్కొక్కటే": 7182,
      "দ্রোহ": 7183,
      "ues": 7184,
      "క్తిగా": 7185,
      "ধানে": 7186,
      "uis": 7187,
      "క్తులు;": 7188,
      "নটি": 7189,
      "uous": 7190,
      "క్నాల": 7191,
      "নদী": 7192,
      "us,": 7193,
      "క్నాలజ": 7194,
      "নফ": 7195,
      "ucial": 7196,
      "క్నాలజీ,": 7197,
      "নব": 7198,
      "une": 7199,
      "క్రవ": 7200,
      "নবি": 7201,
      "ung": 7202,
      "క్రవర్తి": 7203,
      "নাব": 7204,
      "uras": 7205,
      "క్షం:": 7206,
      "নাম": 7207,
      "urid": 7208,
      "క్షంగా": 7209,
      "নায়": 7210,
      "urred": 7211,
      "క్షణా": 7212,
      "নবিংশ": 7213,
      "urta": 7214,
      "క్షమై": 7215,
      "নাট": 7216,
      "usc": 7217,
      "క్షర": 7218,
      "নাড়ুর": 7219,
      "ush": 7220,
      "క్షిక": 7221,
      "নাত্ম": 7222,
      "ute": 7223,
      "క్షణాసియాలో": 7224,
      "নাত্মক": 7225,
      "vas": 7226,
      "క్షమైంది.": 7227,
      "নিস্ট": 7228,
      "venues": 7229,
      "క్షరబ": 7230,
      "নিয়োগ": 7231,
      "verage": 7232,
      "క్షరబద్ధం": 7233,
      "নিয়োগের": 7234,
      "vided": 7235,
      "క్షరాస్యత,": 7236,
      "ন্টি-২০": 7237,
      "west,": 7238,
      "క్షి:": 7239,
      "ন্ডি": 7240,
      "ya,": 7241,
      "ఖిక": 7242,
      "ন্ডোয়": 7243,
      "yp": 7244,
      "ఖికమైనది.": 7245,
      "ন্ডোয়ান": 7246,
      "–201": 7247,
      "ఖ్యాతి": 7248,
      "ন্তরিক": 7249,
      "—w": 7250,
      "గతి": 7251,
      "ন্তু": 7252,
      "▁0.": 7253,
      "గమించ": 7254,
      "ন্তোষ": 7255,
      "▁energy": 7256,
      "గర్": 7257,
      "ন্তরীণ": 7258,
      "▁ir": 7259,
      "గర్,": 7260,
      "ন্ধ্র": 7261,
      "▁very": 7262,
      "గలి": 7263,
      "ন্ধ্রপ্র": 7264,
      "▁(19": 7265,
      "గలు,": 7266,
      "ন্ধ্রপ্রদেশের": 7267,
      "▁(c.": 7268,
      "గష్ట": 7269,
      "পদ": 7270,
      "▁1,000": 7271,
      "గి,": 7272,
      "পমেন্ট": 7273,
      "▁13th": 7274,
      "గించ": 7275,
      "পল": 7276,
      "గిన్న": 7277,
      "পার": 7278,
      "▁192": 7279,
      "గుత": 7280,
      "পারেশন": 7281,
      "▁1950s,": 7282,
      "గులు": 7283,
      "পাল": 7284,
      "▁1951,": 7285,
      "గృ": 7286,
      "পাহি": 7287,
      "గే,": 7288,
      "প্": 7289,
      "▁1991,": 7290,
      "గేజి": 7291,
      "পাত,": 7292,
      "▁25": 7293,
      "గతిని": 7294,
      "পি)": 7295,
      "▁26%": 7296,
      "గమించి": 7297,
      "পিপিপি)": 7298,
      "▁2001": 7299,
      "గరలో": 7300,
      "পুষ্": 7301,
      "▁2011,": 7302,
      "గర్).": 7303,
      "ফের": 7304,
      "▁300": 7305,
      "గలిగినది.": 7306,
      "ফ্রন্ট": 7307,
      "▁400": 7308,
      "గలుపు": 7309,
      "বক্ষেত্র": 7310,
      "▁7.": 7311,
      "గష్టు": 7312,
      "ববসতি": 7313,
      "▁Ak": 7314,
      "గిపో": 7315,
      "বরা": 7316,
      "▁Ar": 7317,
      "గిల": 7318,
      "বর্ধ": 7319,
      "▁Arabian": 7320,
      "గిల్ల": 7321,
      "বর্ষ": 7322,
      "▁Ashoka": 7323,
      "గించుకో": 7324,
      "বহু": 7325,
      "▁Asia.": 7326,
      "గించుకోవచ్చని": 7327,
      "বী": 7328,
      "▁Assembly": 7329,
      "గిన్నె": 7330,
      "বর্ণীক": 7331,
      "▁Bangladesh": 7332,
      "గిపోయింది.": 7333,
      "বর্ণীকৃত": 7334,
      "▁Bay": 7335,
      "గిలిన": 7336,
      "বর্ণীকৃত:": 7337,
      "▁BCE.": 7338,
      "గిల్లీ": 7339,
      "বর্ধমান": 7340,
      "▁Cl": 7341,
      "గిల్లీ-దండా)": 7342,
      "বলুপ্ত": 7343,
      "▁China,": 7344,
      "గున": 7345,
      "বহুল": 7346,
      "▁Civilisation": 7347,
      "గుమతి": 7348,
      "বাদী": 7349,
      "▁Constituent": 7350,
      "గుతాయి.": 7351,
      "বাহিক": 7352,
      "▁Dal": 7353,
      "గునవి": 7354,
      "বাহী": 7355,
      "▁Dance": 7356,
      "గునవి).": 7357,
      "বিচ্ছে": 7358,
      "▁De": 7359,
      "గులు:": 7360,
      "বিবাহ": 7361,
      "▁Deccan": 7362,
      "గువారు": 7363,
      "বীন্দ্র": 7364,
      "▁Early": 7365,
      "గృహ": 7366,
      "বেশী": 7367,
      "▁Euras": 7368,
      "గృహాలు,": 7369,
      "ব্যাপ": 7370,
      "▁Europ": 7371,
      "గోర్": 7372,
      "ব্যাপী": 7373,
      "▁Empire.": 7374,
      "గ్గరలో": 7375,
      "ভট্ট": 7376,
      "▁For": 7377,
      "గ్గిపోయింది.": 7378,
      "ভান্স": 7379,
      "▁Fron": 7380,
      "గ్గులు:": 7381,
      "ভেল": 7382,
      "▁Government": 7383,
      "గ్న": 7384,
      "ভাগের": 7385,
      "▁Greek": 7386,
      "గ్నే": 7387,
      "ভান্সড": 7388,
      "▁Gujarat": 7389,
      "గ్భా": 7390,
      "ভাবিক": 7391,
      "▁Gupta": 7392,
      "గ్నలు": 7393,
      "ভেলপমেন্ট": 7394,
      "▁Himalayan": 7395,
      "గ్నలు:": 7396,
      "ভ্যন্তরীণ": 7397,
      "▁Indones": 7398,
      "గ్నేయ": 7399,
      "মন": 7400,
      "▁Indira": 7401,
      "గ్భాగే,": 7402,
      "মাপে": 7403,
      "▁Indo-Aryan": 7404,
      "ఘా": 7405,
      "মার": 7406,
      "▁Janata": 7407,
      "ఘిక,": 7408,
      "মিনি": 7409,
      "▁Kal": 7410,
      "ఘు": 7411,
      "মী": 7412,
      "▁Lank": 7413,
      "ఘాని": 7414,
      "মৃ": 7415,
      "▁Mal": 7416,
      "ఘానిస్తాన్": 7417,
      "ম্য": 7418,
      "▁Middle": 7419,
      "చన": 7420,
      "মাইলি": 7421,
      "▁Modern": 7422,
      "చనలో": 7423,
      "মাইলিং": 7424,
      "▁Myan": 7425,
      "చర్,": 7426,
      "মান্ব": 7427,
      "▁Maurya": 7428,
      "చార": 7429,
      "মান্বয়ে": 7430,
      "▁Mohenjo-daro,": 7431,
      "చింది.": 7432,
      "মিনিস্ট": 7433,
      "▁Nico": 7434,
      "చిత": 7435,
      "মৃদ্ধ": 7436,
      "▁Non-": 7437,
      "చిత్ర": 7438,
      "ম্ভ": 7439,
      "▁North": 7440,
      "చీ,": 7441,
      "ম্পিউটার": 7442,
      "▁Pallav": 7443,
      "చులు,": 7444,
      "ম্বই": 7445,
      "▁Pr": 7446,
      "చూ": 7447,
      "ম্বর": 7448,
      "▁She": 7449,
      "చెట్ట": 7450,
      "ম্বী": 7451,
      "▁Sri": 7452,
      "చ్": 7453,
      "য়স": 7454,
      "▁Tem": 7455,
      "చారాలు,": 7456,
      "য়াম": 7457,
      "▁Thar": 7458,
      "చిత్రాలు": 7459,
      "য়োগ": 7460,
      "▁Treat": 7461,
      "చూసింది.": 7462,
      "য়লাভ": 7463,
      "▁Va": 7464,
      "చెట్టు.": 7465,
      "য়েই": 7466,
      "▁War": 7467,
      "చ్ఛ": 7468,
      "য়েন্টি-২০": 7469,
      "▁across": 7470,
      "చ్చజ": 7471,
      "য়েল": 7472,
      "▁average": 7473,
      "చ్చింది.": 7474,
      "যান-১": 7475,
      "▁added": 7476,
      "చ్చజెండ": 7477,
      "যুগীয়": 7478,
      "▁adop": 7479,
      "చ్చజెండా": 7480,
      "রক্ষা": 7481,
      "▁adv": 7482,
      "చ్ఛాయ": 7483,
      "রণ,": 7484,
      "▁ago,": 7485,
      "చ్ఛాయుత": 7486,
      "রাজ্য": 7487,
      "▁another": 7488,
      "జన్": 7489,
      "রায়": 7490,
      "▁appear": 7491,
      "జపా": 7492,
      "রাণিক": 7493,
      "▁architecture": 7494,
      "జా": 7495,
      "র্মা": 7496,
      "▁armies": 7497,
      "జిన": 7498,
      "র্ঘ্য": 7499,
      "▁assert": 7500,
      "జీ": 7501,
      "র্ণাটক": 7502,
      "▁associ": 7503,
      "జెట్": 7504,
      "র্বল": 7505,
      "▁back": 7506,
      "జ్యం": 7507,
      "র্বি": 7508,
      "▁band": 7509,
      "జ్ర": 7510,
      "র্বিদ": 7511,
      "▁bri": 7512,
      "జ్‌": 7513,
      "র্মসূচির": 7514,
      "▁broad": 7515,
      "జాస్వామ్య": 7516,
      "র্যভট্ট": 7517,
      "▁bu": 7518,
      "జిస్": 7519,
      "ল্প": 7520,
      "▁being": 7521,
      "జితమై": 7522,
      "ল্যান্ড": 7523,
      "▁belief": 7524,
      "జిత్": 7525,
      "লাই": 7526,
      "▁belong": 7527,
      "జినెస్": 7528,
      "লি,": 7529,
      "▁becoming": 7530,
      "జిస్లే": 7531,
      "শক্তির": 7532,
      "▁c.": 7533,
      "జిస్లేచర్,": 7534,
      "শিক্ষ": 7535,
      "▁cal": 7536,
      "జ్ఞ": 7537,
      "শিল্প": 7538,
      "▁came": 7539,
      "జ్ఞాన": 7540,
      "শী": 7541,
      "▁cle": 7542,
      "జ్రాలు,": 7543,
      "শীয়": 7544,
      "▁cos": 7545,
      "జ్‌మహ": 7546,
      "শ্বে": 7547,
      "▁could": 7548,
      "జ్‌మహల్": 7549,
      "শ্র": 7550,
      "▁crit": 7551,
      "టం,": 7552,
      "শৈলি": 7553,
      "▁cultural": 7554,
      "టండ్రా)": 7555,
      "ষদ": 7556,
      "▁capita": 7557,
      "టంతో": 7558,
      "ষম্য": 7559,
      "▁census,": 7560,
      "టంలో": 7561,
      "ষেধ": 7562,
      "▁centuries,": 7563,
      "టక": 7564,
      "ষ্ম": 7565,
      "▁century.": 7566,
      "టమూ": 7567,
      "সদ": 7568,
      "▁chosen": 7569,
      "టస్": 7570,
      "সায়": 7571,
      "▁churid": 7572,
      "టి.": 7573,
      "সু": 7574,
      "▁character": 7575,
      "టిన": 7576,
      "সৃ": 7577,
      "▁clim": 7578,
      "టె": 7579,
      "সংখ্য": 7580,
      "▁classical,": 7581,
      "ట్య": 7582,
      "সংঘ": 7583,
      "▁coll": 7584,
      "టన్‌": 7585,
      "সভার": 7586,
      "▁compan": 7587,
      "టర్ల": 7588,
      "সলাম": 7589,
      "▁compromise": 7590,
      "టర్లపై": 7591,
      "সামরিক": 7592,
      "▁conce": 7593,
      "టస్.": 7594,
      "সায়নিক": 7595,
      "▁consists": 7596,
      "టాటస్.": 7597,
      "সিয়েশন": 7598,
      "▁consum": 7599,
      "టియో": 7600,
      "সুমি": 7601,
      "▁consider": 7602,
      "టిల్ల": 7603,
      "সৃপ": 7604,
      "▁constitutional": 7605,
      "టికంటే": 7606,
      "স্প": 7607,
      "▁contain": 7608,
      "టియోర": 7609,
      "স্থল": 7610,
      "▁contains": 7611,
      "టియోరారి": 7612,
      "স্থাপ": 7613,
      "▁contributions": 7614,
      "టిల్లింది.": 7615,
      "স্থিত": 7616,
      "▁crucial": 7617,
      "టీలలో": 7618,
      "স্থির": 7619,
      "▁cultures": 7620,
      "టు,": 7621,
      "স্থান।": 7622,
      "▁culture.": 7623,
      "టువ": 7624,
      "হত": 7625,
      "▁currenc": 7626,
      "టువంటి": 7627,
      "হার": 7628,
      "▁dri": 7629,
      "టెడ్": 7630,
      "হেরু": 7631,
      "▁decade": 7632,
      "టేసింది.": 7633,
      "া-প": 7634,
      "▁devotion": 7635,
      "ట్కా": 7636,
      "াঙ্গ": 7637,
      "▁div": 7638,
      "ట్నం": 7639,
      "াঞ্চল": 7640,
      "▁displ": 7641,
      "ట్‌": 7642,
      "াঠামো": 7643,
      "▁disputes": 7644,
      "ట్టం,": 7645,
      "াই,": 7646,
      "▁distin": 7647,
      "ట్టడ": 7648,
      "াইড্র": 7649,
      "▁drain": 7650,
      "ట్టాలు": 7651,
      "াইন": 7652,
      "▁effect": 7653,
      "ట్టుకు": 7654,
      "াইল,": 7655,
      "▁eight": 7656,
      "ట్టూ": 7657,
      "াকা": 7658,
      "▁economy.": 7659,
      "ట్టెల": 7660,
      "াগতভাবে": 7661,
      "▁elected": 7662,
      "ట్టడాలు,": 7663,
      "াজার": 7664,
      "▁elections": 7665,
      "ట్టుకున్నాయి.": 7666,
      "াতেই": 7667,
      "▁employed": 7668,
      "ట్యం,": 7669,
      "াত্রা,": 7670,
      "▁enter": 7671,
      "ట్లలో": 7672,
      "াদান": 7673,
      "▁era": 7674,
      "ట్‌బ": 7675,
      "াদ্য": 7676,
      "▁example": 7677,
      "ట్‌బాల్": 7678,
      "ান্ডা": 7679,
      "▁extin": 7680,
      "ట్‌బాల్‌": 7681,
      "ান্তর": 7682,
      "▁exchange": 7683,
      "ఠీ;": 7684,
      "ান্তির": 7685,
      "▁expans": 7686,
      "డత": 7687,
      "ান্তীয়": 7688,
      "▁express": 7689,
      "డవ": 7690,
      "াপিছু": 7691,
      "▁fact": 7692,
      "డానికి": 7693,
      "াপ্তি": 7694,
      "▁fall": 7695,
      "డారి": 7696,
      "াবৈচিত্র্য": 7697,
      "▁fem": 7698,
      "డించి,": 7699,
      "াবিড়": 7700,
      "▁fra": 7701,
      "డించింది.": 7702,
      "াভা": 7703,
      "▁figures": 7704,
      "డింది.": 7705,
      "ামতি": 7706,
      "▁follow": 7707,
      "డుతుంది.": 7708,
      "ামাঝি": 7709,
      "▁formal": 7710,
      "డ్చ": 7711,
      "ামাঞ্চলে": 7712,
      "▁forms": 7713,
      "డ్య": 7714,
      "ায়:": 7715,
      "▁gas": 7716,
      "డ్ల": 7717,
      "ায়ণ": 7718,
      "▁gave": 7719,
      "డతాయి.": 7720,
      "ায়দ্রাবাদ": 7721,
      "▁gend": 7722,
      "డమ్": 7723,
      "ায়ী,": 7724,
      "▁good": 7725,
      "డవస్థాన": 7726,
      "ায়ুর": 7727,
      "▁government,": 7728,
      "డవస్థానంలో": 7729,
      "ায়ে": 7730,
      "▁governments": 7731,
      "డిగించుకోవచ్చని": 7732,
      "ারিত।": 7733,
      "▁gradually": 7734,
      "డిస్": 7735,
      "ারকম্পিউটার": 7736,
      "▁growing": 7737,
      "డిపో": 7738,
      "ার্ট": 7739,
      "▁habitat": 7740,
      "డిపోయింది.": 7741,
      "ালা": 7742,
      "▁having": 7743,
      "డిస్స": 7744,
      "ালি": 7745,
      "▁hig": 7746,
      "డిస్సీ,": 7747,
      "াল্য": 7748,
      "▁hub": 7749,
      "డు.": 7750,
      "ালুক": 7751,
      "▁hy": 7752,
      "డుంబిళ్ళ": 7753,
      "ালেঞ্জ": 7754,
      "▁heredit": 7755,
      "డుస్త": 7756,
      "াল্যবিবাহ": 7757,
      "▁impro": 7758,
      "డు\".": 7759,
      "াসিক": 7760,
      "▁inequ": 7761,
      "డుతున్నవ": 7762,
      "াসের": 7763,
      "▁init": 7764,
      "డుతున్నారు.": 7765,
      "িগুণ।": 7766,
      "▁institution": 7767,
      "డుతున్నవార్": 7768,
      "িষ্ঠ": 7769,
      "▁increasingly": 7770,
      "డుతున్నవార్లలో": 7771,
      "িকক্ষবিশিষ্ট": 7772,
      "▁independence": 7773,
      "డుస్తాయి.": 7774,
      "িকভাবে": 7775,
      "▁indigenous": 7776,
      "డ్,": 7777,
      "িত্ব": 7778,
      "▁isol": 7779,
      "డ్జెట్": 7780,
      "িনীর": 7781,
      "▁kameez": 7782,
      "డ్మ": 7783,
      "িয়ার": 7784,
      "▁kilometres": 7785,
      "డ్‌": 7786,
      "িয়েছে।": 7787,
      "▁laws": 7788,
      "డ్చుకు": 7789,
      "িরিজ": 7790,
      "▁lik": 7791,
      "డ్చుకుంది.": 7792,
      "িলাদের": 7793,
      "▁lim": 7794,
      "డ్మిం": 7795,
      "িলাভ": 7796,
      "▁loss": 7797,
      "డ్మింటన్‌": 7798,
      "ীতে": 7799,
      "▁language\"": 7800,
      "డ్యచిత్రాలు": 7801,
      "ীদের": 7802,
      "▁language,": 7803,
      "డ్‌గేజి": 7804,
      "ীরে": 7805,
      "▁latter": 7806,
      "ఢవి": 7807,
      "ীষ্ম": 7808,
      "▁level": 7809,
      "ఢవిల్ల": 7810,
      "ীসৃপ": 7811,
      "▁leader,": 7812,
      "ఢవిల్లాయి.": 7813,
      "ীতিতে": 7814,
      "▁liberal": 7815,
      "ఢాకా-ఢిల్లీ-లాహోర్‌": 7816,
      "ীবনের": 7817,
      "▁loose": 7818,
      "ఢాకా-ఢిల్లీ-లాహోర్‌ల": 7819,
      "ীলঙ্ক": 7820,
      "▁mal": 7821,
      "ణదారులు,": 7822,
      "ুব": 7823,
      "▁mamm": 7824,
      "ణాలు": 7825,
      "ুত্থান": 7826,
      "▁marg": 7827,
      "ణిక": 7828,
      "ুলনায়": 7829,
      "▁merch": 7830,
      "ణుల": 7831,
      "ুলোর": 7832,
      "▁mi)": 7833,
      "ణే": 7834,
      "ূজ": 7835,
      "▁min": 7836,
      "ణాటక": 7837,
      "ৃত্রি": 7838,
      "▁much": 7839,
      "ణాన్ని": 7840,
      "ৃত্রিম": 7841,
      "▁multi": 7842,
      "ణాళ": 7843,
      "েজ": 7844,
      "▁makes": 7845,
      "ణాళిక": 7846,
      "েন": 7847,
      "▁manusc": 7848,
      "ణాళికలు": 7849,
      "েয়াদে": 7850,
      "▁marked": 7851,
      "ణిపు": 7852,
      "েরণ": 7853,
      "▁marriages": 7854,
      "ణిము": 7855,
      "েশনের": 7856,
      "▁mathematical": 7857,
      "ణించబడింది.": 7858,
      "োক্ষভাবে": 7859,
      "▁mathematics": 7860,
      "ణించలేదు": 7861,
      "োত্তর": 7862,
      "▁ministers.": 7863,
      "ణించలేదు.": 7864,
      "োদী": 7865,
      "▁moist": 7866,
      "ణికుల": 7867,
      "োধ": 7868,
      "▁name": 7869,
      "ణిపుర": 7870,
      "োন": 7871,
      "▁nation": 7872,
      "ణిపురి.": 7873,
      "োবর": 7874,
      "▁nomin": 7875,
      "ణిముత్య": 7876,
      "োয়েন্টি-২০": 7877,
      "▁natal": 7878,
      "ణిముత్యం.": 7879,
      "োসিয়েশন": 7880,
      "▁opp": 7881,
      "త,": 7882,
      "োগ্য": 7883,
      "▁office": 7884,
      "తంలో": 7885,
      "ৌদ্ধ": 7886,
      "▁originally": 7887,
      "తాలతో": 7888,
      "্তিয়ার": 7889,
      "▁pat": 7890,
      "తీ,": 7891,
      "্ত্র": 7892,
      "▁pers": 7893,
      "తున్న": 7894,
      "্ত্রীয়": 7895,
      "▁port": 7896,
      "తూ": 7897,
      "্যস্ত": 7898,
      "▁pover": 7899,
      "తే": 7900,
      "্যালেঞ্জ": 7901,
      "▁predomin": 7902,
      "త్రి": 7903,
      "্যাঙ্ক": 7904,
      "▁painting,": 7905,
      "తం:": 7906,
      "্যাট": 7907,
      "▁parliament.": 7908,
      "తరించింది.": 7909,
      "্যাসোসিয়েশন": 7910,
      "▁partic": 7911,
      "తరాలుగా": 7912,
      "্রান্স": 7913,
      "▁parts": 7914,
      "తాధి": 7915,
      "্রাস": 7916,
      "▁populous": 7917,
      "తానులు,": 7918,
      "্রু": 7919,
      "▁prop": 7920,
      "తామ": 7921,
      "্রাউ": 7922,
      "▁primary": 7923,
      "తాక,": 7924,
      "্রিলিয়ন": 7925,
      "▁process": 7926,
      "తాధిప": 7927,
      "৩৫": 7928,
      "▁protected": 7929,
      "తాధిపత్య": 7930,
      "৪,৬৭১": 7931,
      "▁rather": 7932,
      "తాధిపత్యం": 7933,
      "৪৩": 7934,
      "▁rich": 7935,
      "తామర": 7936,
      "৭০": 7937,
      "▁railway": 7938,
      "తామర)": 7939,
      "৮তম": 7940,
      "▁reached": 7941,
      "తిహ": 7942,
      "—এই": 7943,
      "▁report": 7944,
      "తిక,": 7945,
      "▁'": 7946,
      "▁revenues": 7947,
      "తిహాస": 7948,
      "▁recent": 7949,
      "తిహాసాల": 7950,
      "▁ঈদুল": 7951,
      "▁recogn": 7952,
      "తిహాసాలపై": 7953,
      "▁ঝ": 7954,
      "▁refer": 7955,
      "తున్నప్పటికీ,": 7956,
      "▁রেখ": 7957,
      "▁regions.": 7958,
      "తులకాలం": 7959,
      "▁লে": 7960,
      "▁relations": 7961,
      "తులున్నాయి.": 7962,
      "▁৮": 7963,
      "▁remaining": 7964,
      "తోష్ణ": 7965,
      "▁$১": 7966,
      "▁resident": 7967,
      "త్త": 7968,
      "▁$২": 7969,
      "▁right": 7970,
      "త్తరాలు": 7971,
      "▁(India": 7972,
      "▁sari": 7973,
      "త్తల": 7974,
      "▁(ত": 7975,
      "▁sector": 7976,
      "త్తాక,": 7977,
      "▁(পিপিপি)": 7978,
      "▁sil": 7979,
      "త్యజిత్": 7980,
      "▁(সি": 7981,
      "▁sim": 7982,
      "త్రి,": 7983,
      "▁(৩": 7984,
      "▁six": 7985,
      "త్వం": 7986,
      "▁(৪,৬৭১": 7987,
      "▁slow": 7988,
      "త్వంగల": 7989,
      "▁(এনডিএ)": 7990,
      "▁sometimes": 7991,
      "త్వాన": 7992,
      "▁(পূর্বনাম": 7993,
      "▁sovereign": 7994,
      "త్వాలు": 7995,
      "▁(বিশ্বে": 7996,
      "▁safe": 7997,
      "థమ": 7998,
      "▁(মোট": 7999,
      "▁script": 8000,
      "థి": 8001,
      "▁(হিন্দি:": 8002,
      "▁sep": 8003,
      "థిలి": 8004,
      "▁অক": 8005,
      "▁setting": 8006,
      "థిక్": 8007,
      "▁অক্টোবর": 8008,
      "▁share": 8009,
      "థిలి;": 8010,
      "▁অঙ্গ": 8011,
      "▁signed": 8012,
      "దం,": 8013,
      "▁অত": 8014,
      "▁speak": 8015,
      "దగినది.": 8016,
      "▁অধ্যুষিত": 8017,
      "▁strength": 8018,
      "దర్శ": 8019,
      "▁অন্ধ্রপ্রদেশের": 8020,
      "▁status": 8021,
      "దాన": 8022,
      "▁অপর": 8023,
      "▁strong": 8024,
      "దాబాదు": 8025,
      "▁অবলুপ্ত": 8026,
      "▁style": 8027,
      "దారు": 8028,
      "▁অভ্যন্তরীণ": 8029,
      "▁styles": 8030,
      "దీ": 8031,
      "▁অস": 8032,
      "▁subcontinent,": 8033,
      "దీయ": 8034,
      "▁অস্থির": 8035,
      "▁summer": 8036,
      "దీర్": 8037,
      "▁অ্যান্ড": 8038,
      "▁suppl": 8039,
      "దులు": 8040,
      "▁অ্যাসোসিয়েশন": 8041,
      "▁supported": 8042,
      "దులు,": 8043,
      "▁অংশে": 8044,
      "▁system.": 8045,
      "దూ": 8046,
      "▁অঞ্চলকে": 8047,
      "▁tak": 8048,
      "ద్రా": 8049,
      "▁অঞ্চলগুলি": 8050,
      "▁te": 8051,
      "దరిక": 8052,
      "▁অঞ্চলেই": 8053,
      "▁test": 8054,
      "దరికం,": 8055,
      "▁অধিকারী।": 8056,
      "▁temp": 8057,
      "దర్శించే": 8058,
      "▁অবত": 8059,
      "▁territories": 8060,
      "దానంతో": 8061,
      "▁অবন": 8062,
      "▁those": 8063,
      "దాయం": 8064,
      "▁অববাহিক": 8065,
      "▁threat": 8066,
      "దాయకమేననీ,": 8067,
      "▁অবস্থান": 8068,
      "▁then": 8069,
      "దారులు": 8070,
      "▁অরণ্যক্ষেত্র": 8071,
      "▁these": 8072,
      "దారులను": 8073,
      "▁অর্জন": 8074,
      "▁them.": 8075,
      "ది,": 8076,
      "▁অর্থব্যবস্থা": 8077,
      "▁time,": 8078,
      "దికి": 8079,
      "▁অর্থনীতি": 8080,
      "▁today": 8081,
      "దిగువ": 8082,
      "▁অ্যাডভান্সড": 8083,
      "▁total": 8084,
      "దిగ్భాగే,": 8085,
      "▁আগত": 8086,
      "▁town": 8087,
      "దిభా": 8088,
      "▁আগ্রাসন": 8089,
      "▁tropical": 8090,
      "దిరిగా": 8091,
      "▁আছে": 8092,
      "▁trade": 8093,
      "దిశ": 8094,
      "▁আছে।": 8095,
      "▁transmitted": 8096,
      "దినాలకు": 8097,
      "▁আটটি": 8098,
      "▁tribal": 8099,
      "దినాలు,": 8100,
      "▁আত্ম": 8101,
      "▁unit": 8102,
      "దిభాగం": 8103,
      "▁আন্তরিক": 8104,
      "▁urbanisation": 8105,
      "దిశాతం": 8106,
      "▁আর্": 8107,
      "▁use": 8108,
      "దీవులు,": 8109,
      "▁আর্যভট্ট": 8110,
      "▁varn": 8111,
      "దీయులు,": 8112,
      "▁আস": 8113,
      "▁vi": 8114,
      "దీర్ఘ": 8115,
      "▁আসাম": 8116,
      "▁victor": 8117,
      "దుపరి": 8118,
      "▁আইসিসি": 8119,
      "▁vis": 8120,
      "దుర్": 8121,
      "▁আইনবিভাগ": 8122,
      "▁veget": 8123,
      "దుర్కొంటున్నది.": 8124,
      "▁আকরিক": 8125,
      "▁village": 8126,
      "దూ;": 8127,
      "▁আজও": 8128,
      "▁went": 8129,
      "దే.": 8130,
      "▁আফ্রিকা": 8131,
      "▁would": 8132,
      "దేమ": 8133,
      "▁আফ্রিকার": 8134,
      "▁weap": 8135,
      "దేమాత": 8136,
      "▁আমদানির": 8137,
      "▁wildlif": 8138,
      "దేమాతర": 8139,
      "▁আয়তনের": 8140,
      "▁world.": 8141,
      "దేమాతరం....": 8142,
      "▁আয়োজিত": 8143,
      "▁written": 8144,
      "దేశపు": 8145,
      "▁আরও": 8146,
      "▁year.": 8147,
      "దేశాలలో": 8148,
      "▁আর্থ-সামাজিক": 8149,
      "\")": 8150,
      "దేశాలు,": 8151,
      "▁আর্থিক": 8152,
      "(2": 8153,
      "దేశిక": 8154,
      "▁ইনফ": 8155,
      "(2)": 8156,
      "దేశీ": 8157,
      "▁ইন্ডি": 8158,
      ",42": 8159,
      "దేశం\"": 8160,
      "▁ইসলাম": 8161,
      "-B": 8162,
      "ద్దిభాగం": 8163,
      "▁ইস্ট": 8164,
      "-e": 8165,
      "ద్భవ": 8166,
      "▁ইহু": 8167,
      "-sc": 8168,
      "ద్దం": 8169,
      "▁ইউনি": 8170,
      "-sp": 8171,
      "ద్ధలతో,": 8172,
      "▁ইউনিয়ন": 8173,
      "-st": 8174,
      "ద్ధాలు": 8175,
      "▁ইতিহাস-প্রসিদ্ধ": 8176,
      "-w": 8177,
      "ద్ధి,": 8178,
      "▁ইতিহাসে": 8179,
      "-y": 8180,
      "ద్ధించింది.": 8181,
      "▁ইন্ডিয়া": 8182,
      "-body": 8183,
      "ద్భవించిన": 8184,
      "▁ইন্ডিয়ান": 8185,
      "-day": 8186,
      "ద్భవించినవ": 8187,
      "▁ইন্দিআ": 8188,
      "-gather": 8189,
      "ద్భవించినవే.": 8190,
      "▁উদ্য": 8191,
      "-grow": 8192,
      "ద్యమ": 8193,
      "▁উন্ম": 8194,
      "-gatherers,": 8195,
      "ద్యమంలో": 8196,
      "▁উত্থানশীল": 8197,
      "-growing": 8198,
      "ద్ర:": 8199,
      "▁উদ্ভূত": 8200,
      "-kn": 8201,
      "ద్రాసు": 8202,
      "▁উদ্ভিদের": 8203,
      "-knit": 8204,
      "ద్రాసు),": 8205,
      "▁উপস্থাপ": 8206,
      "-major": 8207,
      "ధం,": 8208,
      "▁উপকূলরেখার": 8209,
      "-majority": 8210,
      "ధా": 8211,
      "▁উপদ্বীপীয়": 8212,
      "-scale": 8213,
      "ధిల్ల": 8214,
      "▁উপদ্বীপের": 8215,
      "-sty": 8216,
      "ధు": 8217,
      "▁উভচ": 8218,
      "-style": 8219,
      "ధ్యవ": 8220,
      "▁উভয়েই": 8221,
      "-year": 8222,
      "ధానులు,": 8223,
      "▁উল্লেখ্য,": 8224,
      ".6%": 8225,
      "ధానాలతో": 8226,
      "▁উল্লেখযোগ্য।": 8227,
      "00–": 8228,
      "ధిగమించి": 8229,
      "▁উল্লেখযোগ্যভাবে": 8230,
      "100": 8231,
      "ధిచే": 8232,
      "▁উৎক্ষেপণ": 8233,
      "1st": 8234,
      "ధిలో": 8235,
      "▁উৎপত্তি": 8236,
      "1,3": 8237,
      "ధిల్లిన": 8238,
      "▁উৎপাদন": 8239,
      "1.1": 8240,
      "ధుమ": 8241,
      "▁উৎসবও": 8242,
      "2%.": 8243,
      "ధ్యాత": 8244,
      "▁এঁদের": 8245,
      "24": 8246,
      "ధ్యవర్తి": 8247,
      "▁এদেশে": 8248,
      "31": 8249,
      "ధ్యవర్తిత్వం": 8250,
      "▁এক্তিয়ার": 8251,
      "3.9": 8252,
      "ధ్యాత్మ": 8253,
      "▁এসেছে।": 8254,
      "40": 8255,
      "ధ్యాత్మికత": 8256,
      "▁ঐতিহাসিক": 8257,
      "4.4": 8258,
      "న,": 8259,
      "▁ঐতিহ্যের": 8260,
      "నంలో": 8261,
      "▁ঐতিহ্যবাহী": 8262,
      "51": 8263,
      "నకరమేనని": 8264,
      "▁ওড়িশ": 8265,
      "5,000": 8266,
      "నకల": 8267,
      "▁ওপর": 8268,
      "5.8%": 8269,
      "నత": 8270,
      "▁কখনো": 8271,
      "61": 8272,
      "నప్పటికినీ": 8273,
      "▁কন": 8274,
      "64": 8275,
      "నబడిన": 8276,
      "▁কন্নড়": 8277,
      "80": 8278,
      "నర్వ": 8279,
      "▁কয়": 8280,
      "9,": 8281,
      "నల": 8282,
      "▁কর্ণাটক": 8283,
      "Ar": 8284,
      "నలలో": 8285,
      "▁কৃত্রিম": 8286,
      "Art": 8287,
      "నలు,": 8288,
      "▁করছে": 8289,
      "Artic": 8290,
      "నవచ్చు.": 8291,
      "▁করছে।": 8292,
      "Congress": 8293,
      "నాలతో": 8294,
      "▁করার": 8295,
      "Gang": 8296,
      "నూ": 8297,
      "▁করতেও": 8298,
      "Gangetic": 8299,
      "నై": 8300,
      "▁করেছিল।": 8301,
      "I,": 8302,
      "న్య": 8303,
      "▁কর্তৃত্ব": 8304,
      "నంద్": 8305,
      "▁কলকাত": 8306,
      "PP": 8307,
      "ననీ": 8308,
      "▁কাজে": 8309,
      "Prol": 8310,
      "నర్వ్యవస్థ": 8311,
      "▁কারণ।": 8312,
      "Prolif": 8313,
      "నర్వ్యవస్థీకరణ": 8314,
      "▁কালক্রমে": 8315,
      "Proliferation": 8316,
      "నలబ": 8317,
      "▁কালে": 8318,
      "Zor": 8319,
      "నలబై": 8320,
      "▁কিন্তু": 8321,
      "Zoro": 8322,
      "నలబైర": 8323,
      "▁কৃষ্ণ": 8324,
      "Zoroastri": 8325,
      "నలబైరెండ": 8326,
      "▁কৃষিখ": 8327,
      "Zoroastrian": 8328,
      "నలబైరెండుకో": 8329,
      "▁কেন্দ্রের": 8330,
      "Zoroastrianism": 8331,
      "నలబైరెండుకోట్లకు": 8332,
      "▁কেরল": 8333,
      "aem": 8334,
      "నాట్యం,": 8335,
      "▁কোশী": 8336,
      "ahar": 8337,
      "నాడుకు": 8338,
      "▁কোম্পানির": 8339,
      "air": 8340,
      "నాది": 8341,
      "▁ক্রমান্বয়ে": 8342,
      "aism,": 8343,
      "నాథన్": 8344,
      "▁ক্রমে": 8345,
      "aith": 8346,
      "నిచ్చింది.": 8347,
      "▁ক্রান্তীয়": 8348,
      "ares": 8349,
      "నిధిచే": 8350,
      "▁ক্রীড়": 8351,
      "aver": 8352,
      "నిప": 8353,
      "▁ক্রমবর্ধমান": 8354,
      "aː": 8355,
      "నియా": 8356,
      "▁খাদ্য": 8357,
      "abh": 8358,
      "నిర్వ": 8359,
      "▁খো": 8360,
      "abha,": 8361,
      "నిల్ల": 8362,
      "▁খনিজ": 8363,
      "acket": 8364,
      "నివల్ల": 8365,
      "▁খ্রিষ্টপূর্বাব্দ।": 8366,
      "ackb": 8367,
      "నివి.": 8368,
      "▁গঙ্গ": 8369,
      "ackbuc": 8370,
      "నిస్త": 8371,
      "▁গন্ডোয়ান": 8372,
      "adem": 8373,
      "నికికి": 8374,
      "▁গুলোর": 8375,
      "adwe": 8376,
      "నిపించింది.": 8377,
      "▁গৃহ": 8378,
      "adiverse": 8379,
      "నిర్వా": 8380,
      "▁গেম": 8381,
      "adweep": 8382,
      "నిర్వాహ": 8383,
      "▁গঠিত।": 8384,
      "aemen": 8385,
      "నిర్వాహక": 8386,
      "▁গণিতবিদ": 8387,
      "agan": 8388,
      "నిల్లయ": 8389,
      "▁গবেষণা": 8390,
      "aharl": 8391,
      "నిల్లయిన": 8392,
      "▁গাঙ্গেয়": 8393,
      "aharlal": 8394,
      "నిస్తున్న": 8395,
      "▁গুজরাটের": 8396,
      "ajpay": 8397,
      "నిస్తున్నారు.": 8398,
      "▁গ্রামাঞ্চলে": 8399,
      "ajpaye": 8400,
      "ను,": 8401,
      "▁গ্রীষ্ম": 8402,
      "akh": 8403,
      "నుము,": 8404,
      "▁গ্রামীণ": 8405,
      "akshadweep": 8406,
      "నులు": 8407,
      "▁ঘাট": 8408,
      "akshagan": 8409,
      "నేరే": 8410,
      "▁ঘটনা": 8411,
      "ala,": 8412,
      "నేసియా": 8413,
      "▁ঘটায়।": 8414,
      "aled": 8415,
      "నేరేడు\"": 8416,
      "▁ঘটে": 8417,
      "alf": 8418,
      "నైటెడ్": 8419,
      "▁ঘটে।": 8420,
      "ality,": 8421,
      "న్లుగా": 8422,
      "▁ঘোষিত": 8423,
      "ally.": 8424,
      "న్సీ": 8425,
      "▁চা": 8426,
      "alwars": 8427,
      "న్‌": 8428,
      "▁চ্যালেঞ্জ": 8429,
      "amed": 8430,
      "న్నం,": 8431,
      "▁চন্দ্রযান-১": 8432,
      "ams": 8433,
      "న్నత": 8434,
      "▁চীনের": 8435,
      "ammu": 8436,
      "న్నది.": 8437,
      "▁ছয়": 8438,
      "aning": 8439,
      "న్నారు.": 8440,
      "▁ছোটো": 8441,
      "anagara": 8442,
      "న్నో": 8443,
      "▁জয়লাভ": 8444,
      "ances,": 8445,
      "న్నిస్": 8446,
      "▁জরা": 8447,
      "ance,": 8448,
      "న్నిస్లో": 8449,
      "▁জলা": 8450,
      "andar": 8451,
      "న్మార్": 8452,
      "▁জানুয়ারি": 8453,
      "ando": 8454,
      "న్మార్,": 8455,
      "▁জনবসতি": 8456,
      "ands,": 8457,
      "న్యప": 8458,
      "▁জনবহুল": 8459,
      "andy": 8460,
      "న్యప్రా": 8461,
      "▁জনপ্রিয়তা": 8462,
      "andardi": 8463,
      "న్యప్రాణుల": 8464,
      "▁জলবায়ুর": 8465,
      "andardis": 8466,
      "న్‌ఫ": 8467,
      "▁জীববৈচিত্র্যের": 8468,
      "andardised": 8469,
      "న్‌ఫర్": 8470,
      "▁জৈন": 8471,
      "andoor": 8472,
      "న్‌ఫర్మే": 8473,
      "▁জৈবক্ষেত্র": 8474,
      "anguages": 8475,
      "న్‌ఫర్మేష": 8476,
      "▁জোটের": 8477,
      "anta": 8478,
      "న్‌ఫర్మేషన్": 8479,
      "▁জ্যোতির্বিদ": 8480,
      "antially": 8481,
      "పం": 8482,
      "▁টাকা": 8483,
      "ants,": 8484,
      "పం:": 8485,
      "▁টেক": 8486,
      "app": 8487,
      "పక": 8488,
      "▁টোয়েন্টি-২০": 8489,
      "aps": 8490,
      "పట్నం": 8491,
      "▁ট্রিলিয়ন": 8492,
      "aput": 8493,
      "పడుతున్నారు.": 8494,
      "▁ডি": 8495,
      "aras": 8496,
      "పతులు": 8497,
      "▁ডেভেলপমেন্ট": 8498,
      "arb": 8499,
      "పద": 8500,
      "▁তত্ত্ব": 8501,
      "ari,": 8502,
      "పబ": 8503,
      "▁তল": 8504,
      "arian": 8505,
      "పర": 8506,
      "▁তা": 8507,
      "arrow": 8508,
      "పస్,": 8509,
      "▁তু": 8510,
      "ars.": 8511,
      "పిక్‌": 8512,
      "▁তুলনায়": 8513,
      "arsh": 8514,
      "ప్రీ": 8515,
      "▁তৈ": 8516,
      "ards": 8517,
      "పతి,": 8518,
      "▁তামিলনাড়ুর": 8519,
      "arents": 8520,
      "పబడి": 8521,
      "▁তারপর": 8522,
      "arnat": 8523,
      "పరంగా": 8524,
      "▁তারা": 8525,
      "arnatic": 8526,
      "పరిమ": 8527,
      "▁তারিখে": 8528,
      "ary,": 8529,
      "పరిమిత": 8530,
      "▁তিনটি": 8531,
      "ased": 8532,
      "పరిమితికి": 8533,
      "▁তিনি": 8534,
      "ass.": 8535,
      "పాండిచ్చేరి,": 8536,
      "▁থাকতে": 8537,
      "asured": 8538,
      "పాక్షిక": 8539,
      "▁থেকে,": 8540,
      "asures": 8541,
      "పాధి": 8542,
      "▁দপ্তর": 8543,
      "assical": 8544,
      "పాలి": 8545,
      "▁দান": 8546,
      "assin": 8547,
      "పాలీ;": 8548,
      "▁দাবা": 8549,
      "assinated": 8550,
      "పాలిటన్": 8551,
      "▁দিন": 8552,
      "astoral": 8553,
      "పావళి,": 8554,
      "▁দিব": 8555,
      "ata,": 8556,
      "పావో": 8557,
      "▁দিয়েছে।": 8558,
      "ater": 8559,
      "పులా": 8560,
      "▁দিল্লি": 8561,
      "ati,": 8562,
      "పులి": 8563,
      "▁দূ": 8564,
      "atives": 8565,
      "పుతూ": 8566,
      "▁দক্ষিণে": 8567,
      "atom": 8568,
      "పుత్ర": 8569,
      "▁দাক্ষিণাত্য": 8570,
      "atri": 8571,
      "పుత్ర,": 8572,
      "▁দুর্বল": 8573,
      "attle": 8574,
      "పూర్వ": 8575,
      "▁দেশগুলির": 8576,
      "atures": 8577,
      "పూర్వో": 8578,
      "▁দেশটির": 8579,
      "aterial": 8580,
      "పూర్వోత్తరాలు": 8581,
      "▁দৈর্ঘ্য": 8582,
      "ati.": 8583,
      "పోతున్నప్పటికీ,": 8584,
      "▁দ্বাদশ": 8585,
      "ature,": 8586,
      "ప్తులకాలం": 8587,
      "▁দ্বিকক্ষবিশিষ্ট": 8588,
      "aval": 8589,
      "ప్పించ": 8590,
      "▁দ্বিগুণ।": 8591,
      "avated": 8592,
      "ప్పటికీ": 8593,
      "▁দ্রব্য": 8594,
      "aved": 8595,
      "ప్పించుకోవడ": 8596,
      "▁দ্রাবিড়": 8597,
      "avoury": 8598,
      "ప్పించుకోవడానికి": 8599,
      "▁ধরা": 8600,
      "awaharlal": 8601,
      "ప్పించుకోవడానికి,": 8602,
      "▁ধর্মা": 8603,
      "awat": 8604,
      "ప్రస్తుత": 8605,
      "▁ধারণ": 8606,
      "ayanagara": 8607,
      "ప్రాయ": 8608,
      "▁ধীরে": 8609,
      "ayat": 8610,
      "ప్రస్తుతము": 8611,
      "▁ধ্রুপদী": 8612,
      "ays": 8613,
      "ప్రాయపడుతున్నారు.": 8614,
      "▁নগ": 8615,
      "bably": 8616,
      "ప్రీం": 8617,
      "▁নয়।": 8618,
      "back": 8619,
      "ఫరా": 8620,
      "▁নাচ": 8621,
      "bai,": 8622,
      "ఫల": 8623,
      "▁নাব্য": 8624,
      "bar,": 8625,
      "ఫిక్": 8626,
      "▁নার": 8627,
      "bers": 8628,
      "ఫ్": 8629,
      "▁নেই": 8630,
      "bet": 8631,
      "ఫ్ట": 8632,
      "▁ন্যস্ত": 8633,
      "bour": 8634,
      "ఫ్ఘానిస్తాన్": 8635,
      "▁নামক": 8636,
      "ces": 8637,
      "ఫ్ట్‌": 8638,
      "▁নামমাত্র": 8639,
      "ched": 8640,
      "ఫ్ట్‌వే": 8641,
      "▁নির্ধ": 8642,
      "cil": 8643,
      "ఫ్ట్‌వేర్,": 8644,
      "▁নিকোবর": 8645,
      "co-": 8646,
      "బల": 8647,
      "▁নিকটবর্তী": 8648,
      "common": 8649,
      "బుల్": 8650,
      "▁নিজস্ব": 8651,
      "cover": 8652,
      "బ్రె": 8653,
      "▁নিদর্শন": 8654,
      "creasing": 8655,
      "బడింది": 8656,
      "▁নিদর্শন।": 8657,
      "ceed": 8658,
      "బల్యం": 8659,
      "▁নিরিখে": 8660,
      "centage": 8661,
      "బియ": 8662,
      "▁নৃত্যকলা": 8663,
      "centur": 8664,
      "బియా": 8665,
      "▁নেমে": 8666,
      "century": 8667,
      "బియస్": 8668,
      "▁নেয়।": 8669,
      "chaemen": 8670,
      "బుల్స్": 8671,
      "▁নেহেরু": 8672,
      "cto": 8673,
      "బెట్కా": 8674,
      "▁পণ্যের": 8675,
      "cts": 8676,
      "బెట్టుకున్నాయి.": 8677,
      "▁পদার্থ": 8678,
      "ctober": 8679,
      "బెల్": 8680,
      "▁পলি": 8681,
      "den": 8682,
      "బ్రెడ్,": 8683,
      "▁পাত্র": 8684,
      "dent": 8685,
      "భదాయకమేననీ,": 8686,
      "▁পিত": 8687,
      "ders": 8688,
      "భ్య": 8689,
      "▁পূর্ণ": 8690,
      "down": 8691,
      "భవించింది.": 8692,
      "▁পরিক": 8693,
      "dicts": 8694,
      "భారతం,": 8695,
      "▁পরোক্ষভাবে": 8696,
      "dif": 8697,
      "భారతదేశం\"": 8698,
      "▁পরিব": 8699,
      "diment": 8700,
      "భాషలు,": 8701,
      "▁পরিবর্তনের": 8702,
      "diction": 8703,
      "భాషా,": 8704,
      "▁পরিবার": 8705,
      "dients": 8706,
      "భ్యమైన": 8707,
      "▁পরিমাপে": 8708,
      "dified": 8709,
      "మంతటా": 8710,
      "▁পরিষদ": 8711,
      "e;": 8712,
      "మర్జ": 8713,
      "▁পরিচালিত": 8714,
      "ead": 8715,
      "మలి": 8716,
      "▁পরিচালনার": 8717,
      "ealth": 8718,
      "మాయ": 8719,
      "▁পরিষেবার": 8720,
      "ees.": 8721,
      "మార్త": 8722,
      "▁পরীক্ষা": 8723,
      "eolog": 8724,
      "మి,": 8725,
      "▁পর্বতমালাদ": 8726,
      "eous": 8727,
      "ములు": 8728,
      "▁পর্বতমালার": 8729,
      "ey": 8730,
      "ములు,": 8731,
      "▁পশ্চিমবঙ্গের": 8732,
      "eated.": 8733,
      "మో": 8734,
      "▁পাওয়ায়": 8735,
      "eatedly": 8736,
      "మ్‌": 8737,
      "▁পাঞ্জাব": 8738,
      "econ": 8739,
      "మతిని": 8740,
      "▁পাশ": 8741,
      "economic": 8742,
      "మన.": 8743,
      "▁পাঁচটি": 8744,
      "ections": 8745,
      "మనవ": 8746,
      "▁পাক-ভারত": 8747,
      "ed.": 8748,
      "మనించి,": 8749,
      "▁পাকিস্তানের": 8750,
      "edd": 8751,
      "మనవమి,": 8752,
      "▁পাতটি": 8753,
      "efly": 8754,
      "మర్జె": 8755,
      "▁পালন": 8756,
      "elig": 8757,
      "మర్జెన్సీ": 8758,
      "▁পুনরায়": 8759,
      "elfare": 8760,
      "మలము": 8761,
      "▁পোশাকের": 8762,
      "eligion": 8763,
      "మలవుతుంది.": 8764,
      "▁পৌরাণিক": 8765,
      "emograph": 8766,
      "మలిపావో": 8767,
      "▁প্রক্রিয়": 8768,
      "emocracy.": 8769,
      "మహే": 8770,
      "▁প্রবেশ": 8771,
      "emographics": 8772,
      "మహేష్": 8773,
      "▁প্রভূত": 8774,
      "ence.": 8775,
      "మాణ": 8776,
      "▁প্রয়োগ": 8777,
      "ends": 8778,
      "మాదిరిగా": 8779,
      "▁প্রেরণ": 8780,
      "ength": 8781,
      "మానం:": 8782,
      "▁প্রকৃতি": 8783,
      "ential": 8784,
      "మాయణం": 8785,
      "▁প্রচলিত।": 8786,
      "ently": 8787,
      "మారుడు.": 8788,
      "▁প্রজাতন্ত্র,": 8789,
      "eously,": 8790,
      "మార్తె": 8791,
      "▁প্রতিবর্ণীকৃত:": 8792,
      "epal": 8793,
      "మీ;": 8794,
      "▁প্রতিবেশী": 8795,
      "epublic": 8796,
      "మీజ్": 8797,
      "▁প্রতিরক্ষা": 8798,
      "ercontinent": 8799,
      "మీదుగా": 8800,
      "▁প্রতিরোধ": 8801,
      "erly": 8802,
      "ముచిత": 8803,
      "▁প্রতিহত": 8804,
      "eror": 8805,
      "ముడ్చుకుంది.": 8806,
      "▁প্রতিযোগিতা": 8807,
      "erous": 8808,
      "మున,": 8809,
      "▁প্রতিযোগিতা,": 8810,
      "ert,": 8811,
      "మురు": 8812,
      "▁প্রতিষ্ঠাতা": 8813,
      "erved": 8814,
      "ములకు": 8815,
      "▁প্রথমে": 8816,
      "erala": 8817,
      "ముఖ్యతను": 8818,
      "▁প্রথাগতভাবে": 8819,
      "ercul": 8820,
      "ముఖ్యమైన": 8821,
      "▁প্রশাসন": 8822,
      "erculos": 8823,
      "మురు,": 8824,
      "▁প্রস্তর": 8825,
      "erculosis": 8826,
      "ములు.": 8827,
      "▁প্রস্তাব": 8828,
      "ereal": 8829,
      "మూల": 8830,
      "▁ফর": 8831,
      "es)": 8832,
      "మెంటరీ": 8833,
      "▁ফল": 8834,
      "ese,": 8835,
      "మైతే": 8836,
      "▁ফাইন": 8837,
      "espite": 8838,
      "మైనవి.": 8839,
      "▁ফার্সি": 8840,
      "espread": 8841,
      "మోన్నత": 8842,
      "▁ফ্রান্স": 8843,
      "essential": 8844,
      "మ్మ.": 8845,
      "▁বজায়": 8846,
      "etah": 8847,
      "మ్మదాబాదు": 8848,
      "▁বয়স": 8849,
      "eter": 8850,
      "మ్మూ": 8851,
      "▁বলিউড": 8852,
      "ets": 8853,
      "మ్యాలు": 8854,
      "▁বস্ত্র": 8855,
      "ety": 8856,
      "మ్యాలున్నాయి.": 8857,
      "▁বাল্যবিবাহ": 8858,
      "eticid": 8859,
      "మ్‌,": 8860,
      "▁বাস": 8861,
      "eticide,": 8862,
      "యం": 8863,
      "▁বৌদ্ধ": 8864,
      "ettled": 8865,
      "యం,": 8866,
      "▁বঙ্গোপসাগরে": 8867,
      "etworks": 8868,
      "యంతో": 8869,
      "▁বছরে": 8870,
      "everal": 8871,
      "యంలో,": 8872,
      "▁বছর।": 8873,
      "fact": 8874,
      "యనులు,": 8875,
      "▁বন্যপ্রাণী": 8876,
      "fer": 8877,
      "యన్మార్,": 8878,
      "▁বর্ণিত": 8879,
      "fort": 8880,
      "యి.": 8881,
      "▁বর্ষণারণ": 8882,
      "formed": 8883,
      "యింది": 8884,
      "▁বর্ষা": 8885,
      "fortable": 8886,
      "యుగ": 8887,
      "▁বহির্": 8888,
      "ga": 8889,
      "యూ": 8890,
      "▁বহুল": 8891,
      "gadiverse": 8892,
      "యా;": 8893,
      "▁বাঘ": 8894,
      "genc": 8895,
      "యాండర్": 8896,
      "▁বাংলা": 8897,
      "ginn": 8898,
      "యాణికుల": 8899,
      "▁বায়ুপ্রবাহকে": 8900,
      "ganised": 8901,
      "యావత్": 8902,
      "▁বিদ্রোহ": 8903,
      "ganiz": 8904,
      "యావత్‌": 8905,
      "▁বিনিয়োগের": 8906,
      "ganization": 8907,
      "యుగపు": 8908,
      "▁বিপর": 8909,
      "ginnings": 8910,
      "యూదులు,": 8911,
      "▁বিরোধ": 8912,
      "h-largest": 8913,
      "యోలి": 8914,
      "▁বিজয়ী": 8915,
      "has": 8916,
      "యోలిథిక్": 8917,
      "▁বিজয়ী।": 8918,
      "hau": 8919,
      "రంతై": 8920,
      "▁বিজেপি-বিরোধী": 8921,
      "house": 8922,
      "రకు,": 8923,
      "▁বিশ্বকাপের": 8924,
      "harkh": 8925,
      "రకూ": 8926,
      "▁বিষুব": 8927,
      "head": 8928,
      "రక్షరాస్యత,": 8929,
      "▁বিস্তারিত": 8930,
      "hereas": 8931,
      "రచింది.": 8932,
      "▁বৃক্ষ": 8933,
      "hered": 8934,
      "రతరాలుగా": 8935,
      "▁বৃহত্তম।": 8936,
      "heren": 8937,
      "రత్": 8938,
      "▁বেঙ্গালুরু": 8939,
      "hest": 8940,
      "రద్": 8941,
      "▁বেষ্ট": 8942,
      "herent": 8943,
      "రఫరా": 8944,
      "▁বেশি": 8945,
      "hess": 8946,
      "రము": 8947,
      "▁বেসরকারি": 8948,
      "hibian": 8949,
      "రమే.": 8950,
      "▁বৈদিক": 8951,
      "hip": 8952,
      "రమైతే": 8953,
      "▁বৈশ": 8954,
      "hār": 8955,
      "రలో": 8956,
      "▁বৈষম্য": 8957,
      "i.": 8958,
      "రవిం": 8959,
      "▁বৈচিত্র্যপূর্ণ": 8960,
      "iant": 8961,
      "రవే": 8962,
      "▁বোঝায়।": 8963,
      "ibet": 8964,
      "రాయ": 8965,
      "▁ব্যাপ্ত": 8966,
      "ible": 8967,
      "రాలు.": 8968,
      "▁ব্যাখ্য": 8969,
      "ii)": 8970,
      "రించిన": 8971,
      "▁ভাভা": 8972,
      "ij": 8973,
      "రించే": 8974,
      "▁ভি": 8975,
      "ily": 8976,
      "రీ;": 8977,
      "▁ভেষ": 8978,
      "ip": 8979,
      "రూ": 8980,
      "▁ভো": 8981,
      "iqu": 8982,
      "రూప": 8983,
      "▁ভারত,": 8984,
      "ianity,": 8985,
      "రతనాట్యం,": 8986,
      "▁ভারত-চীন": 8987,
      "ic.": 8988,
      "రతాయ": 8989,
      "▁ভারত।": 8990,
      "ick": 8991,
      "రతాయని": 8992,
      "▁ভারতবর্ষ": 8993,
      "icon": 8994,
      "రలోనే": 8995,
      "▁ভারতবাসী": 8996,
      "ically,": 8997,
      "రవింద్": 8998,
      "▁ভাষাকে": 8999,
      "idel": 9000,
      "రవేరతాయని": 9001,
      "▁ভাষাগোষ্ঠী": 9002,
      "idespread": 9003,
      "రా.": 9004,
      "▁ভিত্তিতে": 9005,
      "iding": 9006,
      "రాచీ,": 9007,
      "▁ভূগর্ভস্থ": 9008,
      "idly": 9009,
      "రాటం": 9010,
      "▁ভূতাত্ত্বিক": 9011,
      "iduous": 9012,
      "రాఠీ;": 9013,
      "▁ভূমি": 9014,
      "igawat": 9015,
      "రామనవమి,": 9016,
      "▁ভূমিকা": 9017,
      "iger": 9018,
      "రాష్ట్ర": 9019,
      "▁মণিপুর": 9020,
      "ighbour": 9021,
      "రాజకీయాల్లో": 9022,
      "▁মনে": 9023,
      "ijayanagara": 9024,
      "రాజయం": 9025,
      "▁মুক্ত": 9026,
      "ilar": 9027,
      "రాయల్": 9028,
      "▁মে": 9029,
      "ile": 9030,
      "రాష్ట్రపతులు": 9031,
      "▁মেয়াদে": 9032,
      "iled": 9033,
      "రియా;": 9034,
      "▁মোদী": 9035,
      "ilm": 9036,
      "రిగే": 9037,
      "▁মধ্যযুগীয়": 9038,
      "ilitated": 9039,
      "రిగాయి.": 9040,
      "▁মধ্যেই": 9041,
      "illed": 9042,
      "రిస్తారు": 9043,
      "▁মহা": 9044,
      "iming": 9045,
      "రిస్తూ": 9046,
      "▁মহাদেশ": 9047,
      "imultan": 9048,
      "రిస్తూ,": 9049,
      "▁মহামতি": 9050,
      "imultaneously,": 9051,
      "రుగా": 9052,
      "▁মহিলাদের": 9053,
      "in.": 9054,
      "రుదుగా": 9055,
      "▁মহাকাব্য": 9056,
      "ines": 9057,
      "రుష్": 9058,
      "▁মাইল)": 9059,
      "ins.": 9060,
      "రుస": 9061,
      "▁মাইল)।": 9062,
      "inth": 9063,
      "రుష్కుల": 9064,
      "▁মাঝামাঝি": 9065,
      "includ": 9066,
      "రుసగా": 9067,
      "▁মাথাপিছু": 9068,
      "including": 9069,
      "రూపం,": 9070,
      "▁মানববসতি": 9071,
      "irm": 9072,
      "రేడు": 9073,
      "▁মালদ্বীপ": 9074,
      "irt": 9075,
      "రేబియా": 9076,
      "▁মালভূমি": 9077,
      "isans": 9078,
      "రోః": 9079,
      "▁মুম্বই": 9080,
      "isdiction": 9081,
      "ర్గర్,": 9082,
      "▁মূল্য": 9083,
      "ision": 9084,
      "ర్టు,": 9085,
      "▁মৌর্য": 9086,
      "isions": 9087,
      "ర్ణాటక": 9088,
      "▁মৌসুমি": 9089,
      "isting": 9090,
      "ర్తా": 9091,
      "▁যথেষ্ট": 9092,
      "ital": 9093,
      "ర్దూ;": 9094,
      "▁যায়:": 9095,
      "ities": 9096,
      "ర్భవించింది.": 9097,
      "▁যুব": 9098,
      "iva": 9099,
      "ర్లు.": 9100,
      "▁যুক্তরাষ্ট্রের": 9101,
      "ival": 9102,
      "ర్‌": 9103,
      "▁যেখানে": 9104,
      "ixed": 9105,
      "ర్చుగ": 9106,
      "▁যেটি": 9107,
      "king": 9108,
      "ర్చుతో": 9109,
      "▁রক্ষার": 9110,
      "lands": 9111,
      "ర్చుగల్": 9112,
      "▁রপ্ত": 9113,
      "line": 9114,
      "ర్చుగల్,": 9115,
      "▁রবীন্দ্র": 9116,
      "ling": 9117,
      "ర్తిగా": 9118,
      "▁রন্ধনশৈ": 9119,
      "ls": 9120,
      "ర్యము": 9121,
      "▁রাখ": 9122,
      "laiming": 9123,
      "ర్శకుడైన": 9124,
      "▁রাসায়নিক": 9125,
      "legates": 9126,
      "ర్షం\",": 9127,
      "▁রাজা": 9128,
      "leges": 9129,
      "ర్షి": 9130,
      "▁রাজনীতি": 9131,
      "lic,": 9132,
      "ర్షణను": 9133,
      "▁রাষ্ট্রসংঘ": 9134,
      "limate": 9135,
      "ర్షణలను": 9136,
      "▁রাষ্ট্রের": 9137,
      "ma": 9138,
      "ర్షియనులు,": 9139,
      "▁রূপ": 9140,
      "mar,": 9141,
      "ర్‌)": 9142,
      "▁লাক্ষাদ্বীপ": 9143,
      "mers": 9144,
      "ల,": 9145,
      "▁লিখিত": 9146,
      "mn": 9147,
      "లబెట్టుకున్నాయి.": 9148,
      "▁লিঙ্গ": 9149,
      "mework": 9150,
      "లమానం:": 9151,
      "▁শক্তির": 9152,
      "mendments": 9153,
      "లమెంటరీ": 9154,
      "▁শান্তির": 9155,
      "ment,": 9156,
      "లల": 9157,
      "▁শিক্ষ": 9158,
      "ment.": 9159,
      "లస": 9160,
      "▁শতাংশ,": 9161,
      "mental": 9162,
      "లహ": 9163,
      "▁শতাংশে": 9164,
      "mented": 9165,
      "లిక": 9166,
      "▁শহর": 9167,
      "mergency,": 9168,
      "లీ,": 9169,
      "▁শহরাঞ্চল": 9170,
      "mns": 9171,
      "లీన": 9172,
      "▁শাসিত": 9173,
      "mphibian": 9174,
      "లె": 9175,
      "▁শাস্ত্রীয়": 9176,
      "nd": 9177,
      "లంక,": 9178,
      "▁শাসনবিভাগ": 9179,
      "nic": 9180,
      "లంకార": 9181,
      "▁শিল্পখাত": 9182,
      "ning": 9183,
      "లంపుతో": 9184,
      "▁শিল্পে": 9185,
      "niqu": 9186,
      "లలోను,": 9187,
      "▁শিশু": 9188,
      "nov": 9189,
      "లస్యం": 9190,
      "▁শ্রীলঙ্ক": 9191,
      "oeticide,": 9192,
      "లహా": 9193,
      "▁ষষ্ঠ": 9194,
      "ook": 9195,
      "లాగృహాలు,": 9196,
      "▁সত্ত্বেও": 9197,
      "oom": 9198,
      "లాదాయంలో": 9199,
      "▁সার্": 9200,
      "ove": 9201,
      "లియం,": 9202,
      "▁সিরিজ": 9203,
      "ovi": 9204,
      "లియాండర్": 9205,
      "▁সংক্ষিপ্ত": 9206,
      "och": 9207,
      "లివి": 9208,
      "▁সংখ্যক": 9209,
      "odel": 9210,
      "లిసింది.": 9211,
      "▁সংগ্রাম": 9212,
      "odu": 9213,
      "లింపిక్‌": 9214,
      "▁সংখ্যাগরিষ্ঠ": 9215,
      "oduce": 9216,
      "లికే": 9217,
      "▁সংবিধানের": 9218,
      "ogam": 9219,
      "లికేననీ": 9220,
      "▁সংরক্ষণের": 9221,
      "oint": 9222,
      "లిచారు.": 9223,
      "▁সংসদে": 9224,
      "ointed": 9225,
      "లిచింది.": 9226,
      "▁সংস্কারের": 9227,
      "oints": 9228,
      "లిచిన": 9229,
      "▁সকলকেই": 9230,
      "oken": 9231,
      "లివిజన్": 9232,
      "▁সঙ্গীতের": 9233,
      "olcan": 9234,
      "లీనో": 9235,
      "▁সদস্য।": 9236,
      "olent": 9237,
      "లీనోద్యమంలో": 9238,
      "▁সফটওয়্যার": 9239,
      "oli": 9240,
      "లెందరో": 9241,
      "▁সফল": 9242,
      "olit": 9243,
      "లేట్": 9244,
      "▁সমতা": 9245,
      "ollowing": 9246,
      "లోకాలతో": 9247,
      "▁সমতার": 9248,
      "olved": 9249,
      "లోచన": 9250,
      "▁সমতূল্য": 9251,
      "ological": 9252,
      "లోయ": 9253,
      "▁সমন্ব": 9254,
      "ommonwe": 9255,
      "ల్గి": 9256,
      "▁সমভূমি": 9257,
      "ommonwealth": 9258,
      "ల్తానులు,": 9259,
      "▁সমভূমির": 9260,
      "on,": 9261,
      "ల్లు.": 9262,
      "▁সমান্তর": 9263,
      "one": 9264,
      "ల్పకళ": 9265,
      "▁সমৃদ্ধি": 9266,
      "onomet": 9267,
      "ల్పో": 9268,
      "▁সম্রাট": 9269,
      "ons.": 9270,
      "ల్పోతూ": 9271,
      "▁সমাজতান্ত্রিক": 9272,
      "onse": 9273,
      "ల్లలుగా": 9274,
      "▁সম্পর্কের": 9275,
      "onvi": 9276,
      "ల్లోని": 9277,
      "▁সম্প্রদায়ের": 9278,
      "onds": 9279,
      "ల్వార్": 9280,
      "▁সম্মিলিত": 9281,
      "ondwan": 9282,
      "ళవిం": 9283,
      "▁সরঞ্জাম": 9284,
      "ondwana,": 9285,
      "ళుక": 9286,
      "▁সরীসৃপ": 9287,
      "onviolent": 9288,
      "ళులు,": 9289,
      "▁সহ-আয়োজক": 9290,
      "ority": 9291,
      "ళూరు": 9292,
      "▁সহকারী": 9293,
      "orders": 9294,
      "ళవింపబడి": 9295,
      "▁সহায়তা": 9296,
      "orest": 9297,
      "ళుక్య": 9298,
      "▁সাংসদ": 9299,
      "orne": 9300,
      "ళుక్యులు,": 9301,
      "▁সাধারণ": 9302,
      "ortheast": 9303,
      "ళ్ళపాటు": 9304,
      "▁সাধারণতন্ত্র।": 9305,
      "osa,": 9306,
      "ళ్ళు": 9307,
      "▁সার্বভৌম": 9308,
      "osing": 9309,
      "వంతమైన": 9310,
      "▁সিপাহি": 9311,
      "osition": 9312,
      "వరు": 9313,
      "▁সিংহভাগ": 9314,
      "osp": 9315,
      "వర్ణ": 9316,
      "▁সুপ্র": 9317,
      "osphere": 9318,
      "వర్షం\",": 9319,
      "▁সুপারকম্পিউটার": 9320,
      "otech": 9321,
      "వలి": 9322,
      "▁সূত্রপাত": 9323,
      "otsp": 9324,
      "వస్త": 9325,
      "▁স্মাইলিং": 9326,
      "otspot": 9327,
      "వార": 9328,
      "▁স্তন্যপায়ী": 9329,
      "ottom": 9330,
      "విత": 9331,
      "▁স্থায়ী": 9332,
      "ought": 9333,
      "వీ": 9334,
      "▁স্বতন্ত্র": 9335,
      "ouses": 9336,
      "వుల": 9337,
      "▁স্বাক্ষর": 9338,
      "ously": 9339,
      "వులు": 9340,
      "▁স্বাভাবিক": 9341,
      "oviet": 9342,
      "వై": 9343,
      "▁স্বা‌": 9344,
      "passing": 9345,
      "వైన": 9346,
      "▁স্বাধীনোত্তর": 9347,
      "pen": 9348,
      "వ‌": 9349,
      "▁হওয়া": 9350,
      "ped.": 9351,
      "వడం": 9352,
      "▁হতে": 9353,
      "pendent": 9354,
      "వరాలు": 9355,
      "▁হাইড্র": 9356,
      "perial": 9357,
      "వరోధ": 9358,
      "▁হাজার": 9359,
      "ptions,": 9360,
      "వరోధాల": 9361,
      "▁হায়দ্রাবাদ": 9362,
      "puts,": 9363,
      "వస్తు": 9364,
      "▁হীর": 9365,
      "rdu": 9366,
      "వస్తుందని": 9367,
      "▁হ্রাস": 9368,
      "rganization": 9369,
      "వాళ్లను": 9370,
      "▁হয়েছেন।": 9371,
      "rical": 9372,
      "వాస": 9373,
      "▁হারও": 9374,
      "rising": 9375,
      "వారంటో,": 9376,
      "▁হারের": 9377,
      "round": 9378,
      "వారిస్త": 9379,
      "▁হিন্দুধর্ম": 9380,
      "rup": 9381,
      "వారిస్తారు.": 9382,
      "▁হিন্দুস্ত": 9383,
      "ra.": 9384,
      "వాసాలు": 9385,
      "▁হিসেব": 9386,
      "re.": 9387,
      "విడ": 9388,
      "▁১৬": 9389,
      "reak": 9390,
      "విర్భవించింది.": 9391,
      "▁১২.৬%": 9392,
      "ream": 9393,
      "వితంలో": 9394,
      "▁১৯৫১": 9395,
      "reathing": 9396,
      "విస్తారు": 9397,
      "▁১৯৫০-এর": 9398,
      "reenhouse": 9399,
      "విస్తారు,": 9400,
      "▁১৯৬৫": 9401,
      "remely": 9402,
      "వీంద్రనాథ్": 9403,
      "▁১৯৭১": 9404,
      "resident,": 9405,
      "వుని": 9406,
      "▁১৯৭৪": 9407,
      "resolved": 9408,
      "వులైన": 9409,
      "▁১৯৭৫": 9410,
      "ressive": 9411,
      "వులైనప్పటికీ,": 9412,
      "▁১৯৮০": 9413,
      "ri,": 9414,
      "వేగంగా": 9415,
      "▁১৯৯৯": 9416,
      "ries": 9417,
      "వేత్తల": 9418,
      "▁২৬": 9419,
      "ripts": 9420,
      "వైపులా": 9421,
      "▁২৮": 9422,
      "rist": 9423,
      "వైనది.": 9424,
      "▁২৮টি": 9425,
      "rigonomet": 9426,
      "వ‌స్థ": 9427,
      "▁২০০৩": 9428,
      "ristianity,": 9429,
      "వ‌స్థ‌": 9430,
      "▁২০০৯": 9431,
      "ronic": 9432,
      "శంలోని": 9433,
      "▁২০১৪": 9434,
      "ronz": 9435,
      "శక": 9436,
      "▁২০১৮": 9437,
      "rought": 9438,
      "శలో": 9439,
      "▁৩৫": 9440,
      "set": 9441,
      "శాల": 9442,
      "▁৪৫": 9443,
      "side": 9444,
      "శైల": 9445,
      "▁৪৬": 9446,
      "sur": 9447,
      "శో": 9448,
      "▁৬০": 9449,
      "scriminator": 9450,
      "శ్రామ": 9451,
      "▁৬৩": 9452,
      "seas": 9453,
      "శ్వ": 9454,
      "▁৭,৫১৭": 9455,
      "sha": 9456,
      "శాల్య": 9457,
      "\"),": 9458,
      "shy": 9459,
      "శాల్యంలో": 9460,
      "\"।": 9461,
      "stantially": 9462,
      "శీతల": 9463,
      "stead": 9464,
      "శీతోష్ణ": 9465,
      "'র": 9466,
      "stitutes": 9467,
      "శైలస్య": 9468,
      "(এ": 9469,
      "ta,": 9470,
      "శోకుడు": 9471,
      "(এম": 9472,
      "te": 9473,
      "శ్రద్ధలతో,": 9474,
      "(এম))": 9475,
      "tified": 9476,
      "శ్రయాలు": 9477,
      ")—এই": 9478,
      "tive": 9479,
      "శ్రామిక": 9480,
      ",ঐতিহ": 9481,
      "tract": 9482,
      "శ్వత": 9483,
      ",০": 9484,
      "tt": 9485,
      "షం.": 9486,
      ",০০০": 9487,
      "tu": 9488,
      "షకాహార": 9489,
      ",৪": 9490,
      "ty.": 9491,
      "షాలు": 9492,
      ",৭": 9493,
      "ter-gatherers,": 9494,
      "షే": 9495,
      ",ঐতিহ্য": 9496,
      "u,": 9497,
      "షేధం,": 9498,
      ",০৯": 9499,
      "ufact": 9500,
      "ష్ణా": 9501,
      ",০৯৪": 9502,
      "uk": 9503,
      "ష్పం:": 9504,
      ",৩০১": 9505,
      "uberculosis": 9506,
      "ష్టంకాగా": 9507,
      ",৩৭০": 9508,
      "ulk": 9509,
      "ష్టి": 9510,
      ",৪২": 9511,
      "uls": 9512,
      "ష్ట్యా": 9513,
      ",৪২৩": 9514,
      "umbai,": 9515,
      "ష్ణ,": 9516,
      ",৬০১": 9517,
      "unter-gatherers,": 9518,
      "సం": 9519,
      ",৬৫": 9520,
      "ups,": 9521,
      "సత్తాక,": 9522,
      ",৬৫২টি": 9523,
      "urisdiction": 9524,
      "సభా": 9525,
      ",৬৫২টি।": 9526,
      "urn": 9527,
      "సరమైతే": 9528,
      ",৭০০": 9529,
      "urs": 9530,
      "సరా.": 9531,
      "-ই": 9532,
      "ustom": 9533,
      "సరిస్తూ,": 9534,
      "-গণ": 9535,
      "vasive": 9536,
      "సాక": 9537,
      "-গ্রাম": 9538,
      "vene": 9539,
      "సారిగా": 9540,
      "-জন": 9541,
      "ventually": 9542,
      "సాల": 9543,
      "-জাতি": 9544,
      "violence": 9545,
      "సిన": 9546,
      "-না": 9547,
      "vidence": 9548,
      "సుకోవడ": 9549,
      "-ব্যবস্থা": 9550,
      "west.": 9551,
      "సెస్": 9552,
      "-ভাষ": 9553,
      "xt": 9554,
      "స్రి": 9555,
      "-র": 9556,
      "yal": 9557,
      "సామీ;": 9558,
      "-রা": 9559,
      "ying": 9560,
      "సాహ": 9561,
      "-সংক্রান্ত": 9562,
      "yn": 9563,
      "సాకర్‌)": 9564,
      "-স্ত": 9565,
      "yth": 9566,
      "సాయం": 9567,
      "-অপারেশন": 9568,
      "ypically": 9569,
      "సాయుత": 9570,
      "-অপুষ্": 9571,
      "zed": 9572,
      "సాలాలు,": 9573,
      "-অভ্য": 9574,
      "సాహంగా,": 9575,
      "-অস্ট": 9576,
      "సీలు,": 9577,
      "-অধ্যুষিত,": 9578,
      "సును": 9579,
      "-অপুষ্টির": 9580,
      "సుకోవడంతో": 9581,
      "-অভ্যুত্থান": 9582,
      "సేతర": 9583,
      "-অভ্যুত্থান।": 9584,
      "స్టలు": 9585,
      "-অস্ট্রে": 9586,
      "స్టాటస్.": 9587,
      "-অস্ট্রেল": 9588,
      "స్సామీ;": 9589,
      "-অস্ট্রেলীয়": 9590,
      "స్,మహేష్": 9591,
      "-আই": 9592,
      "స్తవులు": 9593,
      "-আর্থ": 9594,
      "స్తానీ": 9595,
      "-আর্য": 9596,
      "స్తులు.": 9597,
      "-আইন": 9598,
      "స్థలు": 9599,
      "-আর্থ,": 9600,
      "స్థి": 9601,
      "-ইস্ট": 9602,
[...]
