{
  "version": "1.0",
  "truncation": null,
  "padding": null,
  "added_tokens": [],
  "normalizer": {
    "type": "Sequence",
    "normalizers": [
      {
        "type": "Replace",
        "pattern": {
          "Regex": "\\s+"
        },
        "content": " "
      },
      {
        "type": "Strip",
        "strip_left": true,
        "strip_right": true
      }
    ]
  },
  "pre_tokenizer": {
    "type": "Metaspace",
    "replacement": "▁",
    "prepend_scheme": "always",
    "split": true
  },
  "post_processor": null,
  "decoder": {
    "type": "Sequence",
    "decoders": [
      {
        "type": "Replace",
        "pattern": {
          "String": "▁"
        },
        "content": " "
      },
      {
        "type": "ByteFallback"
      },
      {
        "type": "Fuse"
      },
      {
        "type": "Strip",
        "content": " ",
        "start": 1,
        "stop": 0
      }
    ]
  },
  "model": {
    "type": "BPE",
    "dropout": null,
    "unk_token": null,
    "continuing_subword_prefix": null,
    "end_of_word_suffix": null,
    "fuse_unk": false,
    "byte_fallback": true,
    "ignore_merges": false,
    "vocab": {
      "<0x00>": 0,
      "<0x01>": 1,
      "<0x02>": 2,
      "<0x03>": 3,
      "<0x04>": 4,
      "<0x05>": 5,
      "<0x06>": 6,
      "<0x07>": 7,
      "<0x08>": 8,
      "<0x09>": 9,
      "<0x0A>": 10,
      "<0x0B>": 11,
      "<0x0C>": 12,
      "<0x0D>": 13,
      "<0x0E>": 14,
      "<0x0F>": 15,
      "<0x10>": 16,
      "<0x11>": 17,
      "<0x12>": 18,
      "<0x13>": 19,
      "<0x14>": 20,
      "<0x15>": 21,
      "<0x16>": 22,
      "<0x17>": 23,
      "<0x18>": 24,
      "<0x19>": 25,
      "<0x1A>": 26,
      "<0x1B>": 27,
      "<0x1C>": 28,
      "<0x1D>": 29,
      "<0x1E>": 30,
      "<0x1F>": 31,
      "<0x20>": 32,
      "<0x21>": 33,
      "<0x22>": 34,
      "<0x23>": 35,
      "<0x24>": 36,
      "<0x25>": 37,
      "<0x26>": 38,
      "<0x27>": 39,
      "<0x28>": 40,
      "<0x29>": 41,
      "<0x2A>": 42,
      "<0x2B>": 43,
      "<0x2C>": 44,
      "<0x2D>": 45,
      "<0x2E>": 46,
      "<0x2F>": 47,
      "<0x30>": 48,
      "<0x31>": 49,
      "<0x32>": 50,
      "<0x33>": 51,
      "<0x34>": 52,
      "<0x35>": 53,
      "<0x36>": 54,
      "<0x37>": 55,
      "<0x38>": 56,
      "<0x39>": 57,
      "<0x3A>": 58,
      "<0x3B>": 59,
      "<0x3C>": 60,
      "<0x3D>": 61,
      "<0x3E>": 62,
      "<0x3F>": 63,
      "<0x40>": 64,
      "<0x41>": 65,
      "<0x42>": 66,
      "<0x43>": 67,
      "<0x44>": 68,
      "<0x45>": 69,
      "<0x46>": 70,
      "<0x47>": 71,
      "<0x48>": 72,
      "<0x49>": 73,
      "<0x4A>": 74,
      "<0x4B>": 75,
      "<0x4C>": 76,
      "<0x4D>": 77,
      "<0x4E>": 78,
      "<0x4F>": 79,
      "<0x50>": 80,
      "<0x51>": 81,
      "<0x52>": 82,
      "<0x53>": 83,
      "<0x54>": 84,
      "<0x55>": 85,
      "<0x56>": 86,
      "<0x57>": 87,
      "<0x58>": 88,
      "<0x59>": 89,
      "<0x5A>": 90,
      "<0x5B>": 91,
      "<0x5C>": 92,
      "<0x5D>": 93,
      "<0x5E>": 94,
      "<0x5F>": 95,
      "<0x60>": 96,
      "<0x61>": 97,
      "<0x62>": 98,
      "<0x63>": 99,
      "<0x64>": 100,
      "<0x65>": 101,
      "<0x66>": 102,
      "<0x67>": 103,
      "<0x68>": 104,
      "<0x69>": 105,
      "<0x6A>": 106,
      "<0x6B>": 107,
      "<0x6C>": 108,
      "<0x6D>": 109,
      "<0x6E>": 110,
      "<0x6F>": 111,
      "<0x70>": 112,
      "<0x71>": 113,
      "<0x72>": 114,
      "<0x73>": 115,
      "<0x74>": 116,
      "<0x75>": 117,
      "<0x76>": 118,
      "<0x77>": 119,
      "<0x78>": 120,
      "<0x79>": 121,
      "<0x7A>": 122,
      "<0x7B>": 123,
      "<0x7C>": 124,
      "<0x7D>": 125,
      "<0x7E>": 126,
      "<0x7F>": 127,
      "<0x80>": 128,
      "<0x81>": 129,
      "<0x82>": 130,
      "<0x83>": 131,
      "<0x84>": 132,
      "<0x85>": 133,
      "<0x86>": 134,
      "<0x87>": 135,
      "<0x88>": 136,
      "<0x89>": 137,
      "<0x8A>": 138,
      "<0x8B>": 139,
      "<0x8C>": 140,
      "<0x8D>": 141,
      "<0x8E>": 142,
      "<0x8F>": 143,
      "<0x90>": 144,
      "<0x91>": 145,
      "<0x92>": 146,
      "<0x93>": 147,
      "<0x94>": 148,
      "<0x95>": 149,
      "<0x96>": 150,
      "<0x97>": 151,
      "<0x98>": 152,
      "<0x99>": 153,
      "<0x9A>": 154,
      "<0x9B>": 155,
      "<0x9C>": 156,
      "<0x9D>": 157,
      "<0x9E>": 158,
      "<0x9F>": 159,
      "<0xA0>": 160,
      "<0xA1>": 161,
      "<0xA2>": 162,
      "<0xA3>": 163,
      "<0xA4>": 164,
      "<0xA5>": 165,
      "<0xA6>": 166,
      "<0xA7>": 167,
      "<0xA8>": 168,
      "<0xA9>": 169,
      "<0xAA>": 170,
      "<0xAB>": 171,
      "<0xAC>": 172,
      "<0xAD>": 173,
      "<0xAE>": 174,
      "<0xAF>": 175,
      "<0xB0>": 176,
      "<0xB1>": 177,
      "<0xB2>": 178,
      "<0xB3>": 179,
      "<0xB4>": 180,
      "<0xB5>": 181,
      "<0xB6>": 182,
      "<0xB7>": 183,
      "<0xB8>": 184,
      "<0xB9>": 185,
      "<0xBA>": 186,
      "<0xBB>": 187,
      "<0xBC>": 188,
      "<0xBD>": 189,
      "<0xBE>": 190,
      "<0xBF>": 191,
      "<0xC0>": 192,
      "<0xC1>": 193,
      "<0xC2>": 194,
      "<0xC3>": 195,
      "<0xC4>": 196,
      "<0xC5>": 197,
      "<0xC6>": 198,
      "<0xC7>": 199,
      "<0xC8>": 200,
      "<0xC9>": 201,
      "<0xCA>": 202,
      "<0xCB>": 203,
      "<0xCC>": 204,
      "<0xCD>": 205,
      "<0xCE>": 206,
      "<0xCF>": 207,
      "<0xD0>": 208,
      "<0xD1>": 209,
      "<0xD2>": 210,
      "<0xD3>": 211,
      "<0xD4>": 212,
      "<0xD5>": 213,
      "<0xD6>": 214,
      "<0xD7>": 215,
      "<0xD8>": 216,
      "<0xD9>": 217,
      "<0xDA>": 218,
      "<0xDB>": 219,
      "<0xDC>": 220,
      "<0xDD>": 221,
      "<0xDE>": 222,
      "<0xDF>": 223,
      "<0xE0>": 224,
      "<0xE1>": 225,
      "<0xE2>": 226,
      "<0xE3>": 227,
      "<0xE4>": 228,
      "<0xE5>": 229,
      "<0xE6>": 230,
      "<0xE7>": 231,
      "<0xE8>": 232,
      "<0xE9>": 233,
      "<0xEA>": 234,
      "<0xEB>": 235,
      "<0xEC>": 236,
      "<0xED>": 237,
      "<0xEE>": 238,
      "<0xEF>": 239,
      "<0xF0>": 240,
      "<0xF1>": 241,
      "<0xF2>": 242,
      "<0xF3>": 243,
      "<0xF4>": 244,
      "<0xF5>": 245,
      "<0xF6>": 246,
      "<0xF7>": 247,
      "<0xF8>": 248,
      "<0xF9>": 249,
      "<0xFA>": 250,
      "<0xFB>": 251,
      "<0xFC>": 252,
      "<0xFD>": 253,
      "<0xFE>": 254,
      "<0xFF>": 255,
      "!": 256,
      "\"": 257,
      "#": 258,
      "$": 259,
      "%": 260,
      "&": 261,
      "'": 262,
      "(": 263,
      ")": 264,
      "*": 265,
      "+": 266,
      ",": 267,
      "-": 268,
      ".": 269,
      "/": 270,
      "0": 271,
      "1": 272,
      "2": 273,
      "3": 274,
      "4": 275,
      "5": 276,
      "6": 277,
      "7": 278,
      "8": 279,
      "9": 280,
      ":": 281,
      ";": 282,
      "<": 283,
      "=": 284,
      ">": 285,
      "?": 286,
      "A": 287,
      "B": 288,
      "C": 289,
      "D": 290,
      "E": 291,
      "F": 292,
      "G": 293,
      "H": 294,
      "I": 295,
      "J": 296,
      "K": 297,
      "L": 298,
      "M": 299,
      "N": 300,
      "O": 301,
      "P": 302,
      "Q": 303,
      "R": 304,
      "S": 305,
      "T": 306,
      "U": 307,
      "V": 308,
      "W": 309,
      "X": 310,
      "Y": 311,
      "Z": 312,
      "[": 313,
      "\\": 314,
      "]": 315,
      "^": 316,
      "_": 317,
      "`": 318,
      "a": 319,
      "b": 320,
      "c": 321,
      "d": 322,
      "e": 323,
      "f": 324,
      "g": 325,
      "h": 326,
      "i": 327,
      "j": 328,
      "k": 329,
      "l": 330,
      "m": 331,
      "n": 332,
      "o": 333,
      "p": 334,
      "q": 335,
      "r": 336,
      "s": 337,
      "t": 338,
      "u": 339,
      "v": 340,
      "w": 341,
      "x": 342,
      "y": 343,
      "z": 344,
      "{": 345,
      "|": 346,
      "}": 347,
      "~": 348,
      "°": 349,
      "´": 350,
      "·": 351,
      "Ö": 352,
      "ß": 353,
      "á": 354,
      "â": 355,
      "æ": 356,
      "ç": 357,
      "è": 358,
      "é": 359,
      "í": 360,
      "ñ": 361,
      "ö": 362,
      "ü": 363,
      "ā": 364,
      "ī": 365,
      "İ": 366,
      "Ś": 367,
      "ś": 368,
      "ţ": 369,
      "ū": 370,
      "ș": 371,
      "ə": 372,
      "ɦ": 373,
      "ɪ": 374,
      "ɾ": 375,
      "ʊ": 376,
      "ʱ": 377,
      "ʼ": 378,
      "ˈ": 379,
      "ː": 380,
      "ί": 381,
      "α": 382,
      "δ": 383,
      "θ": 384,
      "ν": 385,
      "ο": 386,
      "π": 387,
      "ς": 388,
      "ό": 389,
      "ँ": 390,
      "ं": 391,
      "ः": 392,
      "अ": 393,
      "आ": 394,
      "इ": 395,
      "ई": 396,
      "उ": 397,
      "ऊ": 398,
      "ऋ": 399,
      "ऍ": 400,
      "ए": 401,
      "ऐ": 402,
      "ऑ": 403,
      "ओ": 404,
      "औ": 405,
      "क": 406,
      "ख": 407,
      "ग": 408,
      "घ": 409,
      "ङ": 410,
      "च": 411,
      "छ": 412,
      "ज": 413,
      "झ": 414,
      "ञ": 415,
      "ट": 416,
      "ठ": 417,
      "ड": 418,
      "ढ": 419,
      "ण": 420,
      "त": 421,
      "थ": 422,
      "द": 423,
      "ध": 424,
      "न": 425,
      "प": 426,
      "फ": 427,
      "ब": 428,
      "भ": 429,
      "म": 430,
      "य": 431,
      "र": 432,
      "ल": 433,
      "ळ": 434,
      "व": 435,
      "श": 436,
      "ष": 437,
      "स": 438,
      "ह": 439,
      "़": 440,
      "ा": 441,
      "ि": 442,
      "ी": 443,
      "ु": 444,
      "ू": 445,
      "ृ": 446,
      "े": 447,
      "ै": 448,
      "ॉ": 449,
      "ॊ": 450,
      "ो": 451,
      "ौ": 452,
      "्": 453,
      "।": 454,
      "०": 455,
      "१": 456,
      "२": 457,
      "३": 458,
      "४": 459,
      "५": 460,
      "६": 461,
      "७": 462,
      "८": 463,
      "९": 464,
      "॰": 465,
      "ঁ": 466,
      "ং": 467,
      "ঃ": 468,
      "অ": 469,
      "আ": 470,
      "ই": 471,
      "ঈ": 472,
      "উ": 473,
      "ঊ": 474,
      "ঋ": 475,
      "এ": 476,
      "ঐ": 477,
      "ও": 478,
      "ঔ": 479,
      "ক": 480,
      "খ": 481,
      "গ": 482,
      "ঘ": 483,
      "ঙ": 484,
      "চ": 485,
      "ছ": 486,
      "জ": 487,
      "ঝ": 488,
      "ঞ": 489,
      "ট": 490,
      "ঠ": 491,
      "ড": 492,
      "ঢ": 493,
      "ণ": 494,
      "ত": 495,
      "থ": 496,
      "দ": 497,
      "ধ": 498,
      "ন": 499,
      "প": 500,
      "ফ": 501,
      "ব": 502,
      "ভ": 503,
      "ম": 504,
      "য": 505,
      "র": 506,
      "ল": 507,
      "শ": 508,
      "ষ": 509,
      "স": 510,
      "হ": 511,
      "়": 512,
      "া": 513,
      "ি": 514,
      "ী": 515,
      "ু": 516,
      "ূ": 517,
      "ৃ": 518,
      "ে": 519,
      "ৈ": 520,
      "ো": 521,
      "ৌ": 522,
      "্": 523,
      "ৎ": 524,
      "০": 525,
      "১": 526,
      "২": 527,
      "৩": 528,
      "৪": 529,
      "৫": 530,
      "৬": 531,
      "৭": 532,
      "৮": 533,
      "৯": 534,
      "ం": 535,
      "ః": 536,
      "అ": 537,
      "ఆ": 538,
      "ఇ": 539,
      "ఈ": 540,
      "ఉ": 541,
      "ఋ": 542,
      "ఎ": 543,
      "ఏ": 544,
      "ఐ": 545,
      "ఒ": 546,
      "ఓ": 547,
      "ఔ": 548,
      "క": 549,
      "ఖ": 550,
      "గ": 551,
      "ఘ": 552,
      "చ": 553,
      "ఛ": 554,
      "జ": 555,
      "ఞ": 556,
      "ట": 557,
      "ఠ": 558,
      "డ": 559,
      "ఢ": 560,
      "ణ": 561,
      "త": 562,
      "థ": 563,
      "ద": 564,
      "ధ": 565,
      "న": 566,
      "ప": 567,
      "ఫ": 568,
      "బ": 569,
      "భ": 570,
      "మ": 571,
      "య": 572,
      "ర": 573,
      "ల": 574,
      "ళ": 575,
      "వ": 576,
      "శ": 577,
      "ష": 578,
      "స": 579,
      "హ": 580,
      "ా": 581,
      "ి": 582,
      "ీ": 583,
      "ు": 584,
      "ూ": 585,
      "ృ": 586,
      "ె": 587,
      "ే": 588,
      "ై": 589,
      "ొ": 590,
      "ో": 591,
      "ౌ": 592,
      "్": 593,
      "ṅ": 594,
      "ṇ": 595,
      "Ṛ": 596,
      "ṣ": 597,
      "ṭ": 598,
      "Ἰ": 599,
      "‌": 600,
      "‍": 601,
      "‎": 602,
      "–": 603,
      "—": 604,
      "‘": 605,
      "’": 606,
      "“": 607,
      "”": 608,
      "†": 609,
      "•": 610,
      "…": 611,
      "′": 612,
      "″": 613,
      "‹": 614,
      "›": 615,
      "⁡": 616,
      "₹": 617,
      "↑": 618,
      "−": 619,
      "ⓘ": 620,
      "▁": 621,
      "nd": 622,
      "](": 623,
      "ার": 624,
      "ia": 625,
      "ार": 626,
      "్ర": 627,
      "./": 628,
      "▁[": 629,
      "](./": 630,
      "▁क": 631,
      "▁\"": 632,
      "্র": 633,
      "in": 634,
      "्र": 635,
      "\")": 636,
      "ভার": 637,
      "er": 638,
      "▁|": 639,
      "ভারত": 640,
      "ndia": 641,
      "ార": 642,
      "য়": 643,
      "on": 644,
      "भार": 645,
      "ాల": 646,
      "India": 647,
      "भारत": 648,
      "్య": 649,
      "th": 650,
      "▁स": 651,
      "భార": 652,
      "ের": 653,
      "te": 654,
      "▁म": 655,
      "భారత": 656,
      "্য": 657,
      "्य": 658,
      "దే": 659,
      "ti": 660,
      "స్": 661,
      "▁স": 662,
      "దేశ": 663,
      "](./ভারত": 664,
      "al": 665,
      "रा": 666,
      "▁ప": 667,
      "ন্": 668,
      "an": 669,
      "▁प": 670,
      "ed": 671,
      "র্": 672,
      "ar": 673,
      "సా": 674,
      "বি": 675,
      "or": 676,
      "20": 677,
      "es": 678,
      "ें": 679,
      "তি": 680,
      "en": 681,
      "ान": 682,
      "న్": 683,
      "▁के": 684,
      "▁*": 685,
      "of": 686,
      "र्": 687,
      "ర్": 688,
      "▁প": 689,
      "is": 690,
      "](./भारत": 691,
      "di": 692,
      "the": 693,
      "▁ह": 694,
      "it": 695,
      "re": 696,
      "▁a": 697,
      "्त": 698,
      "లు": 699,
      "ান": 700,
      "िक": 701,
      "రా": 702,
      "ক্": 703,
      "▁the": 704,
      "భారతదేశ": 705,
      "ht": 706,
      "या": 707,
      ".శ": 708,
      "▁of": 709,
      ".శ.": 710,
      "om": 711,
      "▁में": 712,
      "లో": 713,
      "](./India": 714,
      "సా.శ.": 715,
      "ou": 716,
      "ीय": 717,
      "tion": 718,
      "ci": 719,
      "▁अ": 720,
      "▁క": 721,
      "//": 722,
      "త్ర": 723,
      "স্": 724,
      "](./India#": 725,
      "ాలు": 726,
      "ীয়": 727,
      "ों": 728,
      "రి": 729,
      "▁(": 730,
      "ic": 731,
      "క్": 732,
      "as": 733,
      "tp": 734,
      "▁India": 735,
      "te_": 736,
      "ంద": 737,
      "://": 738,
      "वि": 739,
      "http": 740,
      "](./भारत#": 741,
      "▁వ": 742,
      "াল": 743,
      "▁in": 744,
      "ना": 745,
      "ని": 746,
      "িক": 747,
      "le": 748,
      "](./ভারত#": 749,
      "](./India#ci": 750,
      "ల్": 751,
      "](./India#cite_": 752,
      "▁ज": 753,
      "భారతదేశం": 754,
      "▁অ": 755,
      "oo": 756,
      "्ष": 757,
      "ంగ": 758,
      "রা": 759,
      "▁p": 760,
      "_क": 761,
      "▁స": 762,
      "ত্র": 763,
      "id": 764,
      "ाल": 765,
      "ac": 766,
      "▁ম": 767,
      "OT": 768,
      "▁है": 769,
      "▁మ": 770,
      "▁s": 771,
      "▁ప్ర": 772,
      "বা": 773,
      "ch": 774,
      "ీయ": 775,
      "](./ভারত#ci": 776,
      "tr": 777,
      "▁द": 778,
      "](./ভারত#cite_": 779,
      "201": 780,
      "](./भारत#ci": 781,
      "ండ": 782,
      "▁২": 783,
      "▁and": 784,
      "](./भारत#cite_": 785,
      "lin": 786,
      "la": 787,
      "त्र": 788,
      "red": 789,
      "▁ক": 790,
      "ing": 791,
      "राज": 792,
      "జ్య": 793,
      "ent": 794,
      "न्": 795,
      "▁చ": 796,
      "ww": 797,
      "=1": 798,
      "দ্": 799,
      "19": 800,
      "ेश": 801,
      "link": 802,
      "টি": 803,
      "tt": 804,
      "▁भारत": 805,
      "ి.": 806,
      "dia": 807,
      "am": 808,
      "?ac": 809,
      "হা": 810,
      "▁A": 811,
      "िया": 812,
      "?action": 813,
      "▁c": 814,
      "और": 815,
      "?action=": 816,
      "সা": 817,
      "ec": 818,
      "▁ब": 819,
      "&red": 820,
      "▁\"ভারত": 821,
      "-0": 822,
      "▁की": 823,
      "&redlink": 824,
      "](http": 825,
      "▁f": 826,
      "ंग": 827,
      "&redlink=1": 828,
      "▁ত": 829,
      "iv": 830,
      "?action=ed": 831,
      "ক্ষ": 832,
      "▁w": 833,
      "▁प्र": 834,
      "?action=edit": 835,
      "▁উ": 836,
      "ra": 837,
      "ला": 838,
      "?action=edit&redlink=1": 839,
      "▁त": 840,
      "తా": 841,
      "▁এ": 842,
      "ook": 843,
      "ము": 844,
      "ারি": 845,
      "्व": 846,
      "నా": 847,
      "ের_": 848,
      "us": 849,
      "్ట": 850,
      "g/": 851,
      "no": 852,
      "▁न": 853,
      "తి": 854,
      "ভা": 855,
      "▁S": 856,
      "भा": 857,
      "▁ভারত": 858,
      "▁b": 859,
      "▁से": 860,
      "త్": 861,
      "▁প্র": 862,
      ").": 863,
      "-1": 864,
      "సి": 865,
      "at": 866,
      "▁और": 867,
      "কা": 868,
      "ur": 869,
      "▁का": 870,
      "▁ব": 871,
      "ps": 872,
      "**": 873,
      "েশ": 874,
      "ist": 875,
      "_स": 876,
      "▁২০": 877,
      "ation": 878,
      "▁(సా.శ.": 879,
      "▁ও": 880,
      "htt": 881,
      "ता": 882,
      "ులు": 883,
      "▁ন": 884,
      "▁m": 885,
      "200": 886,
      "▁రా": 887,
      "il": 888,
      "्ट": 889,
      "▁**": 890,
      "দ্ধ": 891,
      "▁1": 892,
      "యా": 893,
      ".or": 894,
      "▁t": 895,
      "్రా": 896,
      "তা": 897,
      "–సా.శ.": 898,
      "ge": 899,
      "▁అ": 900,
      "▁জ": 901,
      "https": 902,
      "▁\"भारत": 903,
      "s://": 904,
      "ol": 905,
      "▁व": 906,
      "e_": 907,
      ".org/": 908,
      "https://": 909,
      "स्त": 910,
      "ిక": 911,
      "we": 912,
      "ig": 913,
      "తం": 914,
      "▁আ": 915,
      "▁C": 916,
      "राज्य": 917,
      "▁হ": 918,
      "78": 919,
      "▁•": 920,
      "జ్యం": 921,
      "িয়": 922,
      "et": 923,
      "क्ष": 924,
      "ిన": 925,
      ")।": 926,
      "ref": 927,
      "ित": 928,
      "ন্দ": 929,
      "ad": 930,
      "্ব": 931,
      "te-": 932,
      "▁P": 933,
      "न्द": 934,
      "జా": 935,
      "কে": 936,
      "[[": 937,
      "]](./India#cite_": 938,
      "▁आ": 939,
      "ంచ": 940,
      "In": 941,
      "](./India#cite_ref": 942,
      "కు": 943,
      "াত": 944,
      "](./India#cite_ref-": 945,
      "पु": 946,
      "](./భారతదేశం": 947,
      "]](./India#cite_no": 948,
      "षा": 949,
      "ను": 950,
      "ৃতি": 951,
      "]](./India#cite_note-": 952,
      "ति": 953,
      "పూ": 954,
      "_India": 955,
      "ास": 956,
      "00": 957,
      "web": 958,
      "ial": 959,
      "स्": 960,
      "·**": 961,
      "](https://": 962,
      "ce": 963,
      "्रे": 964,
      "▁**·**": 965,
      "▁বি": 966,
      "Sou": 967,
      "\"),": 968,
      "্চ": 969,
      "_of": 970,
      "భా": 971,
      "भाषा": 972,
      "ারিখ": 973,
      "ang": 974,
      "ी\")": 975,
      "ద్": 976,
      "▁সং": 977,
      "ింద": 978,
      "▁তারিখ": 979,
      "el": 980,
      "▁শ": 981,
      "▁को": 982,
      "▁ఉ": 983,
      "um": 984,
      "मा": 985,
      "▁ఆ": 986,
      "িত": 987,
      "▁d": 988,
      "]](./भारत#cite_": 989,
      "co": 990,
      "ষ্": 991,
      "IS": 992,
      "](./भारत#cite_ref": 993,
      "ప్ర": 994,
      "প্র": 995,
      "Th": 996,
      "]](./भारत#cite_no": 997,
      "▁ర": 998,
      "FO": 999,
      "]](./भारत#cite_note": 1000,
      "భారతీయ": 1001,
      "্যা": 1002,
      "978": 1003,
      "था": 1004,
      "మా": 1005,
      "লা": 1006,
      "FOOT": 1007,
      "--": 1008,
      "▁సా": 1009,
      "]](./ভারত#cite_": 1010,
      "FOOTN": 1011,
      "వా": 1012,
      "](./ভারত#cite_ref": 1013,
      "FOOTNOT": 1014,
      "▁ग": 1015,
      "Ind": 1016,
      "]](./ভারত#cite_no": 1017,
      "FOOTNOTE": 1018,
      "▁पर": 1019,
      "]](./ভারত#cite_note": 1020,
      "ion": 1021,
      "రు": 1022,
      "▁দ": 1023,
      "ers": 1024,
      "పూ.": 1025,
      "য়ে": 1026,
      "BN": 1027,
      "ష్ట": 1028,
      "ISBN": 1029,
      "▁उ": 1030,
      "ార్": 1031,
      "em": 1032,
      "देश": 1033,
      "িল": 1034,
      "im": 1035,
      "edi": 1036,
      "and": 1037,
      "w.": 1038,
      "op": 1039,
      "▁\"ভারতের": 1040,
      "ov": 1041,
      "▁ए": 1042,
      "వి": 1043,
      "](./ভারতের_": 1044,
      "▁R": 1045,
      "ष्ट": 1046,
      "fi": 1047,
      "ाद": 1048,
      "ঙ্": 1049,
      "▁M": 1050,
      "▁है।": 1051,
      "క్ష": 1052,
      "www.": 1053,
      "enti": 1054,
      "రిత్ర": 1055,
      "য্য": 1056,
      "\").": 1057,
      "ी](./": 1058,
      "స్థ": 1059,
      "হায্য": 1060,
      "▁to": 1061,
      "ड़": 1062,
      "](./భారతదేశం#": 1063,
      "সাহায্য": 1064,
      "er)": 1065,
      "_के": 1066,
      "న్న": 1067,
      "identi": 1068,
      "ces": 1069,
      "▁श": 1070,
      "cit": 1071,
      "▁[আ": 1072,
      "identifi": 1073,
      "identifier)": 1074,
      "▁[म": 1075,
      "ৃত": 1076,
      "_म": 1077,
      "ాం": 1078,
      "ট্র": 1079,
      "ul": 1080,
      "eb": 1081,
      ".j": 1082,
      "ate": 1083,
      "ष्ट्र": 1084,
      ".jp": 1085,
      "দ্ধৃতি": 1086,
      "Sp": 1087,
      "ूच": 1088,
      "](./భారతదేశం#cit": 1089,
      "ভাষ": 1090,
      "▁h": 1091,
      "▁वि": 1092,
      "](./భారతదేశం#cite_": 1093,
      "▁১": 1094,
      "▁l": 1095,
      "▁सं": 1096,
      "కి": 1097,
      "গ্র": 1098,
      "com": 1099,
      "▁B": 1100,
      "ంట": 1101,
      "edit": 1102,
      "The": 1103,
      "dit": 1104,
      "మ్రా": 1105,
      "া\")": 1106,
      "res": 1107,
      "ने": 1108,
      "ష్ట్ర": 1109,
      "tion=": 1110,
      "▁India\")": 1111,
      "রি": 1112,
      "↑](./India#cite_ref-": 1113,
      "▁থ": 1114,
      "▁[↑](./India#cite_ref-": 1115,
      "పు": 1116,
      "ir": 1117,
      "िल": 1118,
      "▁న": 1119,
      "ern": 1120,
      "](./भारत#cite_ref-": 1121,
      "লি": 1122,
      "tic": 1123,
      "]](./भारत#cite_note-": 1124,
      "▁త": 1125,
      "action=": 1126,
      "ecial": 1127,
      "का": 1128,
      "ind": 1129,
      "মা": 1130,
      "book": 1131,
      "ेत्र": 1132,
      "మి": 1133,
      "sia": 1134,
      "ాన": 1135,
      "action=edit": 1136,
      "ev": 1137,
      "ాయ": 1138,
      "s.": 1139,
      "प्र": 1140,
      "▁ఇ": 1141,
      "▁I": 1142,
      "▁ल": 1143,
      "భాష": 1144,
      "↑](./ভারত#cite_ref": 1145,
      "10": 1146,
      "▁దేశ": 1147,
      "▁[↑](./ভারত#cite_ref": 1148,
      "Special": 1149,
      "_के_": 1150,
      "పాల": 1151,
      "রে": 1152,
      "Special:": 1153,
      "స్తా": 1154,
      "ik": 1155,
      "▁इ": 1156,
      "లీ": 1157,
      "ity": 1158,
      "pl": 1159,
      "lo": 1160,
      "ro": 1161,
      "म्": 1162,
      "పా": 1163,
      "्या": 1164,
      "ia.": 1165,
      "▁201": 1166,
      "री": 1167,
      "మ్రాజ్యం": 1168,
      "ak": 1169,
      "िय": 1170,
      "–సా.శ.1": 1171,
      "hi": 1172,
      "arch": 1173,
      "-0)": 1174,
      "▁[↑": 1175,
      "ం:": 1176,
      "মি": 1177,
      "202": 1178,
      "దేశ్": 1179,
      "েকে": 1180,
      "▁2": 1181,
      "▁గ": 1182,
      "%A": 1183,
      "ment": 1184,
      "सा": 1185,
      "ం\")": 1186,
      "বিশ": 1187,
      "हि": 1188,
      "ం](./": 1189,
      "রাজ": 1190,
      "rces": 1191,
      "सं": 1192,
      "టి": 1193,
      "ূল": 1194,
      "त्त": 1195,
      "తీయ": 1196,
      "▁থেকে": 1197,
      "/978": 1198,
      "▁र": 1199,
      "লী": 1200,
      "),": 1201,
      "Book": 1202,
      "ज़": 1203,
      "wi": 1204,
      "িন": 1205,
      "Sources": 1206,
      "েষ": 1207,
      "BookSources": 1208,
      "ంలో": 1209,
      "▁২০০": 1210,
      "Special:BookSources": 1211,
      "=e": 1212,
      "స్తాన్": 1213,
      "▁D": 1214,
      "=edit": 1215,
      "সং": 1216,
      "Special:BookSources/978": 1217,
      "action": 1218,
      "ag": 1219,
      "]](./ভারত#cite_note-": 1220,
      "un": 1221,
      "ki": 1222,
      "iden": 1223,
      "st": 1224,
      "wiki": 1225,
      "li": 1226,
      "▁E": 1227,
      "డు": 1228,
      "যু": 1229,
      "Un": 1230,
      "నే": 1231,
      "স্থ": 1232,
      "ly": 1233,
      "్చ": 1234,
      "বই": 1235,
      "_of_": 1236,
      "▁(సా.శ.1": 1237,
      "_(": 1238,
      "గా": 1239,
      "ঙ্গ": 1240,
      "-2": 1241,
      "र्व": 1242,
      "మూ": 1243,
      "্প": 1244,
      "ons": 1245,
      "ंड": 1246,
      "్రీ": 1247,
      "ৈলী": 1248,
      "ua": 1249,
      "▁జ": 1250,
      "্ত": 1251,
      "sh": 1252,
      "ी_": 1253,
      "ంబ": 1254,
      "কার": 1255,
      "rom": 1256,
      "ంగా": 1257,
      "কৃত": 1258,
      "▁e": 1259,
      "org/": 1260,
      "tri": 1261,
      "िस": 1262,
      "డ్": 1263,
      "IT": 1264,
      "राष्ट्र": 1265,
      "ిల్": 1266,
      "_in": 1267,
      "err": 1268,
      "ুটি": 1269,
      "ay": 1270,
      "error": 1271,
      "ৎস": 1272,
      "▁N": 1273,
      "ीन": 1274,
      "లి": 1275,
      "fier": 1276,
      "angua": 1277,
      "స్త్ర": 1278,
      "identifier": 1279,
      "tu": 1280,
      "्षेत्र": 1281,
      "▁వి": 1282,
      "RE": 1283,
      "▁सा": 1284,
      "না": 1285,
      "▁G": 1286,
      "▁राज्य": 1287,
      "g)": 1288,
      "ন্ত্র": 1289,
      "est": 1290,
      "కా": 1291,
      "CIT": 1292,
      "चि": 1293,
      "జాతీయ": 1294,
      ":উ": 1295,
      "ణా": 1296,
      "CITE": 1297,
      "मन": 1298,
      "ధిక": 1299,
      ":উদ্ধৃতি": 1300,
      "CITERE": 1301,
      "fn": 1302,
      "ింది.": 1303,
      "](./India#CITERE": 1304,
      "ले": 1305,
      "▁భారతదేశం": 1306,
      "](./India#CITEREF": 1307,
      "गर": 1308,
      "గు": 1309,
      "ive": 1310,
      "-4": 1311,
      "जा": 1312,
      "దక్ష": 1313,
      "।[[": 1314,
      ".com": 1315,
      "पा": 1316,
      "▁చరిత్ర": 1317,
      "বিশেষ": 1318,
      "ber": 1319,
      "▁भाषा": 1320,
      "▁సం": 1321,
      "▁\"म": 1322,
      "డి": 1323,
      "-3": 1324,
      "▁य": 1325,
      "తర": 1326,
      "ড়": 1327,
      "▁H": 1328,
      "विश": 1329,
      ".jpg)": 1330,
      ":বই": 1331,
      "▁re": 1332,
      "▁हैं": 1333,
      "50": 1334,
      ":বইয়": 1335,
      "ory": 1336,
      "లా": 1337,
      "s/": 1338,
      "199": 1339,
      "వం": 1340,
      "বিশেষ:বইয়": 1341,
      "od": 1342,
      "▁भ": 1343,
      "సియా": 1344,
      "ষ্ট্র": 1345,
      "▁g": 1346,
      "ৎস/": 1347,
      "cal": 1348,
      "▁రాజ్యం": 1349,
      "E0": 1350,
      "▁on": 1351,
      "▁సామ్రాజ్యం": 1352,
      "ডি": 1353,
      "▁th": 1354,
      "ve": 1355,
      "ational": 1356,
      "হের": 1357,
      "up": 1358,
      "णी": 1359,
      "ండి": 1360,
      "ীয়_": 1361,
      ".com/": 1362,
      "▁[↑](./भारत#cite_ref-": 1363,
      "దీ": 1364,
      "ত্রুটি": 1365,
      "ast": 1366,
      "ेला": 1367,
      "దక్షి": 1368,
      "সাহায্য:উদ্ধৃতি": 1369,
      "for": 1370,
      "हा": 1371,
      "స్త": 1372,
      "ap": 1373,
      "▁బ": 1374,
      "archive": 1375,
      "chiv": 1376,
      "b/": 1377,
      "al_": 1378,
      "gu": 1379,
      "এস": 1380,
      "]](./India#cite_note-FOOTNOTE": 1381,
      "সম": 1382,
      "%E0": 1383,
      "▁from": 1384,
      "%E0%A": 1385,
      "_A": 1386,
      "▁([": 1387,
      "ట్": 1388,
      "গু": 1389,
      "ld": 1390,
      "▁कर": 1391,
      "ిత": 1392,
      "ted": 1393,
      "chi": 1394,
      "▁[మ": 1395,
      "দেশ": 1396,
      "▁n": 1397,
      "कार": 1398,
      "_చ": 1399,
      "▁তারিখে": 1400,
      "pg": 1401,
      "क्त": 1402,
      "ంది.": 1403,
      "archive.org/": 1404,
      "ivers": 1405,
      "पर": 1406,
      "ది": 1407,
      "ইভ": 1408,
      "ub": 1409,
      "िर": 1410,
      "▁\"మ": 1411,
      "কাইভ": 1412,
      "ab": 1413,
      "ोल": 1414,
      "ন্দ্র": 1415,
      "s](./": 1416,
      "12": 1417,
      "▁ఎ": 1418,
      "র্কাইভ": 1419,
      "calf": 1420,
      "▁(సా.శ.పూ.": 1421,
      "র্কাইভকৃত": 1422,
      "ep": 1423,
      "कि": 1424,
      "---": 1425,
      "://www.": 1426,
      "ঞ্চ": 1427,
      "ri": 1428,
      ".in": 1429,
      "ంద్ర": 1430,
      "rit": 1431,
      "ధ్య": 1432,
      "etcalf": 1433,
      "▁---": 1434,
      "পি": 1435,
      "▁T": 1436,
      "▁శ": 1437,
      "রাষ্ট্র": 1438,
      "av": 1439,
      "](./మ": 1440,
      "▁[ম": 1441,
      "onom": 1442,
      "f-": 1443,
      "11": 1444,
      "र्म": 1445,
      "ైన": 1446,
      "ter": 1447,
      "▁or": 1448,
      "▁పే": 1449,
      "ভাষা": 1450,
      "▁J": 1451,
      "wik": 1452,
      "ary": 1453,
      "ंध": 1454,
      "ish": 1455,
      "ेष": 1456,
      "ట్ట": 1457,
      ".[[": 1458,
      "](./म": 1459,
      "ద్ధ": 1460,
      "এন": 1461,
      "edia": 1462,
      "हिन्द": 1463,
      "ছে": 1464,
      "_of_India": 1465,
      "ाना": 1466,
      "ud": 1467,
      "▁अन": 1468,
      "▁ই": 1469,
      "▁\"C": 1470,
      "హింద": 1471,
      "india": 1472,
      "ain": 1473,
      "chive": 1474,
      "ాల్": 1475,
      "ধান": 1476,
      "-0-": 1477,
      "ंग्रे": 1478,
      "ించ": 1479,
      "সি": 1480,
      "og": 1481,
      "द्": 1482,
      "▁ఒ": 1483,
      "_(identifier)": 1484,
      "▁क्षेत्र": 1485,
      "▁భాష": 1486,
      "identifier)\")": 1487,
      "▁[క": 1488,
      "াম": 1489,
      "▁(identifier)\")": 1490,
      "▁200": 1491,
      "▁`": 1492,
      "▁3": 1493,
      ".g": 1494,
      "]](./భారతదేశం#cite_": 1495,
      "▁ar": 1496,
      "धान": 1497,
      "](./భారతదేశం#cite_re": 1498,
      "ার্": 1499,
      "▁for": 1500,
      "वा": 1501,
      "](./భారతదేశం#cite_ref-": 1502,
      "iversity": 1503,
      "ोत": 1504,
      "]](./భారతదేశం#cite_no": 1505,
      "▁সংগ্র": 1506,
      "▁F": 1507,
      "\"))": 1508,
      "]](./భారతదేశం#cite_note": 1509,
      "web.": 1510,
      "▁[A": 1511,
      "]](./భారతదేశం#cite_note-": 1512,
      "লে": 1513,
      "▁by": 1514,
      "▁[↑](./ভারত#cite_ref-": 1515,
      "ew": 1516,
      "भि": 1517,
      "ంగ్": 1518,
      "▁সংগ্রহের": 1519,
      "os": 1520,
      "श्": 1521,
      "చ్చ": 1522,
      "/http": 1523,
      "से": 1524,
      "జీ": 1525,
      "▁is": 1526,
      "्रेणी": 1527,
      "ేంద్ర": 1528,
      "List": 1529,
      "](https://web.": 1530,
      "AA": 1531,
      "▁19": 1532,
      "▁\"క": 1533,
      "](https://web.archive.org/": 1534,
      "uc": 1535,
      "##": 1536,
      "](https://web.archive.org/web": 1537,
      "](./ద": 1538,
      "](https://web.archive.org/web/": 1539,
      "_in_India": 1540,
      "▁१": 1541,
      "ia/": 1542,
      "ম্ব": 1543,
      "▁ने": 1544,
      "ంత": 1545,
      "ইএস": 1546,
      "orld": 1547,
      "త్య": 1548,
      "ত্ত": 1549,
      "▁[M": 1550,
      "mpl": 1551,
      "బ్": 1552,
      "▁The": 1553,
      "మీ": 1554,
      "জাত": 1555,
      "▁Indian": 1556,
      "श्रेणी": 1557,
      "రాష్ట్ర": 1558,
      "ীন": 1559,
      "South": 1560,
      "्रा": 1561,
      "▁[\"": 1562,
      "ith": 1563,
      "▁ప్రాం": 1564,
      "▁[ভারত": 1565,
      "ts": 1566,
      "धार": 1567,
      "'s": 1568,
      "मी": 1569,
      "সে": 1570,
      "1.": 1571,
      "▁সম": 1572,
      "_S": 1573,
      "श्रेणी:": 1574,
      "ంక": 1575,
      "▁২০১": 1576,
      "oun": 1577,
      "▁[अ": 1578,
      "తంత్ర": 1579,
      "বে": 1580,
      "ृत": 1581,
      "ప్": 1582,
      "স্ত": 1583,
      "▁Asia": 1584,
      "ँच": 1585,
      "యు": 1586,
      "▁ভারতের": 1587,
      "oc": 1588,
      "ीय_": 1589,
      "్యా": 1590,
      "▁[C": 1591,
      "▁[भारत": 1592,
      "](http://": 1593,
      "▁+": 1594,
      "-8": 1595,
      "▁एक": 1596,
      "_స": 1597,
      "anguage": 1598,
      "▁Re": 1599,
      "Har": 1600,
      "ন্ত": 1601,
      "ear": 1602,
      "htm": 1603,
      "తము": 1604,
      "র্থ": 1605,
      "gle": 1606,
      "ंत्र": 1607,
      "దక్షిణ": 1608,
      "%E0%A6": 1609,
      "ip": 1610,
      "ंद": 1611,
      "స్క": 1612,
      "তিক": 1613,
      "a](./": 1614,
      "ूल": 1615,
      "ాన్": 1616,
      "▁K": 1617,
      "ेल": 1618,
      "ాలు,": 1619,
      "ভূ": 1620,
      "▁p.": 1621,
      "ిల్లీ": 1622,
      "ুর": 1623,
      "books": 1624,
      "▁\"अ": 1625,
      "▁বা": 1626,
      "▁\"M": 1627,
      "▁ति": 1628,
      "goo": 1629,
      "विशेष": 1630,
      "ధాన": 1631,
      ".htm": 1632,
      "n_": 1633,
      "विशेष:": 1634,
      "బె": 1635,
      "ক্ত": 1636,
      "▁202": 1637,
      "▁पु": 1638,
      "వే": 1639,
      "ঞ্চল": 1640,
      "ారు": 1641,
      "পা": 1642,
      "▁[S": 1643,
      "ాలు\")": 1644,
      "র্ব": 1645,
      "16": 1646,
      "ER": 1647,
      "্রা": 1648,
      "har": 1649,
      "▁రాజ": 1650,
      "ধ্য": 1651,
      "▁[↑](./India#cite_ref-FOOTNOTE": 1652,
      "21": 1653,
      "ন্ড": 1654,
      "errors": 1655,
      "30": 1656,
      "▁মূল": 1657,
      "%2": 1658,
      "के": 1659,
      "De": 1660,
      "University": 1661,
      "](./క": 1662,
      "ress": 1663,
      "EF": 1664,
      "_చరిత్ర": 1665,
      "gov": 1666,
      "www": 1667,
      "templ": 1668,
      "ইএসবি": 1669,
      "क्षि": 1670,
      "িয়া": 1671,
      "▁O": 1672,
      "स्तान": 1673,
      "జి": 1674,
      "▁r": 1675,
      "▁भारतीय": 1676,
      "దు": 1677,
      "he": 1678,
      "24": 1679,
      "మ్": 1680,
      "▁উপ": 1681,
      "_C": 1682,
      "ITER": 1683,
      "శ్": 1684,
      "_শ": 1685,
      "google": 1686,
      "ks": 1687,
      "ష్": 1688,
      "জা": 1689,
      "o-": 1690,
      "▁కా": 1691,
      "তে": 1692,
      "_క": 1693,
      "নি": 1694,
      "id=": 1695,
      "ies": 1696,
      "▁গ": 1697,
      "?id=": 1698,
      "▁[स": 1699,
      "ంధ": 1700,
      "Metcalf": 1701,
      "Harv": 1702,
      "ఢిల్లీ": 1703,
      "ism": 1704,
      "ITEREF": 1705,
      "పంచ": 1706,
      "র্ম": 1707,
      "▁In": 1708,
      "మూస": 1709,
      "ారి": 1710,
      "▁W": 1711,
      "श्रेणी:Harv": 1712,
      "్యవ": 1713,
      "ीप": 1714,
      "26": 1715,
      "রাজ্য": 1716,
      "books.": 1717,
      "ोग": 1718,
      "age": 1719,
      "our": 1720,
      "▁च": 1721,
      "med": 1722,
      "ইএসবিএন": 1723,
      "try": 1724,
      "▁\"स": 1725,
      "untr": 1726,
      "-9": 1727,
      "▁प्रदेश": 1728,
      "వు": 1729,
      ".com/books": 1730,
      "▁सूच": 1731,
      "▁\"భారతీయ": 1732,
      ".com/books?id=": 1733,
      "47": 1734,
      "ক্ষা": 1735,
      "books.google": 1736,
      "](./దస్త్ర": 1737,
      "দী": 1738,
      "books.google.com/books?id=": 1739,
      "क्षिण": 1740,
      "](./దస్త్రం:": 1741,
      "ম্বর": 1742,
      "गमन": 1743,
      "ens": 1744,
      "ma": 1745,
      "थि": 1746,
      "india.": 1747,
      "25": 1748,
      "ow": 1749,
      "lan": 1750,
      "াস": 1751,
      "ISBN](./": 1752,
      "▁[আর্কাইভকৃত": 1753,
      "ISBN_(identifier)": 1754,
      "ISBN](./ISBN_(identifier)": 1755,
      "द्य": 1756,
      "జన": 1757,
      "▁সর": 1758,
      "land": 1759,
      "ी_स": 1760,
      "టు": 1761,
      "▁নি": 1762,
      "umm": 1763,
      "▁तिथि": 1764,
      "టె": 1765,
      "ক্তি": 1766,
      "▁\"ISBN": 1767,
      "boo": 1768,
      "నాయ": 1769,
      "বস্থ": 1770,
      "▁\"S": 1771,
      "పాలిత": 1772,
      "হি": 1773,
      "▁[ISBN](./ISBN_(identifier)": 1774,
      "ేంద్రపాలిత": 1775,
      "১৯": 1776,
      "](./Special:BookSources/978": 1777,
      "यु": 1778,
      "–సా.శ.పూ.": 1779,
      "=`": 1780,
      "▁\"Special:BookSources/978": 1781,
      "ून": 1782,
      "▁ఆర్": 1783,
      "su": 1784,
      "▁[978": 1785,
      "▁చె": 1786,
      "▁\"ভারতীয়": 1787,
      "▁wh": 1788,
      "▁చరిత్ర\")": 1789,
      "ারা": 1790,
      "](https://books.google.com/books?id=": 1791,
      "▁ख": 1792,
      "0)": 1793,
      "০০": 1794,
      "_P": 1795,
      "▁तिथि:": 1796,
      "](./ভারতীয়_": 1797,
      "aj": 1798,
      ".in/": 1799,
      "_ప": 1800,
      "কি": 1801,
      "17": 1802,
      "13": 1803,
      "ad.": 1804,
      "বং": 1805,
      "*.": 1806,
      "90": 1807,
      "comm": 1808,
      "য়েছে": 1809,
      "40": 1810,
      "ఖ్య": 1811,
      "ালিক": 1812,
      "ere": 1813,
      "जन": 1814,
      "గో": 1815,
      "gh": 1816,
      "ढ़": 1817,
      "తో": 1818,
      "](./C": 1819,
      "धर्म": 1820,
      "బి": 1821,
      "▁এক": 1822,
      "▁[B": 1823,
      "धिक": 1824,
      "స్కృ": 1825,
      "িত্র": 1826,
      "ance": 1827,
      "पुर": 1828,
      "హి": 1829,
      "ৎস/0": 1830,
      "भिगमन": 1831,
      "▁##": 1832,
      "all": 1833,
      "▁–": 1834,
      "▁ফ": 1835,
      "18": 1836,
      "![": 1837,
      "▁জন": 1838,
      "inal": 1839,
      "▁अभिगमन": 1840,
      "//up": 1841,
      "▁L": 1842,
      "▁देश": 1843,
      "//uplo": 1844,
      "থা": 1845,
      "eved": 1846,
      "98": 1847,
      "//upload.": 1848,
      "বী": 1849,
      "▁\"A": 1850,
      "//upload.wiki": 1851,
      "ুন": 1852,
      "▁\"B": 1853,
      "नी": 1854,
      "//upload.wikimed": 1855,
      "▁র": 1856,
      "▁as": 1857,
      "्रोत": 1858,
      "//upload.wikimedia.": 1859,
      "if": 1860,
      "▁\"भारतीय": 1861,
      "//upload.wikimedia.org/": 1862,
      "ian": 1863,
      "▁जन": 1864,
      "//upload.wikimedia.org/wiki": 1865,
      "টে": 1866,
      "ong": 1867,
      "▁तथा": 1868,
      "//upload.wikimedia.org/wikip": 1869,
      "ন্ধ": 1870,
      ".archive.org/": 1871,
      "//upload.wikimedia.org/wikiped": 1872,
      "▁অন": 1873,
      "ence": 1874,
      ".archive.org/web": 1875,
      "//upload.wikimedia.org/wikipedia/": 1876,
      "▁শৈলী": 1877,
      "trieved": 1878,
      ".archive.org/web/": 1879,
      "//upload.wikimedia.org/wikipedia/comm": 1880,
      "জন": 1881,
      "▁Retrieved": 1882,
      "//upload.wikimedia.org/wikipedia/commons": 1883,
      "সমূ": 1884,
      "52": 1885,
      "](https://web": 1886,
      "//upload.wikimedia.org/wikipedia/commons/": 1887,
      "_and": 1888,
      "](//upload.wikimedia.org/wikipedia/commons/": 1889,
      "▁করে": 1890,
      "a\")": 1891,
      "त्": 1892,
      "ensus": 1893,
      "▁সাল": 1894,
      "▁\"P": 1895,
      "बर": 1896,
      "హా": 1897,
      "](./M": 1898,
      "▁\"क": 1899,
      "్యవస్థ": 1900,
      "ys": 1901,
      "▁हैं।": 1902,
      "▁జాతీయ": 1903,
      "▁with": 1904,
      "entifi": 1905,
      "▁ను": 1906,
      "ভি": 1907,
      "ine": 1908,
      "entifier": 1909,
      "![](//upload.wikimedia.org/wikipedia/commons/": 1910,
      "স্ট": 1911,
      "ut": 1912,
      "ায়": 1913,
      "▁be": 1914,
      "हर": 1915,
      "countr": 1916,
      "ে_": 1917,
      "ummit": 1918,
      "ूर्व": 1919,
      "p.": 1920,
      "्ल": 1921,
      "](./S": 1922,
      "ich": 1923,
      "px": 1924,
      "র্থন": 1925,
      "px-": 1926,
      "ard": 1927,
      "thum": 1928,
      "▁পৃ": 1929,
      "ges": 1930,
      "पुस्त": 1931,
      "thumb/": 1932,
      "_শৈলী": 1933,
      "igh": 1934,
      "पुस्तक": 1935,
      "కిస్తాన్": 1936,
      "_শৈলী_": 1937,
      "▁pp.": 1938,
      "मान": 1939,
      "డా": 1940,
      "वं": 1941,
      "దా": 1942,
      "विशेष:पुस्तक": 1943,
      "బడ": 1944,
      "▁[আর্কাইভকৃত](https://web.archive.org/web/": 1945,
      "ct": 1946,
      "्रोत/978": 1947,
      "మే": 1948,
      "ore": 1949,
      "umb": 1950,
      "▁భారత": 1951,
      "se": 1952,
      "▁orig": 1953,
      "द्ध": 1954,
      "▁లో": 1955,
      "ওয়ে": 1956,
      "_and_": 1957,
      "राष्ट्रीय": 1958,
      "▁కూ": 1959,
      "বাহ": 1960,
      "archiv": 1961,
      "िका": 1962,
      "▁రాష్ట్ర": 1963,
      "স্তান": 1964,
      "conom": 1965,
      "▁जा": 1966,
      "![](//upload.wikimedia.org/wikipedia/commons/thumb/": 1967,
      "্রি": 1968,
      "istory": 1969,
      "](./स": 1970,
      "▁১৯": 1971,
      "art": 1972,
      ".p": 1973,
      "ती": 1974,
      "mp": 1975,
      "रकार": 1976,
      "by": 1977,
      "](./ম": 1978,
      "▁[*": 1979,
      "हार": 1980,
      "pu": 1981,
      "Indian": 1982,
      "▁[क": 1983,
      "ধর্ম": 1984,
      "9.": 1985,
      "▁इस": 1986,
      "ীতি": 1987,
      "a_": 1988,
      "ingh": 1989,
      "త్రి": 1990,
      "োল": 1991,
      "ans": 1992,
      "दी": 1993,
      "రణ": 1994,
      "▁\"ম": 1995,
      "लेख": 1996,
      "వర్": 1997,
      "](./বিশেষ:বইয়": 1998,
      "cy": 1999,
      "▁राज": 2000,
      "ాలు](./": 2001,
      "](./বিশেষ:বইয়ের_": 2002,
      "lation": 2003,
      "▁\"ब": 2004,
      "](./বিশেষ:বইয়ের_উ": 2005,
      "ture": 2006,
      "▁मेला": 2007,
      "▁ఈ": 2008,
      "tate": 2009,
      "](./क": 2010,
      "▁[అ": 2011,
      "ইএসবিএন](./": 2012,
      "▁[P": 2013,
      "si": 2014,
      "▁ప్రాంత": 2015,
      "বিশেষ:বইয়ের": 2016,
      "15": 2017,
      "रालेख": 2018,
      "38": 2019,
      "gov.in": 2020,
      "▁চ": 2021,
      "national": 2022,
      "▁য": 2023,
      "▁original": 2024,
      "▁वर्": 2025,
      "▁\"বিশেষ:বইয়ের": 2026,
      "▁स्": 2027,
      "s_": 2028,
      "▁[আইএসবিএন](./": 2029,
      "](./P": 2030,
      "4.": 2031,
      "తు": 2032,
      "TE": 2033,
      "_की_स": 2034,
      "నిక": 2035,
      "](./সাহায্য:উদ্ধৃতি": 2036,
      "ot": 2037,
      "_में": 2038,
      "పతి": 2039,
      "](./সাহায্য:উদ্ধৃতি_শৈলী_": 2040,
      "ph": 2041,
      "మిళ": 2042,
      "](./সাহায্য:উদ্ধৃতি_শৈলী_ত্রুটি": 2043,
      "▁was": 2044,
      "ర్వ": 2045,
      "](./সাহায্য:উদ্ধৃতি_শৈলী_ত্রুটি#": 2046,
      "ass": 2047,
      "गु": 2048,
      "వంశ": 2049,
      "](http://www.": 2050,
      "ire": 2051,
      "ा_": 2052,
      "్రి": 2053,
      "ত্রুটি\"))": 2054,
      "overn": 2055,
      "िव": 2056,
      "↑](./భారతదేశం#cite_ref-": 2057,
      "সাহায্য](./সাহায্য:উদ্ধৃতি_শৈলী_ত্রুটি#": 2058,
      "](./B": 2059,
      "▁\"प": 2060,
      "হাস": 2061,
      "ank": 2062,
      "▁हु": 2063,
      "▁స్": 2064,
      "্ম": 2065,
      "istan": 2066,
      "-10": 2067,
      "▁స్థ": 2068,
      "▁ত্রুটি\"))": 2069,
      "](./अ": 2070,
      "▁\"భారతదేశం": 2071,
      "▁\"সাহায্য:উদ্ধৃতি": 2072,
      "28": 2073,
      "▁([সাহায্য](./সাহায্য:উদ্ধৃতি_শৈলী_ত্রুটি#": 2074,
      "ध्य": 2075,
      "▁[![](//upload.wikimedia.org/wikipedia/commons/thumb/": 2076,
      "▁`|": 2077,
      "रालेखित": 2078,
      "▁[ప": 2079,
      "▁এবং": 2080,
      "esh": 2081,
      "र्थ": 2082,
      "▁[↑](./భారతదేశం#cite_ref-": 2083,
      "▁বিশ": 2084,
      "ical": 2085,
      "स्क": 2086,
      ".jpg)](./దస్త్రం:": 2087,
      "জি": 2088,
      "14": 2089,
      "्च": 2090,
      "23": 2091,
      "জ্য": 2092,
      "्री": 2093,
      "_భాష": 2094,
      "সমূহ": 2095,
      "_మ": 2096,
      "\")।": 2097,
      "]](./ভারত#cite_note-1": 2098,
      "chived": 2099,
      "▁[ब": 2100,
      "es/": 2101,
      "_ভাষা": 2102,
      "rchived": 2103,
      "_भारत": 2104,
      "langu": 2105,
      "ill": 2106,
      "গুলি": 2107,
      "late": 2108,
      "t:": 2109,
      "న్నాయ": 2110,
      "ঞ্": 2111,
      "s,": 2112,
      "ज्": 2113,
      "ఫ్": 2114,
      "ৈতিক": 2115,
      "emp": 2116,
      "▁भी": 2117,
      "ర్య": 2118,
      "▁[↑](./ভারত#cite_ref-1": 2119,
      "ort": 2120,
      "హిందూ": 2121,
      "▁সা": 2122,
      "▁University": 2123,
      "चित्र": 2124,
      "ులు](./": 2125,
      "▁২০০৭": 2126,
      "▁\"E": 2127,
      "थान": 2128,
      "▁ల": 2129,
      ".gov": 2130,
      "35": 2131,
      "हास": 2132,
      "▁\"అ": 2133,
      ".html": 2134,
      "PA": 2135,
      "▁हि": 2136,
      "▁[బ": 2137,
      "oi": 2138,
      "Singh": 2139,
      "▁[స": 2140,
      "_অ": 2141,
      "omm": 2142,
      "Ste": 2143,
      "▁కాల": 2144,
      "-5": 2145,
      "Stein": 2146,
      "▁రై": 2147,
      "োগ": 2148,
      "70": 2149,
      "](./ब": 2150,
      ".jpg/": 2151,
      "▁ভাষ": 2152,
      "eral": 2153,
      "द्र": 2154,
      "ai": 2155,
      "▁\"ভারতে": 2156,
      "](./F": 2157,
      "साँच": 2158,
      "▁পৃ.": 2159,
      "ord": 2160,
      "िट": 2161,
      "%E0%A6%": 2162,
      "outh": 2163,
      "िश": 2164,
      "mon": 2165,
      "▁ex": 2166,
      "ुख": 2167,
      "త్త": 2168,
      "par": 2169,
      "▁\"T": 2170,
      "ద్ర": 2171,
      "ওয়েব": 2172,
      "7.": 2173,
      "](./भारत_में": 2174,
      "న్నాయి.": 2175,
      "▁হয়": 2176,
      "ati": 2177,
      "ప్రదేశ్": 2178,
      "&pg": 2179,
      ".jpg": 2180,
      "భూ": 2181,
      "&pg=": 2182,
      "त्तर": 2183,
      "య్య": 2184,
      "ash": 2185,
      "फ़": 2186,
      "।[[১": 2187,
      "▁an": 2188,
      "ूर": 2189,
      "▁\"ప": 2190,
      "িম": 2191,
      "2010": 2192,
      "▁सम": 2193,
      "▁\"బ": 2194,
      "▁খ": 2195,
      "br": 2196,
      "-7": 2197,
      "▁\"స": 2198,
      "](./ভারতে_": 2199,
      "end": 2200,
      "कर": 2201,
      "▁అధిక": 2202,
      "ile": 2203,
      "मिल": 2204,
      "▁నుండి": 2205,
      "con": 2206,
      "und": 2207,
      "शिया": 2208,
      "▁ప్రదేశ్": 2209,
      "2018": 2210,
      "ुस": 2211,
      "120": 2212,
      "তিহাস": 2213,
      "32": 2214,
      "▁[प": 2215,
      "National": 2216,
      "রণ": 2217,
      "overnment": 2218,
      "2009": 2219,
      "](./బ": 2220,
      "▁স্": 2221,
      "titu": 2222,
      "ंग्रेज़": 2223,
      "▁4": 2224,
      "रु": 2225,
      "ff": 2226,
      "2006": 2227,
      "▁२": 2228,
      "ణి": 2229,
      "indu": 2230,
      "తమిళ": 2231,
      "ont": 2232,
      "_की_सूच": 2233,
      "త్తర": 2234,
      "▁যু": 2235,
      ")[[": 2236,
      "ते": 2237,
      "ధీ": 2238,
      "▁অঞ্চল": 2239,
      "36": 2240,
      "▁सरकार": 2241,
      "నాగ": 2242,
      "▁ভাষা\")": 2243,
      "5.": 2244,
      "/http://": 2245,
      "మె": 2246,
      "rad": 2247,
      "किस्तान": 2248,
      "మైన": 2249,
      "▁\"D": 2250,
      "पाल": 2251,
      "మూస:": 2252,
      "39": 2253,
      "हु": 2254,
      "శ్మీ": 2255,
      "ইন": 2256,
      "_Asia": 2257,
      "ा:": 2258,
      "హార": 2259,
      "টার": 2260,
      "ैद": 2261,
      "ారు.": 2262,
      "তম": 2263,
      "als": 2264,
      "ोक": 2265,
      "ులు\")": 2266,
      "ত্তর": 2267,
      "▁&": 2268,
      "▁घ": 2269,
      "ోర్": 2270,
      "নে": 2271,
      "](./T": 2272,
      "▁तक": 2273,
      "▁\"ఇ": 2274,
      "িনী": 2275,
      "▁it": 2276,
      "▁\"భారత": 2277,
      "omp": 2278,
      "](./भारतीय_": 2279,
      "▁మొ": 2280,
      "ss": 2281,
      "ust": 2282,
      "्ड": 2283,
      "DP": 2284,
      "au": 2285,
      "▁v": 2286,
      "](./ఇ": 2287,
      "&pg=PA": 2288,
      "](./స": 2289,
      "সাম": 2290,
      "2.": 2291,
      "ের](./": 2292,
      "ford": 2293,
      "্যবস্থ": 2294,
      "3.": 2295,
      "▁জাত": 2296,
      "ubl": 2297,
      "श्चि": 2298,
      "▁দেশ": 2299,
      "▁\"G": 2300,
      "सम": 2301,
      "▁Ch": 2302,
      "ండ్": 2303,
      "▁are": 2304,
      "క్కు": 2305,
      "](./D": 2306,
      "](https://web.archive.org/web/201": 2307,
      "భారత_": 2308,
      "](./E": 2309,
      "]](./भारत#cite_note-FOOTNOTE": 2310,
      "రాజ": 2311,
      "ক্ষি": 2312,
      "ath": 2313,
      "రిజ": 2314,
      "anguages": 2315,
      "లో](./": 2316,
      "▁[আইএসবিএন](./ISBN_(identifier)": 2317,
      "rou": 2318,
      "శా": 2319,
      "▁ভারতীয়": 2320,
      "ther": 2321,
      "స్కృతి": 2322,
      "xford": 2323,
      "ओं": 2324,
      "ైనా": 2325,
      "{{": 2326,
      "*](https://books.google.com/books?id=": 2327,
      "ीं": 2328,
      "জ্": 2329,
      "ूप": 2330,
      "দ্বী": 2331,
      "i_": 2332,
      "ों_की_सूच": 2333,
      "▁ని": 2334,
      "দ্বীপ": 2335,
      "tem": 2336,
      "▁भाषा\")": 2337,
      "শাস": 2338,
      "▁V": 2339,
      "1998": 2340,
      "▁\"జ": 2341,
      "্যান": 2342,
      "/https://": 2343,
      "Singh2009": 2344,
      "▁[ఇ": 2345,
      "6.": 2346,
      "Stein1998": 2347,
      "▁জাতীয়": 2348,
      "ction": 2349,
      "](./प": 2350,
      "120px-": 2351,
      "▁মধ্য": 2352,
      "_के_राज्य": 2353,
      "4)": 2354,
      "`:": 2355,
      "ric": 2356,
      "ंदिर": 2357,
      "GDP": 2358,
      "ex": 2359,
      "s\")": 2360,
      "नाम": 2361,
      "udd": 2362,
      "रब": 2363,
      "▁\"List": 2364,
      "वन": 2365,
      "PP": 2366,
      "▁\"N": 2367,
      "्स": 2368,
      "_1": 2369,
      "}`:": 2370,
      "▁\"R": 2371,
      "_సా": 2372,
      "}}`:": 2373,
      "▁किया": 2374,
      "bl": 2375,
      "ক্ষিণ": 2376,
      "ach": 2377,
      ".n": 2378,
      "countries": 2379,
      "চ্চ": 2380,
      "cl": 2381,
      ".org/wiki": 2382,
      "ালয়": 2383,
      "ous": 2384,
      "india.gov.in": 2385,
      "▁\"আ": 2386,
      "_प्र": 2387,
      "language": 2388,
      "▁[স": 2389,
      "angu": 2390,
      "▁উদ্ধৃতি": 2391,
      "IC": 2392,
      "गण": 2393,
      "ం?action=edit&redlink=1": 2394,
      "▁পরি": 2395,
      "_s": 2396,
      "ज्ञ": 2397,
      "ండు": 2398,
      "▁বিশ্ব": 2399,
      "eng": 2400,
      "ष्": 2401,
      "ఆసియా": 2402,
      "▁২০০৮": 2403,
      "ipedia": 2404,
      "▁विश": 2405,
      "చే": 2406,
      "*।": 2407,
      "▁*[": 2408,
      "త్వ": 2409,
      "▁[G": 2410,
      "▁language": 2411,
      "ंजा": 2412,
      "pr": 2413,
      "ंजाब": 2414,
      "tein": 2415,
      "ख्या": 2416,
      "▁[జ": 2417,
      "চীন": 2418,
      "ines": 2419,
      "न्न": 2420,
      "▁చూ": 2421,
      "জ্ঞ": 2422,
      "▁India's": 2423,
      "ेख": 2424,
      "▁తే": 2425,
      "▁[প": 2426,
      "▁[D": 2427,
      "्वीप": 2428,
      "▁పా": 2429,
      "▁সরকার": 2430,
      "▁which": 2431,
      "▁వా": 2432,
      ".wik": 2433,
      "▁खाना": 2434,
      ".org/wik": 2435,
      "▁राज्यों": 2436,
      "01": 2437,
      "কৃতি": 2438,
      "](./A": 2439,
      "▁सूची\")": 2440,
      "77": 2441,
      "ক্ষণ": 2442,
      "](https://www.": 2443,
      "54": 2444,
      "](./జ": 2445,
      "গণ": 2446,
      "](./भारत_क": 2447,
      "দি": 2448,
      "imedia": 2449,
      "pedia": 2450,
      "র্ক": 2451,
      "per": 2452,
      "tim": 2453,
      "িল্প": 2454,
      "चीन": 2455,
      "ంప": 2456,
      "▁ডি": 2457,
      "AJ": 2458,
      "जी": 2459,
      "ంగీ": 2460,
      "▁(২": 2461,
      "List_of_": 2462,
      "न\")": 2463,
      "క్‌": 2464,
      "▁পর": 2465,
      "ah": 2466,
      "बसे": 2467,
      "గణ": 2468,
      "/p": 2469,
      "lig": 2470,
      "ुल": 2471,
      "జాబి": 2472,
      "ন্ন": 2473,
      "oth": 2474,
      "ेर": 2475,
      "జాబితా": 2476,
      "প্": 2477,
      "oli": 2478,
      "ेंद्र": 2479,
      "దిన": 2480,
      "বর্": 2481,
      "ry": 2482,
      "▁गया": 2483,
      "నై": 2484,
      "মিটার": 2485,
      "sher": 2486,
      "నాభా": 2487,
      "লো": 2488,
      "నికి": 2489,
      "ানা": 2490,
      "▁[N": 2491,
      "चल": 2492,
      "బెంగ": 2493,
      "▁[R": 2494,
      "दक्षिण": 2495,
      "రీ": 2496,
      "37": 2497,
      "बंध": 2498,
      "ల్ల": 2499,
      "▁৩": 2500,
      "BAJ": 2501,
      "▁\"చ": 2502,
      "▁[ক": 2503,
      "QBAJ": 2504,
      "▁no": 2505,
      "▁[చ": 2506,
      "ef": 2507,
      "▁[मूल": 2508,
      "▁[భారతీయ": 2509,
      "ame": 2510,
      "onstitu": 2511,
      "▁नि": 2512,
      "▁క్రీ": 2513,
      "ha": 2514,
      "orth": 2515,
      "▁हो": 2516,
      "▁భాష\")": 2517,
      "▁Pres": 2518,
      "▁శా": 2519,
      "RIC": 2520,
      ".wiki": 2521,
      "▁సి": 2522,
      "ংলা": 2523,
      "\"](https://": 2524,
      "ংশ": 2525,
      "gion": 2526,
      "hel": 2527,
      "মাণ": 2528,
      "load": 2529,
      "ীল": 2530,
      "upload": 2531,
      "चित्र:": 2532,
      "0%": 2533,
      "্যান্ড": 2534,
      "](./N": 2535,
      "न्द्र": 2536,
      "ब्": 2537,
      "](./ప": 2538,
      "▁`{{": 2539,
      "8.": 2540,
      "रालेखित।": 2541,
      "](./భారతీయ": 2542,
      "_B": 2543,
      "ालय": 2544,
      "_G": 2545,
      "ক্স": 2546,
      "▁पुरालेखित।": 2547,
      "গর": 2548,
      "imedia.org/wik": 2549,
      "▁सबसे": 2550,
      "opul": 2551,
      "জ্ঞান": 2552,
      "▁tr": 2553,
      "opulation": 2554,
      "মে": 2555,
      "▁South": 2556,
      "](./चित्र:": 2557,
      "▁ভাষা": 2558,
      "_templ": 2559,
      "▁রাষ্ট্র": 2560,
      "-0-19": 2561,
      "ండో": 2562,
      "▁এই": 2563,
      "27": 2564,
      "क्ति": 2565,
      "క్క": 2566,
      "▁একটি": 2567,
      "gan": 2568,
      "जरा": 2569,
      "చల్": 2570,
      "▁ভারতে": 2571,
      "les": 2572,
      "णा": 2573,
      "ద్ద": 2574,
      ")\")": 2575,
      "out": 2576,
      "स्था": 2577,
      "న్ని": 2578,
      "ty": 2579,
      "ियों": 2580,
      "పాకిస్తాన్": 2581,
      "ulation": 2582,
      "ेव": 2583,
      "ముంబ": 2584,
      "▁\"H": 2585,
      "ैन": 2586,
      "యన్": 2587,
      "to": 2588,
      "▁has": 2589,
      "ों_की_सूची": 2590,
      "రిజిన": 2591,
      "পূ": 2592,
      "▁that": 2593,
      "రిజినల్": 2594,
      "র্থনৈতিক": 2595,
      ".wikimedia.org/wik": 2596,
      "](./भारत#C": 2597,
      "వంశం": 2598,
      "োর্": 2599,
      ".wikimedia.org/wikipedia": 2600,
      "ate_": 2601,
      "షు": 2602,
      "০-": 2603,
      ".wikimedia.org/wikipedia/": 2604,
      "errors\"))": 2605,
      "సిన": 2606,
      "//upload": 2607,
      "help": 2608,
      "ారం": 2609,
      "ib": 2610,
      "ార్ట": 2611,
      "AAQBAJ": 2612,
      "ార్టీ": 2613,
      "MetcalfMetcalf": 2614,
      "प्त": 2615,
      "ాలయ": 2616,
      "/http://www.": 2617,
      "](//upload.wikimedia.org/wikipedia/": 2618,
      "स्थान": 2619,
      "ూర్": 2620,
      "80": 2621,
      "ark": 2622,
      "ुसार": 2623,
      "▁20": 2624,
      "gen": 2625,
      "ोर": 2626,
      "▁[భారత": 2627,
      "ited": 2628,
      "▁ఉంది.": 2629,
      "চিত্র": 2630,
      "thumb": 2631,
      "▁ఉన్న": 2632,
      "টা": 2633,
      "tries": 2634,
      "▁errors\"))": 2635,
      "▁ఒక": 2636,
      "পু": 2637,
      "▁ch": 2638,
      "▁([help": 2639,
      "▁ఒరిజినల్": 2640,
      "▁[E": 2641,
      "▁[उ": 2642,
      "▁తేదీ": 2643,
      "▁কে": 2644,
      "/thumb": 2645,
      "▁ము": 2646,
      "▁২০০৭।": 2647,
      "/thumb/": 2648,
      "▁जिस": 2649,
      "▁వ్యవస్థ": 2650,
      "60": 2651,
      "▁प्रा": 2652,
      "\"):": 2653,
      "gy": 2654,
      ".jpg/120px-": 2655,
      "ition": 2656,
      "1947": 2657,
      "](./ভারত#cite_ref-": 2658,
      "ile:": 2659,
      "](./भारत#CITEREF": 2660,
      "_ম": 2661,
      "ost": 2662,
      "](./भारत_में_": 2663,
      "_सं": 2664,
      "](./భారతదేశంలో": 2665,
      "ধিক": 2666,
      "ange": 2667,
      "বাংলা": 2668,
      "commons": 2669,
      "జ్": 2670,
      "ভে": 2671,
      "ountries": 2672,
      "జీని": 2673,
      "সেম্বর": 2674,
      "tics": 2675,
      "hin": 2676,
      "నిస్తాన్": 2677,
      "হিন্দ": 2678,
      "-6": 2679,
      "బా": 2680,
      "্পর্ক": 2681,
      "RICS": 2682,
      "మ్మూ": 2683,
      "▁কেন্দ্র": 2684,
      "](//upload.wikimedia.org/wikipedia/commons": 2685,
      "च्च": 2686,
      "వరి": 2687,
      "▁ডিসেম্বর": 2688,
      "%2C": 2689,
      "ण्ड": 2690,
      "శ్చ": 2691,
      "▁হয়েছে": 2692,
      "](//upload.wikimedia.org/wikipedia/commons/thumb/": 2693,
      "िन": 2694,
      "శ్చి": 2695,
      "%E0%A6%B": 2696,
      "_R": 2697,
      "స్థాన్": 2698,
      "amil": 2699,
      "▁साथ": 2700,
      "ిన్న": 2701,
      "▁१९": 2702,
      "ెల": 2703,
      "Ro": 2704,
      "్రె": 2705,
      "](./श्रेणी:Harv": 2706,
      "পতি": 2707,
      "](./श्रेणी:Harv_and": 2708,
      "▁\"భారతదేశ": 2709,
      "েস": 2710,
      "sland": 2711,
      "](./श्रेणी:Harv_and_S": 2712,
      "▁\"భారతదేశంలో": 2713,
      "্যাক": 2714,
      "▁te": 2715,
      "](./श्रेणी:Harv_and_Sfn": 2716,
      "▁ఉన్నాయి.": 2717,
      "67": 2718,
      "](./श्रेणी:Harv_and_Sfn_templ": 2719,
      "▁చూసిన": 2720,
      "▁\"ক": 2721,
      "ite": 2722,
      "](./श्रेणी:Harv_and_Sfn_template_": 2723,
      "▁తేదీ:": 2724,
      "▁সাম": 2725,
      "pe": 2726,
      "](./श्रेणी:Harv_and_Sfn_template_errors": 2727,
      "▁పేజీని": 2728,
      "▁সালে": 2729,
      "34": 2730,
      "](./श्रेणी:Harv_and_Sfn_template_errors?action=edit&redlink=1": 2731,
      "▁ప్రధాన": 2732,
      "CI": 2733,
      "](./G": 2734,
      "▁మధ్య": 2735,
      "_স": 2736,
      "](./R": 2737,
      "arge": 2738,
      "df": 2739,
      "](./File:": 2740,
      "arget:": 2741,
      ".archive": 2742,
      "_T": 2743,
      "ওয়েব্যাক": 2744,
      "mpire": 2745,
      "error:": 2746,
      ".archive.org/we": 2747,
      "কেন্দ্র": 2748,
      "ond": 2749,
      "ke": 2750,
      "বর": 2751,
      "rchived](https://web.archive.org/web/": 2752,
      "template": 2753,
      "শ্র": 2754,
      "row": 2755,
      "आई": 2756,
      "41": 2757,
      "ীক": 2758,
      "▁[H": 2759,
      "पाकिस्तान": 2760,
      "5)": 2761,
      "ীত": 2762,
      "▁[T": 2763,
      "याल": 2764,
      "India_": 2765,
      "েশিন": 2766,
      "▁[Archived](https://web.archive.org/web/": 2767,
      "्वर": 2768,
      "](./అ": 2769,
      "্রাজ্য": 2770,
      "2011": 2771,
      "_M": 2772,
      "▁error:": 2773,
      "ata": 2774,
      "▁বৃ": 2775,
      "▁template": 2776,
      "6)": 2777,
      "▁था": 2778,
      "census": 2779,
      "[[১": 2780,
      "ome": 2781,
      "▁धर्म": 2782,
      "web.archive.org/web/": 2783,
      "dian": 2784,
      "tral": 2785,
      "▁\"श्रेणी:Harv": 2786,
      "దీవ": 2787,
      "ult": 2788,
      "▁([help](./श्रेणी:Harv_and_Sfn_template_errors?action=edit&redlink=1": 2789,
      "బడింది.": 2790,
      "▁[![": 2791,
      "▁Sfn": 2792,
      "రియా": 2793,
      "কারী": 2794,
      "▁ter": 2795,
      "▁sfn": 2796,
      "లు\")": 2797,
      "ণী": 2798,
      ")](./File:": 2799,
      "▁target:": 2800,
      "షన్": 2801,
      "যোগ": 2802,
      "▁आधार": 2803,
      "హ్": 2804,
      "শ্চ": 2805,
      "](./India#cite_ref-FOOTNOTE": 2806,
      "▁सि": 2807,
      "ాయి": 2808,
      "ানি": 2809,
      "ember": 2810,
      "▁संघ": 2811,
      "ెలు": 2812,
      "ারামিটার": 2813,
      "erv": 2814,
      "%20": 2815,
      "▁De": 2816,
      "্যারামিটার": 2817,
      "riti": 2818,
      "%E": 2819,
      "..": 2820,
      "29": 2821,
      "▁భారతదేశ": 2822,
      "▁প্যারামিটার": 2823,
      "South_Asia": 2824,
      "▁పరి": 2825,
      "iss": 2826,
      "▁మార్": 2827,
      "ties": 2828,
      "](./उ": 2829,
      "▁సంస్కృతి": 2830,
      "plo": 2831,
      "196": 2832,
      "জাতীয়": 2833,
      "qu": 2834,
      "की": 2835,
      "22": 2836,
      "ন\")": 2837,
      "rav": 2838,
      "तंत्र": 2839,
      "48": 2840,
      "ভূমি": 2841,
      "श्मी": 2842,
      "57": 2843,
      "শি": 2844,
      "_D": 2845,
      "्ला": 2846,
      "](./చ": 2847,
      "শ্চিম": 2848,
      "akistan": 2849,
      "्यट": 2850,
      "সভা": 2851,
      "any": 2852,
      "▁\"उ": 2853,
      "_వ": 2854,
      "সংখ": 2855,
      "▁CITEREF": 2856,
      "িকে": 2857,
      "over": 2858,
      "▁विश्व": 2859,
      "▁[2": 2860,
      "▁हिन्द": 2861,
      "▁রাজ্য": 2862,
      "1)": 2863,
      "ం\"),": 2864,
      "▁[অ": 2865,
      "_N": 2866,
      "ంత్రి": 2867,
      "▁প্রধান": 2868,
      "aste": 2869,
      "ంగీతం": 2870,
      "/c": 2871,
      "isation": 2872,
      "ఆఫ్": 2873,
      "nic": 2874,
      ".com/books?": 2875,
      "కై": 2876,
      "ob": 2877,
      "క్య": 2878,
      "usic": 2879,
      ".goo": 2880,
      "దాయ": 2881,
      "10.": 2882,
      ".google": 2883,
      "నేపాల": 2884,
      "](./ক": 2885,
      "_b": 2886,
      ".google.com/books?id=": 2887,
      "న్‌": 2888,
      "_ও": 2889,
      "conomy": 2890,
      "ప్రపంచ": 2891,
      "ritish": 2892,
      "ముద్ర": 2893,
      "common": 2894,
      "ंब": 2895,
      "ముంబై": 2896,
      "▁\"Indian": 2897,
      "गढ़": 2898,
      "రే": 2899,
      "s-": 2900,
      "▁\"K": 2901,
      "ज्य": 2902,
      "లంక": 2903,
      "উত্তর": 2904,
      "\").[[": 2905,
      "तमिल": 2906,
      "వీ": 2907,
      "ারণ": 2908,
      "](./List_of_": 2909,
      "तिहास": 2910,
      "శ్రీ": 2911,
      "ুট": 2912,
      "_4": 2913,
      "दा": 2914,
      "శ్చిమ": 2915,
      "▁রাজ": 2916,
      "econom": 2917,
      "म्रा": 2918,
      "షి": 2919,
      "▁[ই": 2920,
      "युक्त": 2921,
      "సు": 2922,
      "▁[ভারতীয়": 2923,
      "ontin": 2924,
      "स्कृत": 2925,
      "సింధ": 2926,
      "▁আর্কাইভকৃত": 2927,
      "▁at": 2928,
      "ांग": 2929,
      "స్సా": 2930,
      "▁উদ্ধৃতি}}`:": 2931,
      "United": 2932,
      "▁अधिक": 2933,
      "ాంధీ": 2934,
      "▁করা": 2935,
      "alb": 2936,
      "▁হি": 2937,
      "albot": 2938,
      "▁ఏ": 2939,
      "%E0%A6%A": 2940,
      "idge": 2941,
      "▁కు": 2942,
      "inis": 2943,
      "▁కూడా": 2944,
      "_ব": 2945,
      "tern": 2946,
      "म्राज्य": 2947,
      "▁చెయ్య": 2948,
      "▁199": 2949,
      "िल्ल": 2950,
      "▁పార్టీ": 2951,
      "ঞ্জ": 2952,
      "▁[1": 2953,
      "्रिट": 2954,
      "▁పేరు": 2955,
      "ণি": 2956,
      "ant": 2957,
      "्वार": 2958,
      "▁మార్గ": 2959,
      "ধীন": 2960,
      "▁[K": 2961,
      "▁कार": 2962,
      "▁వచ్చ": 2963,
      "ালিকা": 2964,
      "3)": 2965,
      "▁बाद": 2966,
      "োট": 2967,
      "RC": 2968,
      "▁मान": 2969,
      "00)": 2970,
      "▁[ব": 2971,
      "_E": 2972,
      "▁यह": 2973,
      "▁[মূল": 2974,
      "ign": 2975,
      "▁আগ": 2976,
      "lection": 2977,
      "▁সে": 2978,
      "olog": 2979,
      ".nic": 2980,
      "](./భారత_": 2981,
      "*,": 2982,
      "ury": 2983,
      ".nic.in/": 2984,
      ".wikim": 2985,
      "▁--": 2986,
      ".org/wikipedia": 2987,
      "_ప్రా": 2988,
      ".wikimedia": 2989,
      "▁5": 2990,
      ".org/wikipedia/": 2991,
      "iginal": 2992,
      ".org/wikipedia/com": 2993,
      "Asher": 2994,
      ".org/wikipedia/common": 2995,
      "thno": 2996,
      "](//": 2997,
      "Oxford": 2998,
      ".org/wikipedia/commons/": 2999,
      "uth": 3000,
      "](./বিশেষ:বইয়ের_উৎস/0": 3001,
      "](./H": 3002,
      ".org/wikipedia/commons/thumb": 3003,
      "ంగ్లా": 3004,
      "_আ": 3005,
      ".org/wikipedia/commons/thumb/": 3006,
      "ంగ్లాదేశ్": 3007,
      "elop": 3008,
      "కైవు": 3009,
      "evelop": 3010,
      "గర": 3011,
      "led": 3012,
      ".wikimedia.org/wikipedia/commons/thumb/": 3013,
      "టక": 3014,
      "কাশ": 3015,
      "ng": 3016,
      "//u": 3017,
      "టా": 3018,
      "বাদ": 3019,
      "onstitution": 3020,
      "త్స": 3021,
      "শাসিত": 3022,
      "raph": 3023,
      "దార": 3024,
      "িয়ান": 3025,
      "ulture": 3026,
      "//upload.wikimedia.org/wikipedia/commons/thumb/": 3027,
      "నీ": 3028,
      "▁[ভারতের": 3029,
      "2004": 3030,
      "ము\")": 3031,
      "▁উৎস/0": 3032,
      "▁18": 3033,
      "రో": 3034,
      "▁its": 3035,
      "రాజ్య": 3036,
      "2007": 3037,
      "Kul": 3038,
      "వాతంత్ర": 3039,
      ".wikimedia.org/wikipedia/common": 3040,
      "MetcalfMetcalf2006": 3041,
      "Kulke": 3042,
      "సభ": 3043,
      ".wikimedia.org/wikipedia/commons/": 3044,
      "ames": 3045,
      "Rother": 3046,
      "స్తు": 3047,
      "ree": 3048,
      "Rotherm": 3049,
      "హిందీ": 3050,
      "](//up": 3051,
      "AARC": 3052,
      "Rothermund": 3053,
      "ూర్పు": 3054,
      "](//uplo": 3055,
      "ెద్ద": 3056,
      "](//upload": 3057,
      "Stein2010": 3058,
      "_और": 3059,
      "్రిటి": 3060,
      "alth": 3061,
      "duc": 3062,
      "ect": 3063,
      "▁అధికార": 3064,
      "জানা": 3065,
      "oh": 3066,
      "▁కేంద్రపాలిత": 3067,
      "জাতন্ত্র": 3068,
      "pg/": 3069,
      "एं": 3070,
      "▁కొ": 3071,
      "পাল": 3072,
      "ublic": 3073,
      "ज्ञान": 3074,
      "▁చే": 3075,
      "রিক": 3076,
      "▁\"The": 3077,
      "ड़ा": 3078,
      "▁చెయ్యబడింది.": 3079,
      "ীর": 3080,
      "▁con": 3081,
      "भी": 3082,
      "▁దేశాల": 3083,
      "্যবস্থা": 3084,
      "-1)": 3085,
      "माण": 3086,
      "▁పు": 3087,
      "▁**[": 3088,
      "▁ప్రా": 3089,
      "▁\"ব": 3090,
      "▁[भारतीय": 3091,
      "▁మా": 3092,
      "▁কো": 3093,
      "AAQBAJ&pg=PA": 3094,
      "▁शास": 3095,
      "▁రాజ్య": 3096,
      "▁নাম": 3097,
      "ure": 3098,
      "▁సామ్రాజ్యం](./": 3099,
      "▁were": 3100,
      "\"](https://web.archive.org/web/": 3101,
      "-p": 3102,
      "1950": 3103,
      "65": 3104,
      "Indo-": 3105,
      "ISBN_(": 3106,
      "7)": 3107,
      "odern": 3108,
      "ISBN](./ISBN_(": 3109,
      "](./ব": 3110,
      "urop": 3111,
      "_ও_": 3112,
      "](./विशेष:पुस्तक": 3113,
      "59": 3114,
      "কিস্তান": 3115,
      "_p": 3116,
      "](./भारत_के_": 3117,
      "Co": 3118,
      "দের": 3119,
      "er,": 3120,
      "](./विशेष:पुस्तक_स": 3121,
      "_సామ్రాజ్యం": 3122,
      "মান": 3123,
      "ograph": 3124,
      "](./विशेष:पुस्तक_स्रोत/978": 3125,
      "▁৫": 3126,
      "radesh": 3127,
      "_के_आ": 3128,
      "ana": 3129,
      "▁([সাহায্য](./সাহায্য:উদ্ধৃতি_শৈলী_ত্রুটি#par": 3130,
      "tates": 3131,
      "and_": 3132,
      "▁(২০০": 3133,
      "tical": 3134,
      "uring": 3135,
      "तर": 3136,
      "▁অজানা": 3137,
      "▁cent": 3138,
      "लाई": 3139,
      "▁সঙ্গ": 3140,
      "▁pr": 3141,
      "वरी": 3142,
      "▁২১": 3143,
      "2014": 3144,
      "वर्": 3145,
      "31": 3146,
      "शास": 3147,
      "ం,": 3148,
      "श्चिम": 3149,
      "ంజా": 3150,
      ".html)।": 3151,
      "World": 3152,
      "साँचा:": 3153,
      "కో": 3154,
      "arg": 3155,
      "ाट": 3156,
      "గి": 3157,
      "TER": 3158,
      "doi": 3159,
      "ांग्ला": 3160,
      "టాన్": 3161,
      "lic": 3162,
      "ाली": 3163,
      "టీ": 3164,
      "sti": 3165,
      "mir": 3166,
      "ियाँ": 3167,
      "టెడ్": 3168,
      "na": 3169,
      "▁थ": 3170,
      "ణాసియా": 3171,
      "তালিকা": 3172,
      "ug": 3173,
      "తావ": 3174,
      "ত্য": 3175,
      "▁Th": 3176,
      "▁\"विशेष:पुस्तक": 3177,
      "తావరణ": 3178,
      "দা": 3179,
      "▁[L": 3180,
      "ది.": 3181,
      "বল": 3182,
      "India)": 3183,
      "నాడు": 3184,
      "লেখ": 3185,
      "](./Indian_": 3186,
      "ప్రధాన": 3187,
      "িল্": 3188,
      "aman": 3189,
      "భారతదేశ_": 3190,
      "ashmir": 3191,
      "▁[↑](./भारत#cite_ref": 3192,
      "భూటాన్": 3193,
      "emplate": 3194,
      "మంత్రి": 3195,
      "▁৪": 3196,
      "epend": 3197,
      "▁पा": 3198,
      "లను": 3199,
      "▁সংস্": 3200,
      "iz": 3201,
      "▁लि": 3202,
      "వె": 3203,
      "![](//upload.wikimedia.org/wikipedia/commons/thumb": 3204,
      "urope": 3205,
      "▁स्रोत/978": 3206,
      "వాతంత్ర్య": 3207,
      "/0": 3208,
      "▁le": 3209,
      "\")**": 3210,
      "హదార": 3211,
      "250": 3212,
      "▁languages": 3213,
      "ూచ": 3214,
      "ూప": 3215,
      "](./আ": 3216,
      "ational_": 3217,
      "్రమ": 3218,
      "bridge": 3219,
      "_भाषा": 3220,
      "hand": 3221,
      "_प्रदेश": 3222,
      "ontinent": 3223,
      "▁హ": 3224,
      "ood": 3225,
      "▁un": 3226,
      "▁[the": 3227,
      "▁\"L": 3228,
      "▁ఆర్కైవు": 3229,
      "▁Asian": 3230,
      "ंप": 3231,
      "▁ఇతర": 3232,
      "-s": 3233,
      "गुजरा": 3234,
      "▁ప్రపంచ": 3235,
      "त्प": 3236,
      "▁భారతదేశంలో": 3237,
      "world": 3238,
      ".jpg)](./File:": 3239,
      "म्ब": 3240,
      "▁మత": 3241,
      "উপ": 3242,
      "alay": 3243,
      "ेश्वर": 3244,
      "▁మతము": 3245,
      "ফোর্": 3246,
      "ambridge": 3247,
      "▁राष्ट्रीय": 3248,
      "▁రైలు": 3249,
      "র্বা": 3250,
      "elhi": 3251,
      "▁उप": 3252,
      "▁వ్యా": 3253,
      "ার্ক": 3254,
      "engal": 3255,
      "▁जु": 3256,
      "\"](https://web.archive.org/web/201": 3257,
      "্রু": 3258,
      "hr": 3259,
      "▁दक्षिण": 3260,
      "▁\"স": 3261,
      "indus": 3262,
      "▁यु": 3263,
      "300": 3264,
      "por": 3265,
      "▁है,": 3266,
      "▁[প্র": 3267,
      "sv": 3268,
      "56": 3269,
      "▁আর্কাইভকৃত।": 3270,
      "tive": 3271,
      "9)": 3272,
      "▁কা": 3273,
      "uch": 3274,
      "▁বৈ": 3275,
      "yson": 3276,
      "_पर": 3277,
      "Tem": 3278,
      "▁শিল্প": 3279,
      "ystem": 3280,
      "_के_आधार": 3281,
      "Templ": 3282,
      "▁২০২": 3283,
      "▁la": 3284,
      "_के_आधार_पर": 3285,
      "▁ad": 3286,
      "_के_आधार_पर_भारत": 3287,
      "arl": 3288,
      "_मेला": 3289,
      "are": 3290,
      "_ই": 3291,
      "cial": 3292,
      "arv": 3293,
      "stitu": 3294,
      "ell": 3295,
      "ficial": 3296,
      "tation": 3297,
      "ision": 3298,
      "gue": 3299,
      "ll": 3300,
      "এফ": 3301,
      "ue": 3302,
      "काल": 3303,
      "ho": 3304,
      "ক্ট": 3305,
      "▁U": 3306,
      "क्षेत्र": 3307,
      "ক্ষম": 3308,
      "▁\"F": 3309,
      "द्योग": 3310,
      "দক্ষিণ": 3311,
      "▁(P": 3312,
      "नेमा": 3313,
      "tat": 3314,
      "পরি": 3315,
      "▁Hindu": 3316,
      "बाद": 3317,
      "ম্": 3318,
      "▁sub": 3319,
      "में": 3320,
      "thnolo": 3321,
      "য়া": 3322,
      ",_": 3323,
      "रक्ष": 3324,
      "ం.": 3325,
      "যুক্তি": 3326,
      "रे": 3327,
      "ంగ్రె": 3328,
      "শন": 3329,
      ".\"": 3330,
      "वाद": 3331,
      "ఆర్": 3332,
      "ালিকা\")": 3333,
      "2008": 3334,
      "हारा": 3335,
      "ఆఫ్ఘ": 3336,
      "েক্ষা": 3337,
      "33": 3338,
      "हाराष्ट्र": 3339,
      "ఉత్తర": 3340,
      "▁তালিকা\")": 3341,
      "continent": 3342,
      "ागर": 3343,
      "ఒడి": 3344,
      "▁মধ্যে": 3345,
      "dom": 3346,
      "िक्ष": 3347,
      "కత": 3348,
      "ight": 3349,
      "ोर्": 3350,
      "కీయ": 3351,
      "irst": 3352,
      "्रिटिश": 3353,
      "గణతంత్ర": 3354,
      "iver": 3355,
      "గుజ": 3356,
      "lass": 3357,
      "గుజరా": 3358,
      "man": 3359,
      "▁[सं": 3360,
      "చు": 3361,
      "ten": 3362,
      "తూర్పు": 3363,
      "2)": 3364,
      "69": 3365,
      "%E0%A4": 3366,
      "తమిళనాడు": 3367,
      "Union": 3368,
      "62": 3369,
      "తాబ్": 3370,
      "bn": 3371,
      "conomic": 3372,
      "తాబ్ద": 3373,
      "fter": 3374,
      "_के_आधार_पर_भारत_के_राज्य": 3375,
      "త్యే": 3376,
      "lim": 3377,
      "త్యేక": 3378,
      "ork": 3379,
      "నేపాల్": 3380,
      "న్‌ఫ": 3381,
      "year": 3382,
      "pib": 3383,
      "ప్ప": 3384,
      "▁pro": 3385,
      "ंगा": 3386,
      "ప్రధానమంత్రి": 3387,
      "-l": 3388,
      "श्मीर": 3389,
      "భు": 3390,
      "আই": 3391,
      "ीस": 3392,
      "మన్": 3393,
      "ঙ্ক": 3394,
      "/https://www.": 3395,
      "्यव": 3396,
      "మ్రాజ్య": 3397,
      "চে": 3398,
      "ansk": 3399,
      "రాష్ట్రపతి": 3400,
      "বাধীন": 3401,
      "mer": 3402,
      "▁जुलाई": 3403,
      "ర్\")": 3404,
      "বাহিনী": 3405,
      "old": 3406,
      "▁पुरालेखित।.": 3407,
      "లస": 3408,
      "য়ু": 3409,
      "ritory": 3410,
      "▁मंदिर": 3411,
      "శ్రీలంక": 3412,
      "যুক্ত": 3413,
      ".;": 3414,
      "▁स्व": 3415,
      "షియా": 3416,
      "রেজি": 3417,
      "▁से](http://": 3418,
      "▁7": 3419,
      "ষ্ট": 3420,
      "াক": 3421,
      "Dw": 3422,
      ".gov.in/": 3423,
      "োবর": 3424,
      "_the": 3425,
      "74": 3426,
      "▁జాబితా": 3427,
      "▁\"ই": 3428,
      "aw": 3429,
      "bo": 3430,
      "▁డ": 3431,
      "▁[জ": 3432,
      "ice": 3433,
      "▁**జాతీయ": 3434,
      "▁আগস্ট": 3435,
      "▁[భారతదేశ": 3436,
      "▁রয়েছে": 3437,
      "ugh": 3438,
      "ori": 3439,
      "▁అయ": 3440,
      "▁২০১১": 3441,
      "▁2010": 3442,
      "तेल": 3443,
      "▁ఆసియా": 3444,
      "▁per": 3445,
      "ल\")": 3446,
      "▁ఆర్ధిక": 3447,
      "-এ": 3448,
      "_c": 3449,
      "ली": 3450,
      "▁కాశ్మీ": 3451,
      "ail": 3452,
      "००": 3453,
      "▁క్రీడ": 3454,
      ".pdf": 3455,
      "anskrit": 3456,
      "▁-": 3457,
      "▁చెంద": 3458,
      ".pdf)": 3459,
      "▁नाम": 3460,
      "▁జనాభా": 3461,
      "CITER": 3462,
      "ated": 3463,
      "▁[↑](./भारत#cite_ref-FOOTNOTE": 3464,
      "▁పట్ట": 3465,
      "emb": 3466,
      "▁अप": 3467,
      "▁ప్రభు": 3468,
      "CITEREF": 3469,
      "evelopment": 3470,
      "▁देशों": 3471,
      "▁భాషలు": 3472,
      "](./ভারত#CITEREF": 3473,
      "other": 3474,
      "▁पूर्व": 3475,
      "▁రాజవంశం": 3476,
      "_ভারত": 3477,
      "▁रूप": 3478,
      "▁సభ": 3479,
      "uary": 3480,
      "▁विक": 3481,
      "▁సామ్రాజ్యం\")": 3482,
      "citation": 3483,
      "▁ra": 3484,
      "▁స్థాన": 3485,
      "ersity": 3486,
      "▁Press": 3487,
      "53": 3488,
      "49": 3489,
      "82": 3490,
      "0%B": 3491,
      "](./Special:BookSources/978-1": 3492,
      "197": 3493,
      "ক্তকারী": 3494,
      "ক্ষে": 3495,
      "ंक": 3496,
      "গুলির": 3497,
      "go": 3498,
      "ंगाल": 3499,
      "নাক্তকারী": 3500,
      "i,": 3501,
      "एशिया": 3502,
      "পাকিস্তান": 3503,
      "illion": 3504,
      "ार्": 3505,
      "বাংলাদেশ": 3506,
      "uly": 3507,
      "ुख्य": 3508,
      "Unit": 3509,
      "ভাগ": 3510,
      "▁\"Special:BookSources/978-1": 3511,
      "ेस": 3512,
      "মন": 3513,
      "▁Island": 3514,
      "ोन": 3515,
      "[[1": 3516,
      "র্য": 3517,
      "▁[978-1": 3518,
      "्यवस्था": 3519,
      "_ప్రదేశ్": 3520,
      "শনাক্তকারী": 3521,
      "▁region": 3522,
      "▁एवं": 3523,
      "_చరిత్ర?action=edit&redlink=1": 3524,
      "ৎস/978": 3525,
      "▁कि": 3526,
      "_మతము": 3527,
      "▁तट": 3528,
      "▁ইতিহাস": 3529,
      "DF": 3530,
      "▁न्या": 3531,
      "e](./": 3532,
      "▁জুন": 3533,
      "artic": 3534,
      "html": 3535,
      "▁প্রতি": 3536,
      "harma": 3537,
      "KulkeRothermund": 3538,
      "ibr": 3539,
      "▁প্রা": 3540,
      "ife": 3541,
      "KulkeRothermund2004": 3542,
      "istr": 3543,
      "\"](http://www.": 3544,
      "inist": 3545,
      "PD": 3546,
      "lop": 3547,
      "indi": 3548,
      "lopment": 3549,
      "ise": 3550,
      "onsti": 3551,
      "low": 3552,
      "df)": 3553,
      "onstit": 3554,
      "ories": 3555,
      "ower": 3556,
      "new": 3557,
      "population": 3558,
      "e/": 3559,
      "ran": 3560,
      "ni": 3561,
      "thnologue": 3562,
      "opu": 3563,
      "uddh": 3564,
      "भाग": 3565,
      "velopment": 3566,
      "ya": 3567,
      "सद": 3568,
      "ఉప": 3569,
      "pg=": 3570,
      "▁Asia\")": 3571,
      "संख्या": 3572,
      "జె": 3573,
      "pub": 3574,
      "▁[F": 3575,
      "्तर": 3576,
      "డ్డ": 3577,
      "rof": 3578,
      "\"](https://www.": 3579,
      "ఢ్": 3580,
      "▁\"द": 3581,
      "దక్షిణాసియా": 3582,
      "ইল": 3583,
      "earch": 3584,
      "▁[न": 3585,
      "నాల": 3586,
      "চিত্র:": 3587,
      "emplate:": 3588,
      "నైటెడ్": 3589,
      "তন্ত্র": 3590,
      "ild": 3591,
      "▁अनुसार": 3592,
      "మాఖ్య": 3593,
      "দ্য": 3594,
      "ission": 3595,
      "▁केंद्र": 3596,
      "యునైటెడ్": 3597,
      "নীতি": 3598,
      "on-": 3599,
      "▁प्रदेश\")": 3600,
      "ర్చ": 3601,
      "ন্তর্": 3602,
      "yan": 3603,
      "▁स्थ": 3604,
      "లే": 3605,
      "বন": 3606,
      "▁2011.": 3607,
      "ళు": 3608,
      "বিজ্ঞান": 3609,
      "▁Empire": 3610,
      "వర్గ": 3611,
      "য়ন": 3612,
      "▁India,": 3613,
      ".jpg)](./चित्र:": 3614,
      "వాణా": 3615,
      "ষ্ঠ": 3616,
      "▁hav": 3617,
      "ష్ణ": 3618,
      "সদ": 3619,
      "-b": 3620,
      "ాయి.": 3621,
      "▁ড": 3622,
      "AsherT": 3623,
      "ాలీ": 3624,
      "▁\"অ": 3625,
      "AsherTalbot": 3626,
      "ౌద్ధ": 3627,
      "▁[০-": 3628,
      "off": 3629,
      "–సా.శ.18": 3630,
      "▁কর": 3631,
      "eneral": 3632,
      "एँ": 3633,
      "▁భా": 3634,
      "▁মে": 3635,
      "lad": 3636,
      "एस": 3637,
      "▁[వి": 3638,
      "▁হল": 3639,
      "lear": 3640,
      "गो": 3641,
      "▁అత్య": 3642,
      "गुजरात": 3643,
      "▁గల": 3644,
      "7%": 3645,
      "uj": 3646,
      "ड़ी": 3647,
      "▁దేశంలో": 3648,
      "TN": 3649,
      "ummit\")": 3650,
      "धी": 3651,
      "▁మొద": 3652,
      "](./স": 3653,
      "une": 3654,
      "धिकार": 3655,
      "▁రె": 3656,
      "म्बर": 3657,
      "▁రాష్ట్రాలు,": 3658,
      "_ig": 3659,
      "▁k": 3660,
      "लि": 3661,
      "\")*": 3662,
      "_igno": 3663,
      "▁\"South": 3664,
      "विधान": 3665,
      "_ignored": 3666,
      "▁(PDF": 3667,
      "विश्व": 3668,
      "ameter": 3669,
      "▁bec": 3670,
      "ार्ट": 3671,
      "/a": 3672,
      "ameter_ignored": 3673,
      "-india": 3674,
      "ाला": 3675,
      "/ar": 3676,
      "anges": 3677,
      "िया\")": 3678,
      "/మూస:": 3679,
      "ateg": 3680,
      "ोड़": 3681,
      "0.": 3682,
      "log": 3683,
      "entral": 3684,
      "्यटन": 3685,
      "s://www.": 3686,
      "ledge": 3687,
      "▁[हिन्द": 3688,
      "nolo": 3689,
      "▁जो": 3690,
      "2005": 3691,
      "wood": 3692,
      "rgan": 3693,
      "▁बहु": 3694,
      ":E": 3695,
      "কারি": 3696,
      "rab": 3697,
      "▁भू": 3698,
      ":Ed": 3699,
      "চ্চিত্র": 3700,
      "s.[[": 3701,
      "▁मूल": 3702,
      ":Edit": 3703,
      "পূর্ব": 3704,
      "▁\"J": 3705,
      "▁सेना": 3706,
      ":EditP": 3707,
      "বিক": 3708,
      "▁An": 3709,
      ":EditPage": 3710,
      "বিত": 3711,
      "▁[J": 3712,
      ":EditPage/మూస:": 3713,
      "বিধান": 3714,
      "ম্প": 3715,
      "▁cons": 3716,
      "লচ্চিত্র": 3717,
      "64": 3718,
      "EREF": 3719,
      "হু": 3720,
      "Edit": 3721,
      "াড়": 3722,
      "68": 3723,
      "PDF": 3724,
      "ার্চ": 3725,
      "](./K": 3726,
      "_क्षेत्र": 3727,
      "ে](./": 3728,
      "_Press": 3729,
      "an_": 3730,
      "েলা": 3731,
      "aint": 3732,
      "েশন": 3733,
      "cies": 3734,
      "ed.": 3735,
      "Hind": 3736,
      "▁ভ": 3737,
      "▁\"প": 3738,
      "तिक": 3739,
      "▁(১৯": 3740,
      "uclear": 3741,
      "दू": 3742,
      "▁([সাহায্য](./সাহায্য:উদ্ধৃতি_শৈলী_ত্রুটি#parameter_ignored": 3743,
      "uropean": 3744,
      "नाग": 3745,
      "List_of_countries": 3746,
      "नाथ": 3747,
      "Nation": 3748,
      "▁উপেক্ষা": 3749,
      "भू": 3750,
      "National_": 3751,
      "▁মেশিন": 3752,
      "▁year": 3753,
      "ीत": 3754,
      "](./List_of_countries": 3755,
      "▁Ind": 3756,
      "ील": 3757,
      "44": 3758,
      "▁July": 3759,
      "ी_भाषा": 3760,
      "45": 3761,
      "▁New": 3762,
      "ेट": 3763,
      "_by": 3764,
      "](./ই": 3765,
      "▁into": 3766,
      "▁8": 3767,
      "_న": 3768,
      "](./চিত্র:": 3769,
      "▁language\")": 3770,
      "_by_": 3771,
      "_সম": 3772,
      "▁system": 3773,
      "▁[[": 3774,
      "ages": 3775,
      "auth": 3776,
      "-d": 3777,
      "▁अन्य": 3778,
      "air": 3779,
      "gest": 3780,
      "-m": 3781,
      "▁एशिया": 3782,
      "1994": 3783,
      "▁गण": 3784,
      "ffic": 3785,
      "pg=PA": 3786,
      "▁मा": 3787,
      "gr": 3788,
      "stitution": 3789,
      "_summit": 3790,
      "▁मुख्य": 3791,
      "ibrary": 3792,
      "india.gov.in/": 3793,
      "ংরেজি": 3794,
      "ics": 3795,
      "টিশ": 3796,
      "inistry": 3797,
      "national-": 3798,
      "ণা": 3799,
      "lish": 3800,
      "দিল্": 3801,
      "ober": 3802,
      "]](./भारत#cite_note-1": 3803,
      "ন্দোল": 3804,
      "ology": 3805,
      "_अ": 3806,
      "sion": 3807,
      "রু": 3808,
      "ountry": 3809,
      "লাই": 3810,
      "ta": 3811,
      "s_C": 3812,
      "হিত": 3813,
      "times": 3814,
      "urt": 3815,
      "হিত্য": 3816,
      "yn": 3817,
      "जय": 3818,
      "uthor": 3819,
      "ানু": 3820,
      "▁during": 3821,
      "टक": 3822,
      "ం:Harv": 3823,
      "েল": 3824,
      "58": 3825,
      "तंत्रता": 3826,
      "ంటి": 3827,
      "৯৭": 3828,
      "द्योगिक": 3829,
      "ంటు": 3830,
      "_d": 3831,
      "पति": 3832,
      "కొ": 3833,
      "▁ভূ": 3834,
      "also": 3835,
      "पी": 3836,
      "కాశ్మీ": 3837,
      "▁অব": 3838,
      "ered": 3839,
      "मह": 3840,
      "క్నాల": 3841,
      "▁ইউ": 3842,
      "estern": 3843,
      "म्म": 3844,
      "క్కువ": 3845,
      "▁এর": 3846,
      "रो": 3847,
      "క్నాలజీ": 3848,
      "▁বর্": 3849,
      "iod": 3850,
      "वंश": 3851,
      "క్‌సభ": 3852,
      "▁শতা": 3853,
      "idd": 3854,
      "सी": 3855,
      "ఖండ": 3856,
      "▁সম্পর্ক": 3857,
      "ina": 3858,
      "ैदान": 3859,
      "గలు": 3860,
      "%E0%A7%": 3861,
      "industry": 3862,
      "చ్చే": 3863,
      "%E0%A7%8": 3864,
      "iron": 3865,
      "టిక": 3866,
      "ley": 3867,
      "▁ड": 3868,
      "టెక్నాలజీ": 3869,
      "oll": 3870,
      "▁फ": 3871,
      "డే": 3872,
      "outledge": 3873,
      "త్తరా": 3874,
      "FOO": 3875,
      "usines": 3876,
      "▁[द": 3877,
      "త్యేక:EditPage/మూస:": 3878,
      "▁9": 3879,
      "▁[↑](./भारत#cite_ref-1": 3880,
      "ద్య": 3881,
      "FOOTNO": 3882,
      "▁Archived": 3883,
      "▁जाता": 3884,
      "దక్షిణ_": 3885,
      "▁Press](./": 3886,
      "▁मु": 3887,
      "దీవులు": 3888,
      "](./প": 3889,
      "▁Press\").": 3890,
      "▁वर्ष": 3891,
      "ద్వీ": 3892,
      "hp": 3893,
      "▁comp": 3894,
      "▁साम्राज्य": 3895,
      "ద్ధం": 3896,
      "▁first": 3897,
      "-0-5": 3898,
      "ద్ధి": 3899,
      "▁form": 3900,
      "-0-521": 3901,
      "నాగరి": 3902,
      "এশ": 3903,
      "\")*.": 3904,
      "నాగరికత": 3905,
      "গত": 3906,
      "నిమా": 3907,
      "চার": 3908,
      "](./J": 3909,
      "Indi": 3910,
      "న్\")": 3911,
      "জাতীয়_": 3912,
      "](./L": 3913,
      "Of": 3914,
      "న్నడ": 3915,
      "ত্": 3916,
      "](./Special:BookSources/978-0-": 3917,
      "ప్రత్యేక:EditPage/మూస:": 3918,
      "পে": 3919,
      "_F": 3920,
      "ప్రదాయ": 3921,
      "ুটবল": 3922,
      "aper": 3923,
      "మార్": 3924,
      "্রিটিশ": 3925,
      "ban": 3926,
      "మాలయ": 3927,
      "eration": 3928,
      "ंग्रेज़ी": 3929,
      "యుగ": 3930,
      "▁অর্থনৈতিক": 3931,
      "iff": 3932,
      "ड़े": 3933,
      "రిగ": 3934,
      "▁অনু": 3935,
      "ined": 3936,
      "द्यान": 3937,
      "రిహ": 3938,
      "▁হয়।": 3939,
      "ound": 3940,
      "पे": 3941,
      "ర్ణ": 3942,
      "port": 3943,
      "मंत्र": 3944,
      "ర్చ:": 3945,
      "ram": 3946,
      "यालय": 3947,
      "లకు": 3948,
      "ann": 3949,
      "र्थिक": 3950,
      "లలో": 3951,
      "ritories": 3952,
      "वे": 3953,
      "ళ్": 3954,
      "fr": 3955,
      "uk": 3956,
      "विज्ञान": 3957,
      "ళుక్య": 3958,
      "▁econom": 3959,
      "िज़": 3960,
      "వర్గం:Harv": 3961,
      "ক্ষেত্র": 3962,
      "▁\"Special:BookSources/978-0-": 3963,
      "ी](./अ": 3964,
      "హిమాలయ": 3965,
      "জাতিক": 3966,
      "▁(201": 3967,
      "▁\"इ": 3968,
      "ానికి": 3969,
      "তাম": 3970,
      "▁10": 3971,
      "▁\"हिन्द": 3972,
      "ాళుక్య": 3973,
      "তামিল": 3974,
      "▁17": 3975,
      "▁[इ": 3976,
      "ాలో": 3977,
      "ধারণ": 3978,
      "▁2021.": 3979,
      "▁[पु": 3980,
      "ాలు?action=edit&redlink=1": 3981,
      "ন্ত্রী": 3982,
      "▁History": 3983,
      "▁उत्तर": 3984,
      "ెలుగు": 3985,
      "পাত": 3986,
      "▁Sh": 3987,
      "▁समय": 3988,
      "ేంద్రపాలిత_ప్రా": 3989,
      "ভারত)": 3990,
      "▁[978-0-": 3991,
      "-107": 3992,
      "য়ারি": 3993,
      "▁have": 3994,
      "রক্ষণ": 3995,
      "▁north": 3996,
      "250px-": 3997,
      "হিনী": 3998,
      "▁their": 3999,
      "▁countries": 4000,
      "ালা": 4001,
      "AQ": 4002,
      "িয়ে": 4003,
      "51": 4004,
      "▁భ": 4005,
      "▁(পি": 4006,
      "gi": 4007,
      "▁\"వి": 4008,
      "▁Un": 4009,
      "athe": 4010,
      "ंच": 4011,
      "▁[సి": 4012,
      "▁[আর্কাইভকৃত](https://web.archive.org/web/201": 4013,
      "argest": 4014,
      "डु": 4015,
      "▁ఇది": 4016,
      "▁ক্র": 4017,
      "ement": 4018,
      "णि": 4019,
      "▁ఉప": 4020,
      "▁মা": 4021,
      "fic": 4022,
      "त्य": 4023,
      "▁ఎన్": 4024,
      "\"](http://": 4025,
      "ironment": 4026,
      "त्पाद": 4027,
      "▁కలి": 4028,
      "-19": 4029,
      "rah": 4030,
      "धु": 4031,
      "▁కార": 4032,
      "ule": 4033,
      "नाव": 4034,
      "▁కాంగ్రె": 4035,
      ".php": 4036,
      "vironment": 4037,
      "माज": 4038,
      "▁చి": 4039,
      "▁[W": 4040,
      "लोक": 4041,
      "▁పాల": 4042,
      "▁class": 4043,
      "सेना": 4044,
      "▁లే": 4045,
      "▁government": 4046,
      "▁వం": 4047,
      "](./অ": 4048,
      "▁pe": 4049,
      "▁వచ్చింది.": 4050,
      "author": 4051,
      "▁छ": 4052,
      "▁శాస్త్ర": 4053,
      "Ch": 4054,
      "▁\"न": 4055,
      "▁సంగీతం": 4056,
      "ategory": 4057,
      "▁\"सं": 4058,
      ".పూ.": 4059,
      "lywood": 4060,
      "ctober": 4061,
      "▁2007": 4062,
      "000": 4063,
      "ollywood": 4064,
      "e,": 4065,
      "▁2011": 4066,
      "ক্টোবর": 4067,
      "eg": 4068,
      "▁2014.": 4069,
      "ক্সফোর্": 4070,
      "ely": 4071,
      "▁अग": 4072,
      "ক্সফোর্ড": 4073,
      "eptem": 4074,
      "▁चु": 4075,
      "ছিল": 4076,
      "eptember": 4077,
      "▁द्वार": 4078,
      "2003": 4079,
      "তার": 4080,
      "▁हुई": 4081,
      "দ্র": 4082,
      "ocial": 4083,
      "%2C_": 4084,
      "330": 4085,
      "নেপাল": 4086,
      "ople": 4087,
      "প্ত": 4088,
      "pt": 4089,
      "Infor": 4090,
      "বেশ": 4091,
      "ution": 4092,
      "904": 4093,
      "Informa": 4094,
      "বাস": 4095,
      "ural": 4096,
      "Informatic": 4097,
      "বাধীনতা": 4098,
      "▁also": 4099,
      "](./इ": 4100,
      "Library": 4101,
      "রাষ্ট্রপতি": 4102,
      "▁us": 4103,
      "_ब": 4104,
      "NGDP": 4105,
      "স্তা": 4106,
      "▁October": 4107,
      "ার্কিন": 4108,
      "▁Pradesh": 4109,
      "lang": 4110,
      "ase": 4111,
      "ুল": 4112,
      "▁World": 4113,
      "pur": 4114,
      "blic": 4115,
      "্ড": 4116,
      "▁[I": 4117,
      "▁ধর্ম": 4118,
      "▁pla": 4119,
      "entre": 4120,
      "▁[আর্কাইভকৃত](https://web.archive.org/web/200": 4121,
      "8/": 4122,
      "ffair": 4123,
      "▁পা": 4124,
      "Dyson": 4125,
      "ंबई": 4126,
      "imf": 4127,
      "▁বৃহ": 4128,
      "Intern": 4129,
      "ईसा": 4130,
      "▁যুদ্ধ": 4131,
      "Indus": 4132,
      "कल": 4133,
      "▁২০০৯": 4134,
      "University_Press": 4135,
      "खाना": 4136,
      "mis": 4137,
      "_Indian_": 4138,
      "चे": 4139,
      "ok": 4140,
      "ats": 4141,
      "टे": 4142,
      "ative": 4143,
      "तु": 4144,
      "pril": 4145,
      "ayan": 4146,
      "मुख": 4147,
      "ck": 4148,
      "रवरी": 4149,
      "ంగ్లీ": 4150,
      "cience": 4151,
      "राष्ट्रपति": 4152,
      "ంజాబ్": 4153,
      "ee": 4154,
      "र्दू": 4155,
      "ండర్": 4156,
      "_প্র": 4157,
      "gency": 4158,
      "ल्": 4159,
      "ఆగ": 4160,
      "isher": 4161,
      "शासित": 4162,
      "ఆఫ్ఘనిస్తాన్": 4163,
      "ishing": 4164,
      "ष्ण": 4165,
      "కళ": 4166,
      "iter": 4167,
      "हासागर": 4168,
      "కీ": 4169,
      "jab": 4170,
      "ैक": 4171,
      "ఖండ్": 4172,
      "lam": 4173,
      "ोम": 4174,
      "గఢ్": 4175,
      "ote": 4176,
      "्रां": 4177,
      "గ్": 4178,
      "vi": 4179,
      "ough": 4180,
      "గుజరాత్": 4181,
      "ক্ষমতা": 4182,
      "uman": 4183,
      "▁ऊ": 4184,
      "చ్చేరి": 4185,
      "ণ্ড": 4186,
      "▁September": 4187,
      "జో": 4188,
      "ন্ট": 4189,
      "▁relig": 4190,
      "▁खाना\")": 4191,
      "ట్ర": 4192,
      "প্রা": 4193,
      "▁st": 4194,
      "▁दिया": 4195,
      "ట్టు": 4196,
      "লোক": 4197,
      "8](./India#CITEREF": 4198,
      "▁दिस": 4199,
      "ణాచల్": 4200,
      "শীল": 4201,
      "ates": 4202,
      "▁बढ़": 4203,
      "ణాటక": 4204,
      "স্থা": 4205,
      "chnolo": 4206,
      "▁लिए": 4207,
      "తెలుగు": 4208,
      "িয়া\")": 4209,
      "edic": 4210,
      "▁वा": 4211,
      "త్మా": 4212,
      "ের_তালিকা": 4213,
      "etwe": 4214,
      "▁विकास": 4215,
      "ద్రా": 4216,
      "্যান্য": 4217,
      "etween": 4218,
      "▁सु": 4219,
      "దినో": 4220,
      "ingdom": 4221,
      "▁हुआ": 4222,
      "దినోత్స": 4223,
      "matics": 4224,
      "దేశాల": 4225,
      "▁Con": 4226,
      "nvironment": 4227,
      "-1-107": 4228,
      "ద్దు": 4229,
      "▁অক্টোবর": 4230,
      "oor": 4231,
      "న్నో": 4232,
      "▁থেকে](http://www.": 4233,
      "omen": 4234,
      "_न": 4235,
      "న్‌ఫర్": 4236,
      "▁প্রযুক্তি": 4237,
      "ongress": 4238,
      "న్‌ఫర్మే": 4239,
      "▁ভারত\")": 4240,
      "న్‌ఫర్మేషన్": 4241,
      "▁মহা": 4242,
      "▁(200": 4243,
      "क्स": 4244,
      "పద": 4245,
      "▁Comm": 4246,
      "गणना": 4247,
      "బెంగాలీ": 4248,
      ".htm)।": 4249,
      "▁dis": 4250,
      "जाति": 4251,
      "భి": 4252,
      ".html)": 4253,
      "▁not": 4254,
      "डी": 4255,
      "మాచల్": 4256,
      ".jpg)](./চিত্র:": 4257,
      "▁trad": 4258,
      "त्तरा": 4259,
      "మిజో": 4260,
      "▁world": 4261,
      "धानमंत्र": 4262,
      "యో": 4263,
      "_ন": 4264,
      "-c": 4265,
      "न](./": 4266,
      "యన్మార్": 4267,
      "-81": 4268,
      "नेपाल": 4269,
      "రాజస్థాన్": 4270,
      "ament": 4271,
      "100": 4272,
      "माणु": 4273,
      "రాష్ట్రాలు,": 4274,
      "म्मू": 4275,
      "రిహద్దు": 4276,
      "राजस्थान": 4277,
      "రుణాచల్": 4278,
      "हिन्दी": 4279,
      "రువా": 4280,
      "IN": 4281,
      "ारी": 4282,
      "ర్ణాటక": 4283,
      "index": 4284,
      "_K": 4285,
      "ार्च": 4286,
      "లక్ష": 4287,
      "_L": 4288,
      "िक्": 4289,
      "లోక్‌సభ": 4290,
      "of_": 4291,
      "_m": 4292,
      "ूर्": 4293,
      "వ](./List_of_countries": 4294,
      "amb": 4295,
      "ृति": 4296,
      "వర": 4297,
      "ক্র": 4298,
      "ari": 4299,
      "्रीका": 4300,
      "వేద": 4301,
      "গোল": 4302,
      "eser": 4303,
      "▁फ़": 4304,
      "శో": 4305,
      "জার্": 4306,
      "ide": 4307,
      "▁\"आ": 4308,
      "శాస్త్ర": 4309,
      "জে": 4310,
      "iddle": 4311,
      "▁[आ": 4312,
      "సింధు": 4313,
      "জাতি": 4314,
      "▁[ज": 4315,
      "స్వ": 4316,
      "ত্তম": 4317,
      "omb": 4318,
      "హాయ": 4319,
      "দিল্লি": 4320,
      "rov": 4321,
      "▁क्षेत्र\")": 4322,
      "హార్": 4323,
      "নিক": 4324,
      "raven": 4325,
      "▁जून": 4326,
      "హు": 4327,
      "ন্তর্জাতিক": 4328,
      "▁\"W": 4329,
      "▁दिसम्बर": 4330,
      "హాత్మా": 4331,
      "ভর": 4332,
      "▁April": 4333,
      "▁निर्": 4334,
      "హారా": 4335,
      "ভেম্বর": 4336,
      "▁[Archived](https://web.archive.org/web/202": 4337,
      "▁हिन्दी": 4338,
      "హారాష్ట్ర": 4339,
      "মন্ত্রী": 4340,
      "▁de": 4341,
      "%E0%A4%": 4342,
      "హిమాచల్": 4343,
      "মার": 4344,
      "46": 4345,
      "ాలా": 4346,
      "মাণু": 4347,
      "6](./India#CITEREF": 4348,
      "ికి": 4349,
      "র্থনীতি": 4350,
      "DwAAQBAJ&pg=PA": 4351,
      "ీక": 4352,
      "সংস্": 4353,
      "Dyson2018": 4354,
      "Official": 4355,
      "ీహార్": 4356,
      "হিন্দু": 4357,
      "_H": 4358,
      "](./सं": 4359,
      "ుల": 4360,
      "ীকরণ": 4361,
      "_University_Press": 4362,
      "](./भारतीय": 4363,
      "ుల్": 4364,
      "েখ": 4365,
      "_प": 4366,
      "ులు\"),": 4367,
      "১-": 4368,
      "ater": 4369,
      "_सा": 4370,
      "ోబ": 4371,
      "ategory:": 4372,
      "ోల్": 4373,
      "▁গ্র": 4374,
      "ations": 4375,
      "do": 4376,
      "ౌర్య": 4377,
      "chnology": 4378,
      "్యం": 4379,
      "▁[ন": 4380,
      "fric": 4381,
      "in_": 4382,
      "్రూ": 4383,
      "▁এশ": 4384,
      "ikh": 4385,
      "langoff": 4386,
      "▁নভেম্বর": 4387,
      "ird": 4388,
      "mar": 4389,
      "▁বাহিনী": 4390,
      "▁বিশ্বের": 4391,
      "ual": 4392,
      "▁\"ఢిల్లీ": 4393,
      "▁সাম্রাজ্য": 4394,
      "unjab": 4395,
      "ंग्रेस": 4396,
      "▁\"సి": 4397,
      "▁২০০৮।": 4398,
      "टी": 4399,
      "▁\"హ": 4400,
      ".sv": 4401,
      "▁res": 4402,
      "त्रि": 4403,
      "▁\"O": 4404,
      "पात": 4405,
      "▁[హ": 4406,
      ".jpg/250px-": 4407,
      "▁India\"),": 4408,
      "म\")": 4409,
      "▁అతి": 4410,
      "▁[Indian": 4411,
      "र्जा": 4412,
      "▁జరిగ": 4413,
      "55": 4414,
      "▁more": 4415,
      "र्स": 4416,
      "▁తరువా": 4417,
      "▁this": 4418,
      "र्वत": 4419,
      "▁ప్రదేశ్\")": 4420,
      "_su": 4421,
      "वी": 4422,
      "▁ప్రాంతాలు": 4423,
      "_(ভারত)": 4424,
      "5–": 4425,
      "वै": 4426,
      "▁మార్గాలు": 4427,
      "_অঞ্চল": 4428,
      "ali": 4429,
      "स्कृति": 4430,
      "▁ముఖ్య": 4431,
      "andhi": 4432,
      "हीं": 4433,
      "▁రహదార": 4434,
      "berg": 4435,
      "िज": 4436,
      "▁రాజకీయ": 4437,
      "ia\")": 4438,
      "िन्": 4439,
      "▁వే": 4440,
      "ince": 4441,
      "ी\"),": 4442,
      "▁వంశ": 4443,
      "ones": 4444,
      "ैंड": 4445,
      "▁వాతావరణ": 4446,
      "ool": 4447,
      "ैल": 4448,
      "▁వ్యాస": 4449,
      "liament": 4450,
      "reas": 4451,
      "्यता": 4452,
      "▁శతాబ్ద": 4453,
      "ugust": 4454,
      "▁సామ్రాజ్య": 4455,
      "rofile": 4456,
      "▁im": 4457,
      "▁August": 4458,
      "▁इसके": 4459,
      ",NGDP": 4460,
      "কো": 4461,
      "▁century": 4462,
      "▁थी": 4463,
      "-2)": 4464,
      "ঙ্কা": 4465,
      "▁music": 4466,
      "▁द्वारा": 4467,
      "টান": 4468,
      "▁part": 4469,
      "▁पह": 4470,
      "/artic": 4471,
      "ডিয়া": 4472,
      "▁पार्ट": 4473,
      "1200": 4474,
      "ডিএফ": 4475,
      "521": 4476,
      "▁फ़रवरी": 4477,
      "থ্য": 4478,
      "_re": 4479,
      "▁बना": 4480,
      "26)": 4481,
      "দার": 4482,
      "able": 4483,
      "▁मार्च": 4484,
      "E0%B": 4485,
      "দ্ধি": 4486,
      "adu": 4487,
      "▁शासन": 4488,
      "Inter": 4489,
      "ন্স": 4490,
      "arlia": 4491,
      "▁संविधान": 4492,
      "New": 4493,
      "পুর": 4494,
      "arliament": 4495,
      "Ta": 4496,
      "ব্": 4497,
      "elig": 4498,
      "-80": 4499,
      "শ্রীল": 4500,
      "ering": 4501,
      "শ্রীলঙ্কা": 4502,
      "ess": 4503,
      "_సం": 4504,
      "সংঘ": 4505,
      "form": 4506,
      "43": 4507,
      "ack": 4508,
      "সিন্ধ": 4509,
      "ime": 4510,
      "C&pg=PA": 4511,
      "স্ট্র": 4512,
      "ket": 4513,
      "](./भारत#cite_ref-FOOTNOTE": 4514,
      "হিন্দি": 4515,
      "ne": 4516,
      "ুরু": 4517,
      "ompany": 4518,
      "_द": 4519,
      "্মীর": 4520,
      "rd": 4521,
      "cens": 4522,
      "encies": 4523,
      "▁ঘ": 4524,
      "tal": 4525,
      "india/": 4526,
      "endencies": 4527,
      "▁ধ": 4528,
      "tes": 4529,
      "entre2005": 4530,
      "▁(পিডিএফ": 4531,
      "y\")": 4532,
      "ependencies": 4533,
      "▁অন্যান্য": 4534,
      "ंट": 4535,
      "gn": 4536,
      "▁গা": 4537,
      "▁Y": 4538,
      "ंडिया": 4539,
      "▁জু": 4540,
      "▁al": 4541,
      "खंड": 4542,
      "iew": 4543,
      "▁নদী": 4544,
      "▁15": 4545,
      "खण्ड": 4546,
      "▁নে": 4547,
      "▁Press.": 4548,
      "गोल": 4549,
      "imes": 4550,
      "▁পর্ব": 4551,
      "▁after": 4552,
      "ताब्": 4553,
      "imf2": 4554,
      "▁প্রস্তা": 4555,
      "▁between": 4556,
      "दीव": 4557,
      "minal": 4558,
      "▁বৃহত্তম": 4559,
      "▁dance": 4560,
      "धि": 4561,
      "▁state": 4562,
      "नाडु": 4563,
      "tb": 4564,
      "▁subcontinent": 4565,
      "पर्यटन": 4566,
      "%2F": 4567,
      "पालिका": 4568,
      "_বি": 4569,
      "-in": 4570,
      "योग": 4571,
      "ంతి": 4572,
      "a/": 4573,
      "-40": 4574,
      "रू": 4575,
      "ంచి": 4576,
      "acces": 4577,
      "5).": 4578,
      "रेल": 4579,
      "ండియా": 4580,
      "bal": 4581,
      "88": 4582,
      "व्यवस्था": 4583,
      "ంపె": 4584,
      "l=": 4585,
      "_language": 4586,
      "शीन": 4587,
      "ంపెనీ": 4588,
      "a,": 4589,
      "स्त्र": 4590,
      "కారం": 4591,
      "t_": 4592,
      "artz": 4593,
      "िक्कि": 4594,
      "కాల": 4595,
      "artzberg": 4596,
      "िक्षा": 4597,
      "కిస్థాన్": 4598,
      "chw": 4599,
      "ुंबई": 4600,
      "ఖ్": 4601,
      "chwartzberg": 4602,
      "ुरु": 4603,
      "గంగా": 4604,
      "গা": 4605,
      "ूचना": 4606,
      "టిబె": 4607,
      "গো": 4608,
      "http://": 4609,
      "ौद्ध": 4610,
      "టుంబ": 4611,
      "চি": 4612,
      "pp": 4613,
      "ौद्योगिक": 4614,
      "డిన": 4615,
      "তীক": 4616,
      "ular": 4617,
      "ौर": 4618,
      "తీ": 4619,
      "ন্তর": 4620,
      "ures": 4621,
      "▁या": 4622,
      "తం\")": 4623,
      "প্রদেশ": 4624,
      "▁\"I": 4625,
      "త్తం": 4626,
      "বস": 4627,
      "▁1,": 4628,
      "దక్షిణ_ఆసియా": 4629,
      "বার": 4630,
      "▁अरब": 4631,
      "ధి": 4632,
      "বায়ু": 4633,
      "▁but": 4634,
      "▁इतिहास": 4635,
      "ధించ": 4636,
      "বিশ্ব": 4637,
      "▁tw": 4638,
      "▁घाट": 4639,
      "నల్": 4640,
      "ভৌ": 4641,
      "▁years": 4642,
      "▁जल": 4643,
      "బాద్": 4644,
      "ভ্য": 4645,
      "\".": 4646,
      "▁दर": 4647,
      "మన": 4648,
      "মহা": 4649,
      "▁प्रति": 4650,
      "మర": 4651,
      "লু": 4652,
      "%7": 4653,
      "▁मैदान": 4654,
      "యుద్ధం": 4655,
      "সাই": 4656,
      "▁लग": 4657,
      "ర్యా": 4658,
      "সাম্রাজ্য": 4659,
      "▁संग": 4660,
      "లం": 4661,
      "ালত": 4662,
      ".org/10.": 4663,
      "▁सिनेमा": 4664,
      "లతో": 4665,
      "িকা": 4666,
      "▁हैं,": 4667,
      "లమె": 4668,
      "িকি": 4669,
      "3_": 4670,
      "-78": 4671,
      "స్](./": 4672,
      "িকেট": 4673,
      "6).": 4674,
      "హ్మ": 4675,
      "িয়ার": 4676,
      "72": 4677,
      "-0-521-80": 4678,
      "ారస": 4679,
      "ৃত্য": 4680,
      ":[": 4681,
      "-0-521-80904": 4682,
      "ార్లమె": 4683,
      "১৭": 4684,
      "_I": 4685,
      "-0-521-80904-7": 4686,
      "ాలలో": 4687,
      "৫]](./ভারত#cite_note-": 4688,
      "_in_": 4689,
      "-111": 4690,
      "ాల్దీవులు": 4691,
      "▁টা": 4692,
      "act": 4693,
      "ీస్": 4694,
      "▁৬": 4695,
      "annic": 4696,
      "1_": 4697,
      "ూరు": 4698,
      "▁৭": 4699,
      "anglad": 4700,
      "ేంద్రపాలిత_ప్రాంత": 4701,
      "angladesh": 4702,
      "ౌక": 4703,
      "▁###": 4704,
      "clud": 4705,
      "66": 4706,
      "్రిటిషు": 4707,
      "doi.org/10.": 4708,
      "్రీ.పూ.": 4709,
      "ese": 4710,
      "905": 4711,
      "fl": 4712,
      "AAQ": 4713,
      "india.gov": 4714,
      "▁অবস্থ": 4715,
      "mb": 4716,
      "AAQB": 4717,
      "▁ద": 4718,
      "▁গণ": 4719,
      "me": 4720,
      "▁దక్షిణ": 4721,
      "▁পূ": 4722,
      "olitical": 4723,
      "▁ఫ": 4724,
      "▁ব্যা": 4725,
      "ritannic": 4726,
      "▁హిందూ": 4727,
      "▁মার্চ": 4728,
      "▁6": 4729,
      "](./भारत_का_": 4730,
      "▁শতাংশ": 4731,
      "▁over": 4732,
      "](./भारत_की_": 4733,
      "▁সরকারি": 4734,
      "▁(identifier)\"):[": 4735,
      "_संघ": 4736,
      "▁সালের": 4737,
      "▁16": 4738,
      "albo": 4739,
      "▁26": 4740,
      "▁হয়ে": 4741,
      "▁2019.": 4742,
      "-২": 4743,
      "▁Ar": 4744,
      "▁[ఢిల్లీ": 4745,
      "▁East": 4746,
      "▁[భారతదేశం": 4747,
      "8)": 4748,
      "▁For": 4749,
      "▁అనే": 4750,
      "_sug": 4751,
      "▁ab": 4752,
      "▁అత్యధిక": 4753,
      "_suggest": 4754,
      "▁been": 4755,
      "so": 4756,
      "▁ఆఫ్": 4757,
      "`|": 4758,
      "▁exp": 4759,
      "▁ఎక్కువ": 4760,
      "▁most": 4761,
      "▁ఎన్నో": 4762,
      "2024": 4763,
      "तेलु": 4764,
      "▁ఏర్": 4765,
      "धा": 4766,
      "▁గాంధీ": 4767,
      "3-0)": 4768,
      "धानमंत्री": 4769,
      "▁దేశం": 4770,
      "धिकारिक": 4771,
      "▁నగర": 4772,
      "att": 4773,
      "रण": 4774,
      "▁నే": 4775,
      "ature": 4776,
      "ani": 4777,
      "राठ": 4778,
      "▁పెద్ద": 4779,
      "now": 4780,
      "creas": 4781,
      "लिस": 4782,
      "▁ప్రజ": 4783,
      "cient": 4784,
      "वार": 4785,
      "▁ప్రాంతాలు\")": 4786,
      "eat": 4787,
      "वीं": 4788,
      "▁భారత్": 4789,
      "shit": 4790,
      "iksh": 4791,
      "शक": 4792,
      "▁మొత్తం": 4793,
      "ikshit": 4794,
      "श्री": 4795,
      "▁విస్త": 4796,
      "ংগ্র": 4797,
      "irect": 4798,
      "स](./": 4799,
      "▁సాం": 4800,
      "করণ": 4801,
      "mu": 4802,
      "सभा": 4803,
      "%E0%B": 4804,
      "ন্দোলন": 4805,
      "ombined": 4806,
      "स्ट": 4807,
      ",26": 4808,
      "বন্ধ": 4809,
      "ovement": 4810,
      "ांध": 4811,
      "-g": 4812,
      "বহ": 4813,
      "roup": 4814,
      "ाप": 4815,
      "বিত)": 4816,
      "ttar": 4817,
      "िये": 4818,
      "-15": 4819,
      "ভাবে": 4820,
      "ughal": 4821,
      "ूनिव": 4822,
      "লার": 4823,
      "ूरो": 4824,
      "সংখ্যা": 4825,
      "▁[South": 4826,
      "ृत्य": 4827,
      ".pd": 4828,
      "সাগর": 4829,
      "▁[1](./India#cite_ref-FOOTNOTE": 4830,
      "ोष": 4831,
      "৬]](./ভারত#cite_note-": 4832,
      "▁[2](./India#cite_ref-FOOTNOTE": 4833,
      "्ता:": 4834,
      "৮-": 4835,
      "▁ag": 4836,
      "्रम": 4837,
      "▁election": 4838,
      "०१": 4839,
      "07": 4840,
      "0–సా.శ.": 4841,
      "...": 4842,
      "▁ऑ": 4843,
      "00–సా.శ.పూ.": 4844,
      "1/": 4845,
      "▁\"জ": 4846,
      "3).": 4847,
      "▁2009": 4848,
      "▁(`|": 4849,
      "Asia": 4850,
      "▁[पुरालेखित": 4851,
      "▁(ভারত": 4852,
      "▁अगस्त": 4853,
      "3,": 4854,
      "▁([সাহায্য](./সাহায্য:উদ্ধৃতি_শৈলী_ত্রুটি#parameter_ignored_suggest": 4855,
      "CE": 4856,
      "▁कार्य": 4857,
      "330px-": 4858,
      "ID": 4859,
      "▁दृ": 4860,
      "▁[আর্কাইভকৃত](https://web.archive.org/web/20": 4861,
      "](./W": 4862,
      "▁दो": 4863,
      "▁প্রস্তাবিত)": 4864,
      "_ter": 4865,
      "▁न्यायालय": 4866,
      "▁বিচার": 4867,
      "ea": 4868,
      "▁प्रमुख": 4869,
      "▁সংস্কৃতি": 4870,
      "▁भाषाओं": 4871,
      "IB": 4872,
      "▁সঙ্গে": 4873,
      "icy": 4874,
      "▁युद्ध": 4875,
      "Informatics_C": 4876,
      "-অ": 4877,
      "inister": 4878,
      "▁रह": 4879,
      "Informatics_Centre2005": 4880,
      "/d": 4881,
      "ndaman": 4882,
      "▁शा": 4883,
      "International": 4884,
      "/s": 4885,
      "news/": 4886,
      "Nations": 4887,
      "-प": 4888,
      "National_Informatics_Centre2005": 4889,
      "ority": 4890,
      "-108": 4891,
      "IA": 4892,
      "ose": 4893,
      "Rep": 4894,
      "tain": 4895,
      "San": 4896,
      "](./ন": 4897,
      "ton": 4898,
      "5/": 4899,
      "](./ఢిల్లీ": 4900,
      "_প": 4901,
      "ujar": 4902,
      "5]](./भारत#cite_note-": 4903,
      "](./భారతదేశంలో_": 4904,
      "ven": 4905,
      "Com": 4906,
      "▁all": 4907,
      "_ए": 4908,
      "_జాబితా": 4909,
      "ar_": 4910,
      "_का_": 4911,
      "_కేంద్రపాలిత_ప్రాంత": 4912,
      "▁2006](./India#CITEREF": 4913,
      "age/": 4914,
      "aul": 4915,
      "▁Metcalf": 4916,
      "amm": 4917,
      "▁Oxford": 4918,
      "hindi": 4919,
      "know": 4920,
      "▁[s": 4921,
      "idata": 4922,
      "c/c": 4923,
      "▁comm": 4924,
      "ca": 4925,
      "▁population": 4926,
      "issi": 4927,
      "country": 4928,
      "on_": 4929,
      "public": 4930,
      "enn": 4931,
      "ংগ্রেস": 4932,
      "1–": 4933,
      "ंका": 4934,
      "ইকি": 4935,
      "4](./India#CITEREF": 4936,
      "अन": 4937,
      "ইল্যান্ড": 4938,
      "9).": 4939,
      "कट": 4940,
      "iti": 4941,
      "উত্তর-": 4942,
      "an\")": 4943,
      "गंगा": 4944,
      "ic.in": 4945,
      "কাল": 4946,
      "avid": 4947,
      "त्तीस": 4948,
      "কূল": 4949,
      "नाटक": 4950,
      "কাপ": 4951,
      "ched": 4952,
      "पेक्ष": 4953,
      "কেন্দ্রশাসিত": 4954,
      "ealth": 4955,
      "भो": 4956,
      "ofindia.": 4957,
      "জার্ভ": 4958,
      "ed.).": 4959,
      "भीम": 4960,
      "টক": 4961,
      "emoc": 4962,
      "मेर": 4963,
      "relig": 4964,
      "টেম্বর": 4965,
      "emocra": 4966,
      "राबाद": 4967,
      "sy": 4968,
      "থাইল্যান্ড": 4969,
      "ham": 4970,
      "र्नाटक": 4971,
      "uthority": 4972,
      "দালত": 4973,
      "ident": 4974,
      "र्वो": 4975,
      "ం](./భారతీయ": 4976,
      "প্টেম্বর": 4977,
      "mong": 4978,
      "ल](./": 4979,
      "ంగ్లీషు": 4980,
      "মাজ": 4981,
      "nglish": 4982,
      "लंका": 4983,
      "ంచిన": 4984,
      "রব": 4985,
      "oin": 4986,
      "वायु": 4987,
      "ంటుంది.": 4988,
      "রো": 4989,
      "obb": 4990,
      "शा": 4991,
      "ండమా": 4992,
      "রিজার্ভ": 4993,
      "ortal": 4994,
      "हैद": 4995,
      "ంతో": 4996,
      "র্ত": 4997,
      "peration": 4998,
      "हिमा": 4999,
      "ంది": 5000,
      "ল্": 5001,
      "rish": 5002,
      "हैदराबाद": 5003,
      "ంధ్ర": 5004,
      "সিন্ধু": 5005,
      "read": 5006,
      "ाने": 5007,
      "ంధ్రప్రదేశ్": 5008,
      "ান\")": 5009,
      "trib": 5010,
      "िला": 5011,
      "ంపి": 5012,
      "িয়ন": 5013,
      "union": 5014,
      "िरपेक्ष": 5015,
      "ఆంధ్రప్రదేశ్": 5016,
      "িয়ানমার": 5017,
      "▁\"Ch": 5018,
      "ीमा": 5019,
      "ఆర్ధిక": 5020,
      "ুদ্ধ": 5021,
      "▁2010](./India#CITEREF": 5022,
      "ूह": 5023,
      "క్రమ": 5024,
      "▁BCE": 5025,
      "्म": 5026,
      "కుడు": 5027,
      "▁\"ন": 5028,
      "▁[1](./India#cite_ref-": 5029,
      "క్ట": 5030,
      "▁\"বি": 5031,
      "▁[2](./India#cite_ref-": 5032,
      "▁ट": 5033,
      "గర్": 5034,
      "▁end": 5035,
      "▁\"ओ": 5036,
      "గాంధీ": 5037,
      "▁sup": 5038,
      "గోళ": 5039,
      "▁[বি": 5040,
      "-w": 5041,
      "ట్రో": 5042,
      "▁উল্": 5043,
      "2016": 5044,
      "▁[ओ": 5045,
      "డో": 5046,
      "▁জুলাই": 5047,
      "Combined": 5048,
      "▁[हिन्दी](./": 5049,
      "డిప": 5050,
      "▁প্রথ": 5051,
      "_at": 5052,
      "▁अप्र": 5053,
      "తాన": 5054,
      "▁ব্যবস্থ": 5055,
      "alley": 5056,
      "▁करने": 5057,
      "తున్న": 5058,
      "▁সেপ্টেম্বর": 5059,
      "arb": 5060,
      "▁केन्द्र": 5061,
      "త్వం": 5062,
      "▁স্থা": 5063,
      "asia": 5064,
      "▁गणराज्य": 5065,
      "థి": 5066,
      "▁১১": 5067,
      "cent": 5068,
      "▁नी": 5069,
      "దేశం": 5070,
      "change": 5071,
      "▁बा": 5072,
      "ధీన": 5073,
      "ft": 5074,
      "▁मेला\")": 5075,
      "నాలు": 5076,
      "&s": 5077,
      "ira": 5078,
      "▁संबंध": 5079,
      "నె": 5080,
      "*](https://": 5081,
      "ities": 5082,
      "▁हुए": 5083,
      "నియా": 5084,
      "iation": 5085,
      "నుమ": 5086,
      ".as": 5087,
      "నేష": 5088,
      "oci": 5089,
      "నేషనల్": 5090,
      "121": 5091,
      "ports": 5092,
      "పాలన": 5093,
      "1](./ভারত#cite_ref-": 5094,
      "son": 5095,
      "బడ్డ": 5096,
      "theast": 5097,
      "బడిన": 5098,
      "?ur": 5099,
      "udden": 5100,
      "5_": 5101,
      "బెంగాల్": 5102,
      "?url=": 5103,
      "▁\"V": 5104,
      "EditP": 5105,
      "భర": 5106,
      "?url=http": 5107,
      "▁(India)": 5108,
      "EditPage/": 5109,
      "మహ": 5110,
      "▁24": 5111,
      "EditPage/साँचा:": 5112,
      "మై": 5113,
      "](./বি": 5114,
      "▁Ass": 5115,
      "](./आ": 5116,
      "ముఖ": 5117,
      "_উ": 5118,
      "▁It": 5119,
      "](./ओ": 5120,
      "మెరి": 5121,
      "▁Jan": 5122,
      "_उ": 5123,
      "యన": 5124,
      "▁June": 5125,
      "యి": 5126,
      "citation.org/": 5127,
      "▁May": 5128,
      "యాళ": 5129,
      "▁[m": 5130,
      "clm": 5131,
      "రంగ": 5132,
      "ica": 5133,
      "▁[Archived](https://web.archive.org/web/201": 5134,
      "clm.nic.in/": 5135,
      "రాఠ": 5136,
      "in-": 5137,
      "▁[Ch": 5138,
      "రాష్ట్రాలు,_కేంద్రపాలిత_ప్రాంత": 5139,
      "▁[Metcalf": 5140,
      "ర్లు": 5141,
      "ర్‌": 5142,
      "nc": 5143,
      "▁had": 5144,
      "లయాళ": 5145,
      "ofindia": 5146,
      "▁sh": 5147,
      "లు?action=edit&redlink=1": 5148,
      "▁two": 5149,
      "nclm.nic.in/": 5150,
      "ల్వే": 5151,
      "webcitation.org/": 5152,
      "pa": 5153,
      "వార": 5154,
      "ক্ষর": 5155,
      "1997": 5156,
      "rep": 5157,
      "వందే": 5158,
      "চিত": 5159,
      "శీ": 5160,
      "দু": 5161,
      "ver": 5162,
      "శ్వా": 5163,
      "ভিন্ন": 5164,
      "Harle": 5165,
      "ंह": 5166,
      "షా": 5167,
      "রকার": 5168,
      "Harle1994": 5169,
      "गल": 5170,
      "ష్టు": 5171,
      "লব": 5172,
      "](./Special:BookSources/978-0-19": 5173,
      "झार": 5174,
      "స్య": 5175,
      "শাল": 5176,
      "डिया": 5177,
      "స్\")": 5178,
      "ষয়": 5179,
      "anc": 5180,
      "तट": 5181,
      "ారిటీ": 5182,
      "সমূহ\")": 5183,
      "arn": 5184,
      "निक": 5185,
      "ార్లమెంట": 5186,
      "স্ত্র": 5187,
      "arti": 5188,
      "पान": 5189,
      "ాలను": 5190,
      "ার্ব": 5191,
      "cul": 5192,
      "पुरा": 5193,
      "ాల్లో": 5194,
      "িলি": 5195,
      "ehr": 5196,
      "प्रा": 5197,
      "ులు,": 5198,
      "৪]](./ভারত#cite_note-": 5199,
      "ector": 5200,
      "मालय": 5201,
      "ుల్తాన": 5202,
      "▁লা": 5203,
      "ers,": 5204,
      "रेलू": 5205,
      "ృద్ధి": 5206,
      "▁(ভারত)\")": 5207,
      "han": 5208,
      "र्ष": 5209,
      "ెంగ": 5210,
      "▁[1](./ভারত#cite_ref-": 5211,
      "istor": 5212,
      "र्वोच्च": 5213,
      "ెలవు": 5214,
      "▁[2](./ভারত#cite_ref-": 5215,
      "ivil": 5216,
      "विशेष:EditPage/साँचा:": 5217,
      "ేర": 5218,
      "life": 5219,
      "श्चिमी": 5220,
      "్రై": 5221,
      "▁অধিক": 5222,
      "स्ला": 5223,
      "–సా.శ.13": 5224,
      "▁অন্য": 5225,
      "ock": 5226,
      "हन": 5227,
      "▁Nations": 5228,
      "▁ইতিহাস\")": 5229,
      "olicy": 5230,
      "हरी": 5231,
      "▁উল্লেখ": 5232,
      "onwe": 5233,
      "िस्तान": 5234,
      "▁করে।": 5235,
      "onwealth": 5236,
      "िहार": 5237,
      "▁নিবন্ধ": 5238,
      "rop": 5239,
      "ियां": 5240,
      "▁టెక్నాలజీ": 5241,
      "▁যুগ": 5242,
      "umber": 5243,
      "ीपी": 5244,
      "▁దా": 5245,
      "▁১৯৯": 5246,
      "urr": 5247,
      "▁నాగరికత": 5248,
      "\"](https://web.archive.org/web/200": 5249,
      "ussia": 5250,
      "▁భారతీయ": 5251,
      "-19-5": 5252,
      "ustral": 5253,
      "▁—": 5254,
      "val": 5255,
      "174": 5256,
      "▁ev": 5257,
      "▁राष्ट्र": 5258,
      "▁up": 5259,
      "▁(సా.శ.15": 5260,
      "▁\"Economy": 5261,
      "▁13": 5262,
      "▁(సా.శ.17": 5263,
      "▁\"Special:BookSources/978-0-19": 5264,
      "▁1.": 5265,
      "Doi": 5266,
      "▁30": 5267,
      "▁25": 5268,
      "▁2021": 5269,
      "▁Congress": 5270,
      "▁[च": 5271,
      "▁Dec": 5272,
      "K:": 5273,
      "▁[O": 5274,
      "▁[पुरालेखित](https://web.archive.org/web/201": 5275,
      "▁Development": 5276,
      "](./জ": 5277,
      "▁[978-0-19": 5278,
      "▁उद्यान": 5279,
      "▁artic": 5280,
      "▁कुल": 5281,
      "▁[![](//upload.wikimedia.org/wikipedia/commons/thumb/c/c": 5282,
      "▁became": 5283,
      "▁गु": 5284,
      "▁అధికారిక": 5285,
      "_এ": 5286,
      "▁dec": 5287,
      "▁चुनाव": 5288,
      "▁అయిన": 5289,
      "_সাম্রাজ্য": 5290,
      "▁general": 5291,
      "▁देख": 5292,
      "▁ఏర్ప": 5293,
      "_সম্পর্ক": 5294,
      "▁includ": 5295,
      "▁नद": 5296,
      "▁కి": 5297,
      "▁spe": 5298,
      "▁नहीं": 5299,
      "▁కో": 5300,
      "▁summit\")": 5301,
      "▁प्राप्त": 5302,
      "▁కాలంలో": 5303,
      "ensu": 5304,
      "▁territories": 5305,
      "▁बन": 5306,
      "▁కాశ్మీరు": 5307,
      "etail": 5308,
      "▁tradition": 5309,
      "▁भूम": 5310,
      "▁చిన్న": 5311,
      "fil": 5312,
      "▁war": 5313,
      "▁मेला](./": 5314,
      "▁జాబితా\")": 5315,
      "%28": 5316,
      "▁रहा": 5317,
      "▁పట్టణ": 5318,
      "io": 5319,
      "-t": 5320,
      "▁लेख": 5321,
      "▁ప్రకారం": 5322,
      "-17": 5323,
      "▁वार": 5324,
      "▁ప్రతి": 5325,
      "▁शताब्": 5326,
      "▁ప్రముఖ": 5327,
      "nal": 5328,
      "▁ही": 5329,
      "▁ప్రస్తు": 5330,
      "/india": 5331,
      "▁होत": 5332,
      "▁ప్రాచ": 5333,
      "▁है।[[": 5334,
      "▁ప్రాంతం": 5335,
      "%E0%A4%B": 5336,
      "▁బహు": 5337,
      "2023": 5338,
      "-विज्ञान": 5339,
      "▁బెంగ": 5340,
      "3](./India#CITEREF": 5341,
      "-0-19-8": 5342,
      "▁మన": 5343,
      "-0-19-882": 5344,
      "▁మూ": 5345,
      "কল": 5346,
      "CN": 5347,
      "-0-19-882905": 5348,
      "▁రంగ": 5349,
      "ণিজ্য": 5350,
      "CO": 5351,
      "-0-19-882905-8": 5352,
      "▁రవాణా": 5353,
      "দে": 5354,
      "Uttar": 5355,
      "-1-78": 5356,
      "▁రో": 5357,
      "দ্রা": 5358,
      "](./Doi": 5359,
      "-13": 5360,
      "▁రాజ్యం](./": 5361,
      "দারীকরণ": 5362,
      "](./Doi_(identifier)": 5363,
      "-1-107-111": 5364,
      "▁రెండు": 5365,
      "নৈতিক": 5366,
      "](https://doi.org/10.": 5367,
      "-1-107-11162": 5368,
      "▁వారస": 5369,
      "নির্": 5370,
      "_w": 5371,
      "-1-107-11162-2": 5372,
      "▁విభ": 5373,
      "ন্ডিয়া": 5374,
      "_(India)": 5375,
      "-1-780": 5376,
      "▁వ్యాసం:": 5377,
      "ন্নয়ন": 5378,
      "abad": 5379,
      "-1-78074": 5380,
      "▁సరిహద్దు": 5381,
      "পিডিয়া": 5382,
      "akh": 5383,
      "-1-78074-108": 5384,
      "▁సాధించ": 5385,
      "পেক্ষ": 5386,
      "apit": 5387,
      "-1-78074-108-6": 5388,
      "▁స్వాతంత్ర్య": 5389,
      "বর্ত": 5390,
      "atar": 5391,
      ".s": 5392,
      "-India": 5393,
      "ভৌম": 5394,
      "/A": 5395,
      "ম\")": 5396,
      "chool": 5397,
      "1,": 5398,
      "-national-": 5399,
      "রপেক্ষ": 5400,
      "doi](./Doi_(identifier)": 5401,
      "-national-language": 5402,
      "লিত": 5403,
      "128": 5404,
      ".c": 5405,
      "ার্বভৌম": 5406,
      "eral_": 5407,
      "েয়": 5408,
      "gra": 5409,
      "5,": 5410,
      "ৎস/8": 5411,
      "imalay": 5412,
      "87": 5413,
      ".jpg/330px-": 5414,
      "১২": 5415,
      "ised": 5416,
      "/1": 5417,
      "৫৬": 5418,
      "itary": 5419,
      "](./च": 5420,
      "/f": 5421,
      "map": 5422,
      "05": 5423,
      "ned": 5424,
      "_आ": 5425,
      "003": 5426,
      "▁দ্": 5427,
      "ner": 5428,
      "_देश": 5429,
      "1977": 5430,
      "▁লেখ": 5431,
      "oram": 5432,
      "_व": 5433,
      "1947)": 5434,
      "▁**জাতীয়": 5435,
      "rin": 5436,
      "_का": 5437,
      "2011census": 5438,
      "▁[সং": 5439,
      "rganisation": 5440,
      "_मंदिर": 5441,
      "2011census/": 5442,
      "▁কেন্দ্রশাসিত": 5443,
      "roups": 5444,
      "_मेला?action=edit&redlink=1": 5445,
      "403": 5446,
      "▁চলচ্চিত্র": 5447,
      "407": 5448,
      "▁জয়": 5449,
      "usiness": 5450,
      "bin": 5451,
      "61": 5452,
      "▁জন্য": 5453,
      "y,": 5454,
      "gl": 5455,
      "▁ত্রুটি\"));": 5456,
      "▁Union": 5457,
      "▁বৃদ্ধি": 5458,
      "▁j": 5459,
      "Be": 5460,
      "▁শক্তি": 5461,
      "▁\"Doi": 5462,
      "▁সঙ্গীত": 5463,
      "▁(identifier)\"):[10.": 5464,
      "oriti": 5465,
      "Chenn": 5466,
      "▁সম্পর্ক\")": 5467,
      "▁22": 5468,
      "p?": 5469,
      "Chennai": 5470,
      "▁সাম্রাজ্য\")": 5471,
      "▁BRICS": 5472,
      "ंत": 5473,
      "Del": 5474,
      "▁স্থাপ": 5475,
      "ंग्रेज़ी](./अ": 5476,
      "Delhi": 5477,
      "▁হার": 5478,
      "▁[India": 5479,
      "ईरा": 5480,
      "Ethnologue": 5481,
      "▁২০১৯": 5482,
      "▁[doi](./Doi_(identifier)": 5483,
      "करण": 5484,
      "FOOTNOTENational_Informatics_Centre2005": 5485,
      "%E0%A6%9": 5486,
      "▁[p": 5487,
      "केर": 5488,
      "Go": 5489,
      "%E0%A7%87": 5490,
      "▁ac": 5491,
      "क्षा": 5492,
      "Goa": 5493,
      "▁caste": 5494,
      "गोआ": 5495,
      "Hig": 5496,
      ".php?": 5497,
      "▁east": 5498,
      "छत्तीस": 5499,
      "High": 5500,
      "210": 5501,
      "▁grow": 5502,
      "त्व": 5503,
      "Hindi": 5504,
      "5-0)": 5505,
      "ताज": 5506,
      "7](./India#CITEREF": 5507,
      "देव": 5508,
      "II": 5509,
      "86": 5510,
      "द्वीप": 5511,
      "AsherTalbot2008": 5512,
      "न्दिर": 5513,
      "India_Goa": 5514,
      "Craven": 5515,
      "फल": 5516,
      "JP": 5517,
      "94": 5518,
      "Craven1997": 5519,
      "फ्रीका": 5520,
      "JPG": 5521,
      ":S": 5522,
      "Fisher": 5523,
      "बैक": 5524,
      "PPP": 5525,
      "Fisher2018": 5526,
      "ब्ब": 5527,
      "Taj": 5528,
      "Wik": 5529,
      "र्थव्यवस्था": 5530,
      "Taj_M": 5531,
      "](./বিশেষ:বইয়ের_উৎস/978": 5532,
      "](./The": 5533,
      "र्सिट": 5534,
      "Taj_Ma": 5535,
      "_2": 5536,
      "लयाल": 5537,
      "Taj_Mah": 5538,
      "_যু": 5539,
      "_Island": 5540,
      "वित": 5541,
      "Taj_Mahal_": 5542,
      "_(শনাক্তকারী": 5543,
      "ade": 5544,
      "वेबैक": 5545,
      "Taj_Mahal_in": 5546,
      "_(শনাক্তকারী)": 5547,
      "agar": 5548,
      "श्रीलंका": 5549,
      "Taj_Mahal_in_M": 5550,
      "ainting": 5551,
      "स\")": 5552,
      "Taj_Mahal_in_March": 5553,
      "al_P": 5554,
      "सून": 5555,
      "Taj_Mahal_in_March_": 5556,
      "detail": 5557,
      "स्थ": 5558,
      "Taj_Mahal_in_March_2004": 5559,
      "atsy": 5560,
      "ाद्वीप": 5561,
      "UN": 5562,
      "atsyayan": 5563,
      "िंध": 5564,
      "View": 5565,
      "cture": 5566,
      "िख": 5567,
      "Way": 5568,
      "clop": 5569,
      "िल्ली": 5570,
      "lobal": 5571,
      "cyclop": 5572,
      "िस्ट": 5573,
      "Wayb": 5574,
      "eld": 5575,
      "ीच": 5576,
      "Wayback": 5577,
      "harat": 5578,
      "ूनिवर्सिट": 5579,
      "ource": 5580,
      "ilk": 5581,
      "ैन्य": 5582,
      "po": 5583,
      "induism": 5584,
      "ोर्ड": 5585,
      "](./గో": 5586,
      "terature": 5587,
      "itecture": 5588,
      "](./భారతదేశ": 5589,
      "webcitation.org/6": 5590,
      "line": 5591,
      "▁\"च": 5592,
      "](./మూస:": 5593,
      "ওড়": 5594,
      "ms": 5595,
      "▁\"ल": 5596,
      "](./జమ్మూ": 5597,
      "ওয়": 5598,
      "ooperation": 5599,
      "▁\"पंजाब": 5600,
      "](./జమ్మూ_": 5601,
      "গুজ": 5602,
      "ovember": 5603,
      "▁2014": 5604,
      "](./జమ్మూ_కాశ్మీ": 5605,
      "গুজরা": 5606,
      "ricket": 5607,
      "▁Min": 5608,
      "ঞ্জা": 5609,
      "slam": 5610,
      "▁[*A": 5611,
      "ণিপুর": 5612,
      "tel": 5613,
      "▁[अंग्रेज़ी](./अ": 5614,
      "_వి": 5615,
      "তান্ত্র": 5616,
      "tra": 5617,
      "▁[पंजाब": 5618,
      "_Ar": 5619,
      "তান্ত্রিক": 5620,
      "uis": 5621,
      "_and_S": 5622,
      "ত্ত্ব": 5623,
      "▁emp": 5624,
      "▁अनु": 5625,
      "_కాల": 5626,
      "নো": 5627,
      "▁es": 5628,
      "▁आधिकारिक": 5629,
      "ন্দো": 5630,
      "▁ind": 5631,
      "▁इन": 5632,
      "achin": 5633,
      "পাঞ্জা": 5634,
      "▁ref": 5635,
      "▁उत्पाद": 5636,
      "প্রজাতন্ত্র": 5637,
      "▁und": 5638,
      "▁कई": 5639,
      "বঙ্গ": 5640,
      "▁कश्मीर": 5641,
      "bai": 5642,
      "বৈ": 5643,
      "▁करोड़": 5644,
      "bol": 5645,
      "মহাদেশ": 5646,
      "▁Act": 5647,
      "▁कारण": 5648,
      "cre": 5649,
      "মাই": 5650,
      "▁March": 5651,
      "▁जनगणना": 5652,
      "censusindia.gov.in/": 5653,
      "মাণবিক": 5654,
      "▁National": 5655,
      "▁जिसमें": 5656,
      "censusindia.gov.in/2011census/": 5657,
      "ল\")": 5658,
      "▁Plate": 5659,
      "▁पर्वत": 5660,
      "crease": 5661,
      "লবায়ু": 5662,
      "▁Pro": 5663,
      "▁बीच": 5664,
      "de": 5665,
      "লোকসভা": 5666,
      "▁million": 5667,
      "▁राजनी": 5668,
      "elp": 5669,
      "শনাক্তকারী)\")": 5670,
      "▁modern": 5671,
      "▁सद": 5672,
      "শ্চিমবঙ্গ": 5673,
      "▁period": 5674,
      "▁संस्कृति": 5675,
      "errit": 5676,
      "শ্রে": 5677,
      "▁str": 5678,
      "▁से](http://www.": 5679,
      "erritor": 5680,
      "সংস্কৃত": 5681,
      "%29": 5682,
      "▁होता": 5683,
      "estim": 5684,
      "সামরিক": 5685,
      ",[[": 5686,
      "-in-": 5687,
      "ffairs": 5688,
      "ানে": 5689,
      "-B": 5690,
      "gro": 5691,
      "ানুয়ারি": 5692,
      "-f": 5693,
      "gramm": 5694,
      "ায়ী": 5695,
      "89": 5696,
      "group": 5697,
      "ারমাণবিক": 5698,
      "-lord": 5699,
      "Combin": 5700,
      "্রয়": 5701,
      "1-0)": 5702,
      "hind": 5703,
      "০.": 5704,
      "hous": 5705,
      "১৪": 5706,
      "118": 5707,
      "OL": 5708,
      "how": 5709,
      "২]](./ভারত#cite_note-": 5710,
      "4).": 5711,
      "](./ल": 5712,
      "i-": 5713,
      "৮]](./ভারত#cite_note-": 5714,
      "9-0)": 5715,
      "]](./भारत#cite_note-FOOTNOTESingh2009": 5716,
      "৯৭৮-": 5717,
      "Spear": 5718,
      "]](./भारत#cite_note-FOOTNOTEStein1998": 5719,
      "](./I": 5720,
      "▁su": 5721,
      "](./V": 5722,
      "inistr": 5723,
      "▁রা": 5724,
      "_f": 5725,
      "▁(শনাক্তকারী)\")": 5726,
      "_BRICS": 5727,
      "ambr": 5728,
      "▁(১৯৯": 5729,
      "_Sh": 5730,
      "_of_the": 5731,
      "bh": 5732,
      "kr": 5733,
      "▁Pp.": 5734,
      "ace": 5735,
      "krit": 5736,
      "▁Pub": 5737,
      "ahar": 5738,
      "loc": 5739,
      "▁[চ": 5740,
      "adh": 5741,
      "mission": 5742,
      "▁[সা": 5743,
      "▁[৯৭৮-": 5744,
      "arh": 5745,
      "kno": 5746,
      "▁`{{বই": 5747,
      "athak": 5748,
      "ommission": 5749,
      "▁উত্তর": 5750,
      "atsyayan-lord": 5751,
      "ress,": 5752,
      "ourc": 5753,
      "▁উৎস/978": 5754,
      "be": 5755,
      "▁তার": 5756,
      "bruary": 5757,
      "versi": 5758,
      "▁দি": 5759,
      "cod": 5760,
      "ंडी": 5761,
      "pro": 5762,
      "▁না": 5763,
      "cri": 5764,
      "ंडीगढ़": 5765,
      "▁নির্": 5766,
      "ebruary": 5767,
      "काश": 5768,
      "▁পর্বতম": 5769,
      "ele": 5770,
      "क्षर": 5771,
      "religion": 5772,
      "▁ফুটবল": 5773,
      "ehru": 5774,
      "गणराज्य": 5775,
      "rogramm": 5776,
      "▁ফে": 5777,
      "embly": 5778,
      "जम्मू": 5779,
      "▁বছ": 5780,
      "epublic": 5781,
      "जनसंख्या": 5782,
      "skrit": 5783,
      "▁ব্য": 5784,
      "hy": 5785,
      "त्तराखण्ड": 5786,
      "▁ভাষায়": 5787,
      "ious": 5788,
      "पि": 5789,
      "▁মু": 5790,
      "ildlife": 5791,
      "भ्यता": 5792,
      "umbai": 5793,
      "▁সু": 5794,
      "indust": 5795,
      "मर": 5796,
      "▁সময়": 5797,
      "मो": 5798,
      "wit": 5799,
      "▁সামরিক": 5800,
      "lations": 5801,
      "यर": 5802,
      "ంస్కృ": 5803,
      "र्ज": 5804,
      "ంకే": 5805,
      "2012": 5806,
      "omin": 5807,
      "लग": 5808,
      "ంకేతి": 5809,
      "rim": 5810,
      "लों": 5811,
      "ంగో": 5812,
      "ublishing": 5813,
      "वल": 5814,
      "ంగాణ": 5815,
      "ung": 5816,
      "श्र": 5817,
      "ండా": 5818,
      "AJ&pg=PA": 5819,
      "vatsyayan-lord": 5820,
      "षाण": 5821,
      "ండీ": 5822,
      "▁(19": 5823,
      "हिमाचल": 5824,
      "ండ్య": 5825,
      "St": 5826,
      "▁*The": 5827,
      "ालदीव": 5828,
      "ండమాన్": 5829,
      "▁14": 5830,
      "िम": 5831,
      "ండిచ్చేరి": 5832,
      "_মেশিন": 5833,
      "▁Bengal": 5834,
      "िक्किम": 5835,
      "ండోనే": 5836,
      "ama": 5837,
      "▁Buddh": 5838,
      "ेशन": 5839,
      "ఆగష్టు": 5840,
      "annica": 5841,
      "▁Constitution": 5842,
      "ेशिया": 5843,
      "ఉత్తరా": 5844,
      "▁January": 5845,
      "ॉक": 5846,
      "కాలు": 5847,
      "▁Main": 5848,
      "्ले": 5849,
      "కాతా": 5850,
      "archive.org/detail": 5851,
      "▁Sanskrit": 5852,
      "▁ओ": 5853,
      "కుంట": 5854,
      "archive.org/details/": 5855,
      "▁War": 5856,
      "▁ध": 5857,
      "కోవ": 5858,
      "brary": 5859,
      "▁[V": 5860,
      "▁\"ग": 5861,
      "క్కి": 5862,
      "c.": 5863,
      "▁art": 5864,
      "▁\"हिन्दी\")": 5865,
      "క్స్": 5866,
      "edition": 5867,
      "▁classical": 5868,
      "▁Cambridge": 5869,
      "క్షరా": 5870,
      "ener": 5871,
      "▁later": 5872,
      "▁Uni": 5873,
      "క్షరాస్య": 5874,
      "▁one": 5875,
      "▁[वि": 5876,
      "క్షరాస్యత": 5877,
      "ffi": 5878,
      "▁such": 5879,
      "▁अप्रैल": 5880,
      "ఖో": 5881,
      "logo": 5882,
      "▁there": 5883,
      "▁कु": 5884,
      "గుప్": 5885,
      "▁क्षेत्रीय": 5886,
      "ఘాలయ": 5887,
      "ohn": 5888,
      "1]](./India#cite_note-FOOTNOTE": 5889,
      "▁जी": 5890,
      "చ్": 5891,
      "1990": 5892,
      "▁जनसंख्या": 5893,
      "జనపద": 5894,
      "tent": 5895,
      "2).": 5896,
      "▁दशक": 5897,
      "జనవరి": 5898,
      "3]](./India#cite_note-FOOTNOTE": 5899,
      "▁दि": 5900,
      "జీరియా": 5901,
      "উইকি": 5902,
      "4-0)": 5903,
      "▁धर्म\")": 5904,
      "జ్‌": 5905,
      "ওয়েব্যাক_মেশিন": 5906,
      "7).": 5907,
      "▁परि": 5908,
      "జ్‌మహ": 5909,
      "ঘল": 5910,
      "▁पुरा": 5911,
      "జ్‌మహల్": 5912,
      "চিত্র্য": 5913,
      "C).": 5914,
      "▁मध्य": 5915,
      "టర్": 5916,
      "ছে।": 5917,
      "Pakistan": 5918,
      "▁महासागर": 5919,
      "టై": 5920,
      "জয়": 5921,
      "_%28": 5922,
      "▁राज्य\")": 5923,
      "టాక్": 5924,
      "ড়ে": 5925,
      "ake": 5926,
      "▁लोग": 5927,
      "టిబెట్": 5928,
      "তা\")": 5929,
      "aksh": 5930,
      "▁लेख:": 5931,
      "డఖ్": 5932,
      "ন্ধী": 5933,
      "ald": 5934,
      "▁वर्ग": 5935,
      "డమ్": 5936,
      "ফ্র": 5937,
      "andard": 5938,
      "▁शक्ति": 5939,
      "డామన్": 5940,
      "বিদ্য": 5941,
      "atak": 5942,
      "▁शिक्षा": 5943,
      "ణంగా": 5944,
      "ম্পানি": 5945,
      "cord": 5946,
      "▁शताब्दी": 5947,
      "ణే": 5948,
      "যায়ী": 5949,
      "conomy_of_": 5950,
      "▁सूचना": 5951,
      "ణిపూ": 5952,
      "য়ো": 5953,
      "econd": 5954,
      "▁स्थित": 5955,
      "తెల": 5956,
      "র্ণ": 5957,
      "eds.": 5958,
      "▁२०१": 5959,
      "తే": 5960,
      "লকা": 5961,
      "epal": 5962,
      "తం?action=edit&redlink=1": 5963,
      "শক্তি": 5964,
      "hat": 5965,
      "-201": 5966,
      "తాజ్‌మహల్": 5967,
      "শ্রেণী": 5968,
      "i\")": 5969,
      "తెలంగాణ": 5970,
      "সলা": 5971,
      "iev": 5972,
      "త్వా": 5973,
      "সূ": 5974,
      "ij": 5975,
      "త్తీస్": 5976,
      "সংখ্যান": 5977,
      "ical_": 5978,
      "త్రిక": 5979,
      "সিটি": 5980,
      "ict": 5981,
      "త్రిపు": 5982,
      "স্বাধীনতা": 5983,
      "ins": 5984,
      "73": 5985,
      "త్రిపుర": 5986,
      "াড়া": 5987,
      "దరంగ": 5988,
      "ালি": 5989,
      "ministr": 5990,
      "Con": 5991,
      "ద్యు": 5992,
      "ে](./ওয়েব্যাক_মেশিন": 5993,
      "ncyclop": 5994,
      "ద్వీప్": 5995,
      "্রয়ক্ষমতা": 5996,
      "olle": 5997,
      "ధార": 5998,
      "৩]](./ভারত#cite_note-": 5999,
      "one": 6000,
      "_9": 6001,
      "ధు": 6002,
      "৫০": 6003,
      "owland": 6004,
      "_राज": 6005,
      "నంద": 6006,
      "৭]](./ভারত#cite_note-": 6007,
      "ria": 6008,
      "నో": 6009,
      "▁ঐ": 6010,
      "right": 6011,
      "cat": 6012,
      "నాథ": 6013,
      "▁দ্বীপ": 6014,
      "reat": 6015,
      "నాగాలా": 6016,
      "rits": 6017,
      "నాగాలాండ్": 6018,
      "▁\"ওয়েব্যাক": 6019,
      "uction": 6020,
      "eport": 6021,
      "నికోబ": 6022,
      "▁(পিডিএফ)।": 6023,
      "ultan": 6024,
      "నికోబార్": 6025,
      "▁As": 6026,
      "▁ci": 6027,
      "imag": 6028,
      "న్నై": 6029,
      "▁(PDF).": 6030,
      "పాండిచ్చేరి": 6031,
      "▁28": 6032,
      "పాండ్య": 6033,
      "▁[ওয়েব্যাক": 6034,
      "▁2018](./India#CITEREF": 6035,
      "పాకిస్థాన్": 6036,
      "▁[আর্কাইভকৃত](https://www.": 6037,
      "▁Indus": 6038,
      "versity": 6039,
      "ప్పటిక": 6040,
      "▁[মু": 6041,
      "▁[*The": 6042,
      "गत": 6043,
      "ప్రిల్": 6044,
      "▁আইন": 6045,
      "▁co": 6046,
      "गू": 6047,
      "బడ్డీ": 6048,
      "▁গঠ": 6049,
      "▁mathe": 6050,
      "ज्ज": 6051,
      "బియా": 6052,
      "▁দক্ষিণ": 6053,
      "▁national": 6054,
      "तृत": 6055,
      "భారతదేశ_రాష్ట్రాలు,_కేంద్రపాలిత_ప్రాంత": 6056,
      "▁দেখ": 6057,
      "▁northern": 6058,
      "तमिलनाडु": 6059,
      "మిజోరా": 6060,
      "▁দেশের": 6061,
      "▁se": 6062,
      "नगर": 6063,
      "మెరికా": 6064,
      "▁পাত": 6065,
      "▁south": 6066,
      "पूर्": 6067,
      "యె": 6068,
      "▁প্রজাতন্ত্র": 6069,
      "▁than": 6070,
      "परमाणु": 6071,
      "య్యూ": 6072,
      "▁প্রথম": 6073,
      "▁who": 6074,
      "पुरी": 6075,
      "రాన్": 6076,
      "▁ফলে": 6077,
      "-to-": 6078,
      "भारत)": 6079,
      "రేబియా": 6080,
      "▁ব্যবস্থা": 6081,
      ".[[2": 6082,
      "महाद्वीप": 6083,
      "ర్యానా": 6084,
      "▁ব্যবস্থা\")": 6085,
      "श्य": 6086,
      "లడఖ్": 6087,
      "▁মেশিন\")": 6088,
      "2-0)": 6089,
      "षय": 6090,
      "లక్షద్వీప్": 6091,
      "▁মেশিনে](./ওয়েব্যাক_মেশিন": 6092,
      "2000": 6093,
      "हरा": 6094,
      "లియా": 6095,
      "▁শি": 6096,
      "हित": 6097,
      "లీ,": 6098,
      "▁সহ": 6099,
      "हाय": 6100,
      "లేషియా": 6101,
      "▁সংবিধান": 6102,
      "6-2": 6103,
      "ांग्लादेश": 6104,
      "ల్లవ": 6105,
      "▁সাহিত্য": 6106,
      "79": 6107,
      "ानव": 6108,
      "ళా": 6109,
      "▁হিন্দ": 6110,
      "Dikshit": 6111,
      "िनेमा": 6112,
      "ళి": 6113,
      "-M": 6114,
      "DikshitS": 6115,
      "ियार": 6116,
      "వాద": 6117,
      ".gov/": 6118,
      "DikshitSchwartzberg": 6119,
      "ी.": 6120,
      "విధ": 6121,
      "/)।": 6122,
      "European": 6123,
      "ी](./द": 6124,
      "వెను": 6125,
      "/S": 6126,
      "Ins": 6127,
      "ी](./म": 6128,
      "వేలీ,": 6129,
      "/index": 6130,
      "Indones": 6131,
      "ृद्ध": 6132,
      "శు": 6133,
      "ale": 6134,
      "ेघ": 6135,
      "సింది.": 6136,
      "ammu": 6137,
      "ेली": 6138,
      "స్ట": 6139,
      "amp": 6140,
      "ोलन": 6141,
      "స్వాతంత్ర్య": 6142,
      "arna": 6143,
      "्यों": 6144,
      "హించ": 6145,
      "216": 6146,
      "्वतंत्रता": 6147,
      "హాయం:": 6148,
      "ast_Asia": 6149,
      "ాంగ": 6150,
      "D%E0%A6%B": 6151,
      "ారస్వ": 6152,
      "_ব্যবস্থা": 6153,
      "can": 6154,
      "ార్ఖండ్": 6155,
      "ాలె": 6156,
      "eth": 6157,
      "▁(*": 6158,
      "ీర్ణ": 6159,
      "eds.).": 6160,
      "▁12": 6161,
      "ీకరణ": 6162,
      "eligion": 6163,
      "ులు?action=edit&redlink=1": 6164,
      "anth": 6165,
      "entr": 6166,
      "ూచి": 6167,
      "bn.wik": 6168,
      "esearch": 6169,
      "▁2016": 6170,
      "ెట్రో": 6171,
      "brit": 6172,
      "▁En": 6173,
      "ెన్నై": 6174,
      "olk": 6175,
      "▁Press,": 6176,
      "ెలవుదిన": 6177,
      "olitics": 6178,
      "ేఘాలయ": 6179,
      "citation}}`:": 6180,
      "osed": 6181,
      "▁[ग": 6182,
      "ేరళ": 6183,
      "day": 6184,
      "ould": 6185,
      "▁[हिन्दी](./हिन्दी": 6186,
      "ైనిక": 6187,
      "rac": 6188,
      "▁अव": 6189,
      "ోర": 6190,
      "ross": 6191,
      "▁उन": 6192,
      "ోళ": 6193,
      "fe": 6194,
      "teen": 6195,
      "▁चुनावों": 6196,
      "ోల్‌": 6197,
      "war": 6198,
      "▁जाती": 6199,
      "ోల్‌కాతా": 6200,
      "▁industry": 6201,
      "▁था।": 6202,
      "ౌకర్య": 6203,
      "▁ro": 6204,
      "▁पहले": 6205,
      "్రామ": 6206,
      "▁(eds.).": 6207,
      "▁प्रेस": 6208,
      "్రిటిష్": 6209,
      "▁(PDF)": 6210,
      "▁प्रौद्योगिक": 6211,
      "్రైస్త": 6212,
      "search": 6213,
      "▁प्राचीन": 6214,
      "–సా.శ.17": 6215,
      "▁English": 6216,
      "▁राजवंश": 6217,
      "webcitation.org/6174": 6218,
      "▁February": 6219,
      "▁लोक": 6220,
      "উত্তর-পূর্ব": 6221,
      "▁India:": 6222,
      "▁व्य": 6223,
      "এল": 6224,
      "▁Kashmir": 6225,
      "▁शु": 6226,
      "▁ఐ": 6227,
      "ক্ষেত্রে": 6228,
      "▁among": 6229,
      "▁सक": 6230,
      "▁ఖ": 6231,
      "খণ্ড": 6232,
      "▁app": 6233,
      "▁सैन्य": 6234,
      "▁జా": 6235,
      "ট:": 6236,
      "▁ear": 6237,
      "▁संसद": 6238,
      "▁దినోత్స": 6239,
      "ডার": 6240,
      "▁increas": 6241,
      "▁स्था": 6242,
      "ডিও": 6243,
      "▁large": 6244,
      "▁स्थान": 6245,
      "▁\"[": 6246,
      "ডিপি": 6247,
      "▁long": 6248,
      "▁\"గో": 6249,
      "ত্ব": 6250,
      "▁many": 6251,
      "*)": 6252,
      "▁\"మూస:": 6253,
      "তিহ": 6254,
      "▁people": 6255,
      "▁\"జమ్మూ": 6256,
      "তিহ্য": 6257,
      "▁rule": 6258,
      "▁(సా.శ.6": 6259,
      "দেশিক": 6260,
      "▁religion": 6261,
      ".org/wiki/": 6262,
      "▁(సా.శ.13": 6263,
      "নু": 6264,
      "▁sp": 6265,
      "2/": 6266,
      "▁(సా.శ.16": 6267,
      "নিভার": 6268,
      "71": 6269,
      "▁2017": 6270,
      "নিভার্": 6271,
      "▁Census": 6272,
      "নিভার্সিটি": 6273,
      ",000": 6274,
      "▁Commission": 6275,
      "ন্দাম": 6276,
      "-20": 6277,
      "GD": 6278,
      "▁December": 6279,
      "ন্দামান": 6280,
      "-re": 6281,
      "পুঞ্জ": 6282,
      "-14": 6283,
      "Indian_": 6284,
      "▁Population": 6285,
      "প্লব": 6286,
      "](./न": 6287,
      "বহন": 6288,
      "1).": 6289,
      "](./पाकिस्तान": 6290,
      "বেক্ষণ": 6291,
      "1-0": 6292,
      "](./भारत_के": 6293,
      "▁[గో": 6294,
      "বেঙ্গ": 6295,
      "](https://web.archive.org/web/200": 6296,
      "▁[ఢిల్లీ](./ఢిల్లీ": 6297,
      "যোগ্য": 6298,
      "2019": 6299,
      "▁[మధ్య": 6300,
      "র_": 6301,
      "6]](./India#cite_note-": 6302,
      "▁original](http://www.": 6303,
      "রেখ": 6304,
      "Empire": 6305,
      "_घ": 6306,
      "▁అభి": 6307,
      "শু": 6308,
      "_for": 6309,
      "_और_संघ": 6310,
      "▁ఇండియా": 6311,
      "ালদ্বীপ": 6312,
      "_Summit": 6313,
      "_की_": 6314,
      "▁ఉంట": 6315,
      "ীমা": 6316,
      "_in_South_Asia": 6317,
      "_के_आधार_पर_भारत_के_राज्यों_की_सूची": 6318,
      "▁ఉత్తర": 6319,
      "ুরো": 6320,
      "a.": 6321,
      "▁ఉపఖండ": 6322,
      "েক": 6323,
      "abh": 6324,
      "▁కే": 6325,
      "ৈন": 6326,
      "▁కోర్": 6327,
      "োষ": 6328,
      "ankar": 6329,
      "▁కాంగ్రెసు": 6330,
      "্প্র": 6331,
      "arket": 6332,
      "busines": 6333,
      "▁గు": 6334,
      "্বে": 6335,
      "ast_Asia_Summit": 6336,
      "den": 6337,
      "▁చిత్ర": 6338,
      "্রিস্ট": 6339,
      "▁జన": 6340,
      "্রুপ": 6341,
      "ependence": 6342,
      "▁తరువాత": 6343,
      "৫১": 6344,
      "ependent": 6345,
      "gni": 6346,
      "▁దేశంలోని": 6347,
      "ervation": 6348,
      "india-": 6349,
      "▁నడిప": 6350,
      "esti": 6351,
      "istic": 6352,
      "▁పండు": 6353,
      "orities": 6354,
      "▁పర": 6355,
      "her": 6356,
      "▁పాకిస్తాన్": 6357,
      "hola": 6358,
      "ंति": 6359,
      "▁ప్రజా": 6360,
      "▁৮": 6361,
      "i_language": 6362,
      "ंगाना": 6363,
      "▁ప్రదేశ్](./": 6364,
      "ilg": 6365,
      "ंग्रेज़ी_भाषा": 6366,
      "▁ప్రపంచంలో": 6367,
      "ंडोन": 6368,
      "▁భారతదేశానికి": 6369,
      "▁K.": 6370,
      "ineering": 6371,
      "ंध्र": 6372,
      "▁మాత్ర": 6373,
      "▁Lon": 6374,
      "ipur": 6375,
      "अभि": 6376,
      "▁మొదల": 6377,
      "▁Po": 6378,
      "ives": 6379,
      "अभिज्ञ": 6380,
      "▁రూప": 6381,
      "kar": 6382,
      "अभिज्ञाप": 6383,
      "▁రాష్ట్రపతి": 6384,
      "▁`{{citation}}`:": 6385,
      "key": 6386,
      "अभिज्ञापक": 6387,
      "▁రైల్వే": 6388,
      "▁`|acces": 6389,
      "loy": 6390,
      "क्": 6391,
      "▁వంట": 6392,
      "mund": 6393,
      "काता": 6394,
      "▁వె": 6395,
      "▁অর্থনীতি": 6396,
      "nam": 6397,
      "क्सफ": 6398,
      "▁వివిధ": 6399,
      "▁আদালত": 6400,
      "othermund": 6401,
      "क्सफोर्ड": 6402,
      "▁సముద్ర": 6403,
      "▁আন্তর্জাতিক": 6404,
      "ritannica": 6405,
      "खन": 6406,
      "▁సూచ": 6407,
      "▁উদ্": 6408,
      "time": 6409,
      "खा": 6410,
      "▁సౌకర్య": 6411,
      "▁উৎ": 6412,
      "utt": 6413,
      "गान": 6414,
      "▁సంఘ": 6415,
      "▁কংগ্রেস": 6416,
      "ujarat": 6417,
      "ग्व": 6418,
      "▁సామా": 6419,
      "▁কাপ": 6420,
      "ument": 6421,
      "च्": 6422,
      "\")\"": 6423,
      "▁খেলা": 6424,
      "चेन्न": 6425,
      "▁জানুয়ারি": 6426,
      "yer": 6427,
      "चेन्नई": 6428,
      "▁দশ": 6429,
      "ynast": 6430,
      "च्छ": 6431,
      ",9": 6432,
      "▁দু": 6433,
      "▁\"India": 6434,
      "छत्तीसगढ़": 6435,
      "▁নির্বা": 6436,
      "▁\"Indo-": 6437,
      "जं": 6438,
      "▁পরমাণু": 6439,
      "झारखंड": 6440,
      ".b": 6441,
      "▁পরী": 6442,
      "▁29": 6443,
      "टान": 6444,
      ".gov.in": 6445,
      "▁প্রাচীন": 6446,
      "▁2025.": 6447,
      "णिपुर": 6448,
      "▁বছর": 6449,
      "▁Afric": 6450,
      "तेलंगाना": 6451,
      "▁বিস্ত": 6452,
      "▁Arab": 6453,
      "तेलुगू": 6454,
      "1200–సా.శ.పూ.": 6455,
      "▁মান": 6456,
      "▁economic": 6457,
      "त्रिपुरा": 6458,
      "1948": 6459,
      "▁যদি": 6460,
      "▁states": 6461,
      "थिल": 6462,
      "1960": 6463,
      "▁যুক্ত": 6464,
      "▁under": 6465,
      "दार": 6466,
      "1962": 6467,
      "▁লেখা": 6468,
      "\"](https://books.google.com/books?id=": 6469,
      "पीठ": 6470,
      "▁শাস": 6471,
      "-25": 6472,
      "पुरम": 6473,
      "2]](./భారతదేశం#cite_note-": 6474,
      "▁সি": 6475,
      "-317": 6476,
      "बेट": 6477,
      "20)": 6478,
      "▁সংরক্ষণ": 6479,
      "ब्ल": 6480,
      "20.": 6481,
      "▁সাধারণ": 6482,
      "बंधन": 6483,
      "23)": 6484,
      "▁১৭": 6485,
      "2017": 6486,
      "बेटका": 6487,
      "498": 6488,
      "%)": 6489,
      "6_": 6490,
      "ब्बत": 6491,
      "84": 6492,
      "भु": 6493,
      "500": 6494,
      "भीमबेटका": 6495,
      "मु": 6496,
      "यत": 6497,
      "50–సా.శ.1": 6498,
      "-ভারত": 6499,
      "EditPage/T": 6500,
      "रत": 6501,
      "6/": 6502,
      "-19-56": 6503,
      "EditPage/Template:": 6504,
      "रक्षा": 6505,
      ".htm)": 6506,
      "South_Asian_": 6507,
      "राम": 6508,
      ".org": 6509,
      "Spear1990": 6510,
      "वास": 6511,
      "Census": 6512,
      ".svg": 6513,
      "Special:EditPage/Template:": 6514,
      "हरिया": 6515,
      "Court": 6516,
      "/ভারত": 6517,
      "ाम": 6518,
      "Hom": 6519,
      "107": 6520,
      "_3": 6521,
      "िंधु": 6522,
      "Hum": 6523,
      "10.10": 6524,
      "_W": 6525,
      "िशा": 6526,
      "Human": 6527,
      "ao": 6528,
      "ूर्वी": 6529,
      "Increase": 6530,
      "ेड": 6531,
      "ainism": 6532,
      "ैंक": 6533,
      "Ministry": 6534,
      "ally": 6535,
      "ैथिल": 6536,
      "PC": 6537,
      "arnatak": 6538,
      "ॉंग्रेस": 6539,
      "Times": 6540,
      "bi": 6541,
      "ॉल": 6542,
      "Template": 6543,
      "ोस": 6544,
      "Wol": 6545,
      "fgh": 6546,
      "ोलकाता": 6547,
      "Wolper": 6548,
      "EX": 6549,
      "fghan": 6550,
      "ौसेना": 6551,
      "Wolpert": 6552,
      "LO": 6553,
      "fore": 6554,
      "१८": 6555,
      "\\_": 6556,
      "PK:": 6557,
      "२००": 6558,
      "](./భారతదేశ_": 6559,
      "](https://bn.wik": 6560,
      "iles": 6561,
      "▁$": 6562,
      "](./మూస": 6563,
      "](https://d": 6564,
      "ility": 6565,
      "▁Official": 6566,
      "](./వర్గం:Harv": 6567,
      "_ইতিহাস": 6568,
      "inance": 6569,
      "](./హ": 6570,
      "ivision": 6571,
      "▁·": 6572,
      "](./భారతదేశం#CITEREF": 6573,
      "alog": 6574,
      "k:": 6575,
      "▁ईसा": 6576,
      "](./భారతీయ_": 6577,
      "lor": 6578,
      "▁\"दक्षिण": 6579,
      "](./మధ్య": 6580,
      "ligence": 6581,
      "▁\"पाकिस्तान": 6582,
      "](./మూస_చ": 6583,
      "▁\"अंग्रेज़ी": 6584,
      "](./మూస_చర్చ:": 6585,
      "atalog": 6586,
      "oy": 6587,
      "▁(2018": 6588,
      "](./వర్గం:Harv_and_S": 6589,
      "content": 6590,
      "olution": 6591,
      "](./వర్గం:Harv_and_Sfn": 6592,
      "e.": 6593,
      "omas": 6594,
      "▁2004": 6595,
      "](./వర్గం:Harv_and_Sfn_": 6596,
      "ey": 6597,
      "oot": 6598,
      "](./వర్గం:Harv_and_Sfn_templ": 6599,
      "overe": 6600,
      "▁Language": 6601,
      "](./వర్గం:Harv_and_Sfn_template_": 6602,
      "ras": 6603,
      "▁[ड": 6604,
      "](./వర్గం:Harv_and_Sfn_template_errors": 6605,
      "rough": 6606,
      "▁[दक्षिण": 6607,
      "tar": 6608,
      "▁[पाकिस्तान": 6609,
      "_New": 6610,
      "telligence": 6611,
      "▁[ल": 6612,
      "_అ": 6613,
      "ula": 6614,
      "▁[सा": 6615,
      "_ఎ": 6616,
      "month": 6617,
      "ulke": 6618,
      "▁[*India": 6619,
      "_రాజ": 6620,
      "urton": 6621,
      "▁[अंग्रेज़ी](./अंग्रेज़ी_भाषा": 6622,
      "_శాస్త్ర": 6623,
      "wal": 6624,
      "▁अन्त": 6625,
      "_సంగీతం": 6626,
      "▁'": 6627,
      "▁आर्थिक": 6628,
      "actb": 6629,
      "▁em": 6630,
      "▁ओर": 6631,
      "actbook": 6632,
      "▁other": 6633,
      "▁कुछ": 6634,
      "▁out": 6635,
      "▁क्षेत्रों": 6636,
      "arget": 6637,
      "▁\"Oxford": 6638,
      "▁देश\")": 6639,
      "▁27": 6640,
      "▁नव": 6641,
      "ce/": 6642,
      "▁Ac": 6643,
      "▁निर्माण": 6644,
      "du": 6645,
      "উরি": 6646,
      "▁Bank": 6647,
      "▁नेतृत": 6648,
      "e\")": 6649,
      "উরিটি": 6650,
      "▁British": 6651,
      "▁पुरालेखित।,": 6652,
      "e](./ప్రత్యేక:EditPage/మూస:": 6653,
      "ক্রা": 6654,
      "▁बहुत": 6655,
      "কাধিক": 6656,
      "▁Man": 6657,
      "▁भारत\")": 6658,
      "ernment": 6659,
      "কেন্দ্রশাসিত_অঞ্চল": 6660,
      "▁Nadu": 6661,
      "▁मो": 6662,
      "খ্য": 6663,
      "▁Talbot": 6664,
      "▁मौ": 6665,
      "f.": 6666,
      "খ্যা": 6667,
      "▁[\"India": 6668,
      "▁मानसून": 6669,
      "খ্রিস্ট": 6670,
      "▁[Stein": 6671,
      "▁मेला\"),": 6672,
      "ঙ্গীত": 6673,
      "▁article": 6674,
      "▁युग": 6675,
      "ছাড়া": 6676,
      "▁high": 6677,
      "▁राज्यक्षेत्र": 6678,
      "help](./వర్గం:Harv_and_Sfn_template_errors": 6679,
      "জাতিসংঘ": 6680,
      "▁ins": 6681,
      "▁विदेश": 6682,
      "ii": 6683,
      "টেলি": 6684,
      "▁maj": 6685,
      "▁विस्त": 6686,
      "ic.in)": 6687,
      "ট্রফ": 6688,
      "▁original](https://www.": 6689,
      "▁सम्": 6690,
      "ট্রফি": 6691,
      "▁produc": 6692,
      "▁साल": 6693,
      "তাকা": 6694,
      "▁rep": 6695,
      "▁स्वतंत्रता": 6696,
      "km": 6697,
      "তাজ": 6698,
      "▁social": 6699,
      "%E0%A4%A": 6700,
      "km2": 6701,
      "তিতে": 6702,
      "-4\").": 6703,
      "-of": 6704,
      "তেলু": 6705,
      "তেলুগু": 6706,
      "/India": 6707,
      "minal)": 6708,
      "নের": 6709,
      "/P": 6710,
      "20]](./भारत#cite_note-": 6711,
      "nominal)": 6712,
      "নাবাহিনী": 6713,
      "6-0)": 6714,
      "ofile": 6715,
      "পরিসংখ্যান": 6716,
      "7-0)": 6717,
      "3),": 6718,
      "ources/": 6719,
      "পাদ": 6720,
      "প্রিল": 6721,
      "Ary": 6722,
      "produ": 6723,
      "ব্য": 6724,
      "9,": 6725,
      "s18": 6726,
      "বেক্ষণ:": 6727,
      "MetcalfMetcalf2006),": 6728,
      "IM": 6729,
      "t-": 6730,
      "ভুট": 6731,
      "UCN": 6732,
      "t](./మూస_చర్చ:": 6733,
      "ভরশীল": 6734,
      "](./History": 6735,
      "Po": 6736,
      "them": 6737,
      "ম্ম": 6738,
      "](./Special:BookSources/978-0": 6739,
      "\\*": 6740,
      "ম্‌": 6741,
      "_V": 6742,
      "](./दक्षिण": 6743,
      "ম্বই": 6744,
      "aus": 6745,
      "](./भारत_के_राज्य": 6746,
      "ম্মু": 6747,
      "az": 6748,
      "v](./మూస:": 6749,
      "রক্ষ": 6750,
      "ances": 6751,
      "y_": 6752,
      "রেন্দ্র": 6753,
      "arliamentary": 6754,
      "ం**": 6755,
      "লিং": 6756,
      "ced": 6757,
      "_इ": 6758,
      "ం\").": 6759,
      "শাক": 6760,
      "election": 6761,
      "_धर्म": 6762,
      "ం](./అ": 6763,
      "শিখ": 6764,
      "emple": 6765,
      "_श": 6766,
      "ం](./క": 6767,
      "ষি": 6768,
      "_(भारत)": 6769,
      "ంచింది.": 6770,
      "সাবে": 6771,
      "fghanistan": 6772,
      "_के_अन": 6773,
      "ండీగఢ్": 6774,
      "স্থান": 6775,
      "ix": 6776,
      "_के_अनुसार": 6777,
      "ంపిక్": 6778,
      "াবেক্ষণ:": 6779,
      "iction": 6780,
      "_से": 6781,
      "ంబంధ": 6782,
      "ারাঠ": 6783,
      "ights": 6784,
      "_साम्राज्य": 6785,
      "ంస్కృతం": 6786,
      "িতা": 6787,
      "istrar": 6788,
      "ఒలి": 6789,
      "িকিউরিটি": 6790,
      "ization": 6791,
      "కూ": 6792,
      "িয়ন্ত্র": 6793,
      "nic.in/": 6794,
      "ce_": 6795,
      "క్ర": 6796,
      "ৃষ্": 6797,
      "oon": 6798,
      "e-": 6799,
      "కుప": 6800,
      "েন": 6801,
      "occ": 6802,
      "కుపచ్చ": 6803,
      "েরি": 6804,
      "oral": 6805,
      "క్తి": 6806,
      "োদী": 6807,
      "own": 6808,
      "గం": 6809,
      "োশাক": 6810,
      "ped": 6811,
      "గతి": 6812,
      "ৌদ্ধ": 6813,
      "rup": 6814,
      "గ్ర": 6815,
      "ৌর": 6816,
      "riculture": 6817,
      "గా,": 6818,
      "০]](./ভারত#cite_note-": 6819,
      "trol": 6820,
      "గువ": 6821,
      "১৫": 6822,
      "tud": 6823,
      "opl": 6824,
      "గుప్త": 6825,
      "১৯-": 6826,
      "ura": 6827,
      "చుగ": 6828,
      "urban": 6829,
      "జు": 6830,
      "uslim": 6831,
      "జనగణ": 6832,
      "▁en": 6833,
      "w/": 6834,
      "జ్ఞ": 6835,
      "▁[ফ": 6836,
      "▁occ": 6837,
      "జ్ఞాన": 6838,
      "▁[শ": 6839,
      "ंग्रेजी": 6840,
      "టం": 6841,
      "▁`{{ওয়েব": 6842,
      "▁\"History": 6843,
      "उप": 6844,
      "టన్": 6845,
      "▁অতি": 6846,
      "▁\"Special:BookSources/978-0": 6847,
      "एन": 6848,
      "ట్లు": 6849,
      "▁অবস্থিত": 6850,
      "क्षरता": 6851,
      "డియా": 6852,
      "▁উল্লেখযোগ্য": 6853,
      "▁2020": 6854,
      "गलुरु": 6855,
      "తరం": 6856,
      "▁এছাড়া": 6857,
      "▁2006](./India#CITEREFMetcalfMetcalf2006),": 6858,
      "टना": 6859,
      "తాక": 6860,
      "▁এটি": 6861,
      "▁CE": 6862,
      "ड़िया": 6863,
      "తి](./": 6864,
      "▁এপ্রিল": 6865,
      "तन": 6866,
      "దావరి": 6867,
      "▁করতে": 6868,
      "▁Cons": 6869,
      "ताजमह": 6870,
      "దేశాలు": 6871,
      "▁তথ্য": 6872,
      "त्तरी": 6873,
      "ధీనంలో": 6874,
      "▁দল": 6875,
      "धुनिक": 6876,
      "నాట": 6877,
      "▁দেশে": 6878,
      "▁Empire\")": 6879,
      "नागर": 6880,
      "నాయక": 6881,
      "▁নৃত্য": 6882,
      "▁India\").": 6883,
      "पार": 6884,
      "నుమలు": 6885,
      "▁প্রতীক": 6886,
      "▁India.": 6887,
      "भग": 6888,
      "భారతదేశ_రాష్ట్రాలు,_కేంద్రపాలిత_ప్రాంతాలు": 6889,
      "▁বাণিজ্য": 6890,
      "▁Pakistan": 6891,
      "भाई": 6892,
      "మ్య": 6893,
      "▁বিজ্ঞান": 6894,
      "▁SAARC": 6895,
      "भाज": 6896,
      "మాన": 6897,
      "▁যদিও": 6898,
      "▁[3": 6899,
      "मरी": 6900,
      "మాబాద్": 6901,
      "▁সর্বা": 6902,
      "▁[United": 6903,
      "म्भ": 6904,
      "మించ": 6905,
      "▁স্ব": 6906,
      "▁[978-0": 6907,
      "रि": 6908,
      "ముంబై\")": 6909,
      "▁সংসদ": 6910,
      "▁article:": 6911,
      "रुणा": 6912,
      "యాలో": 6913,
      "▁হিসাবে": 6914,
      "▁both": 6915,
      "र्ध": 6916,
      "రె": 6917,
      "▁১৩": 6918,
      "▁def": 6919,
      "वादी": 6920,
      "రాజ్యం": 6921,
      "▁found": 6922,
      "संधान": 6923,
      "రాష్ట్రాల": 6924,
      "%E0%A6%9F": 6925,
      "▁largest": 6926,
      "समिया": 6927,
      "రుగు": 6928,
      "-ব": 6929,
      "▁rate": 6930,
      "ीनगर": 6931,
      "రుపు": 6932,
      ".uk": 6933,
      "▁some": 6934,
      "ूनिवर्सिटी": 6935,
      "రోపా": 6936,
      "/article": 6937,
      "▁territory": 6938,
      "ेद": 6939,
      "ర్ద": 6940,
      "▁trans": 6941,
      "ेंगलुरु": 6942,
      "ర్ష": 6943,
      "▁union": 6944,
      "ोला": 6945,
      "లాం": 6946,
      "▁world's": 6947,
      "ोर्ट": 6948,
      "లె": 6949,
      "?url=http://www.": 6950,
      "-H": 6951,
      "्तु": 6952,
      "లామాబాద్": 6953,
      "E_": 6954,
      "-2\").": 6955,
      "१९": 6956,
      "లోయ": 6957,
      "-8\").": 6958,
      "వత్స": 6959,
      "](./ভারতের_জাতীয়_": 6960,
      "▁औ": 6961,
      "వృద్ధి": 6962,
      "](./মু": 6963,
      "▁भाग": 6964,
      "వై": 6965,
      "▁\"य": 6966,
      "వ్": 6967,
      "_সরকার": 6968,
      "2022": 6969,
      "▁\"साँच": 6970,
      "వ](./List_of_countries_by_": 6971,
      "an,": 6972,
      "▁(2018),": 6973,
      "వాహ": 6974,
      "6]](./India#cite_note-FOOTNOTE": 6975,
      "శ్రమ": 6976,
      "annica.com/": 6977,
      "85": 6978,
      "▁1998": 6979,
      "శాఖ": 6980,
      "An": 6981,
      "▁21": 6982,
      "శోకుడు": 6983,
      "Aryan": 6984,
      "▁2024.": 6985,
      "ష్ణా": 6986,
      "britannica.com/": 6987,
      "Oxford_University_Press": 6988,
      "సీ": 6989,
      "Robb": 6990,
      "▁[य": 6991,
      "స్రా": 6992,
      "date": 6993,
      "Sharma": 6994,
      "▁[व": 6995,
      "స్లాం": 6996,
      "Spear199024": 6997,
      "▁[ह": 6998,
      "స్లామాబాద్": 6999,
      "don": 7000,
      "Stein2010),": 7001,
      "▁[पाकिस्तान](./पाकिस्तान": 7002,
      "స్వా": 7003,
      "](./Indo-": 7004,
      "▁[मध्य": 7005,
      "హాస": 7006,
      "_19": 7007,
      "ాబ్": 7008,
      "cil": 7009,
      "▁अभ": 7010,
      "ారిగా": 7011,
      "ducation": 7012,
      "▁इंडिया": 7013,
      "ిక,": 7014,
      "ligion": 7015,
      "eal": 7016,
      "▁काल": 7017,
      "ీఠ": 7018,
      "literature": 7019,
      "ek": 7020,
      "▁कॉंग्रेस": 7021,
      "ీన": 7022,
      "ez": 7023,
      "▁गई": 7024,
      "ుకు": 7025,
      "erry": 7026,
      "▁जब": 7027,
      "ువు": 7028,
      "esert": 7029,
      "▁जनजाति": 7030,
      "ృష్ణా": 7031,
      "olper": 7032,
      "ety": 7033,
      "▁द्वीप": 7034,
      "ెట్": 7035,
      "ibet": 7036,
      "▁प्रार": 7037,
      "ెహ": 7038,
      "view": 7039,
      "inistry_of_": 7040,
      "▁मई": 7041,
      "ే,": 7042,
      "।[[২": 7043,
      "isc": 7044,
      "▁मन": 7045,
      "ేన": 7046,
      "।[[৫": 7047,
      "jpg": 7048,
      "▁मशीन": 7049,
      "ైగా": 7050,
      "।[[৭": 7051,
      "lack": 7052,
      "▁मह": 7053,
      "ైద": 7054,
      "।[[১০": 7055,
      "limate": 7056,
      "▁मिल": 7057,
      "ైబ": 7058,
      "ঁচ": 7059,
      "men": 7060,
      "▁में,": 7061,
      "ొగలు": 7062,
      "অর্থনৈতিক": 7063,
      "min": 7064,
      "▁यूनिवर्सिटी": 7065,
      "ొయ": 7066,
      "আইএসবিএন": 7067,
      "meric": 7068,
      "▁राजधान": 7069,
      "ోర్చుగ": 7070,
      "আইএসবিএন_(শনাক্তকারী)": 7071,
      "ministrative": 7072,
      "▁लिये": 7073,
      "్యాలె": 7074,
      "উড": 7075,
      "▁ले": 7076,
      "–సా.శ.1947)": 7077,
      "কাশ্মীর": 7078,
      "ournal": 7079,
      "▁व्या": 7080,
      "–సా.శ.6": 7081,
      "ক্লো": 7082,
      "pert": 7083,
      "▁शहर": 7084,
      "ক্সচে": 7085,
      "ris": 7086,
      "▁सभा": 7087,
      "ক্সচেঞ্জ": 7088,
      "road": 7089,
      "▁समाज": 7090,
      "▁0.": 7091,
      "গানি": 7092,
      "rovision": 7093,
      "▁सित": 7094,
      "▁Increase": 7095,
      "গানিস্তান": 7096,
      "tre": 7097,
      "▁साम्राज्य\")": 7098,
      "ঙ্গা": 7099,
      "uddhism": 7100,
      "▁स्थाप": 7101,
      "▁errors": 7102,
      "টেম": 7103,
      "ultural": 7104,
      "\"](https://web.archive.org/web/20160": 7105,
      "▁km2": 7106,
      "তত্ত্ব": 7107,
      "ultanate": 7108,
      "*](http://": 7109,
      "তু": 7110,
      "union_ter": 7111,
      "-128": 7112,
      "▁ఘ": 7113,
      "থর": 7114,
      "yanmar": 7115,
      "-128)": 7116,
      "▁యుగ": 7117,
      "থান": 7118,
      "▁*[The": 7119,
      "-7mar": 7120,
      "থাপি": 7121,
      "▁23": 7122,
      "-7mar2011": 7123,
      "▁\"గ": 7124,
      "ধি": 7125,
      "▁2010](./India#CITEREFStein2010),": 7126,
      ".aspx": 7127,
      "▁\"దక్షిణ": 7128,
      "নিয়ন": 7129,
      ".aspx?": 7130,
      "▁\"పాకిస్తాన్": 7131,
      "নিরপেক্ষ": 7132,
      "▁Company": 7133,
      "▁\"ప్రత్యేక:EditPage/మూస:": 7134,
      "ন্ট্র": 7135,
      "▁China": 7136,
      "/link": 7137,
      "▁\"ప్రపంచ": 7138,
      "ন্ত্রক": 7139,
      "▁Delhi": 7140,
      "/linkimag": 7141,
      "▁\"ముంబై\")": 7142,
      "ন্নড়": 7143,
      "▁Environment": 7144,
      "/linkimages/": 7145,
      "▁\"మూస": 7146,
      "পর": 7147,
      "▁Gandhi": 7148,
      "▁\"వర్గం:Harv": 7149,
      "প্রিয়": 7150,
      "▁Hindi": 7151,
      "▁\"హిందూ": 7152,
      "ফগানিস্তান": 7153,
      "▁Pers": 7154,
      "20]](./भारत#cite_note-langoff": 7155,
      "▁\"చైనా": 7156,
      "মাইলিং": 7157,
      "▁Pradesh\")": 7158,
      "20]](./भारत#cite_note-langoff-128)": 7159,
      "▁\"ఢిల్లీ\")": 7160,
      "যা": 7161,
      "▁Press](./Oxford_University_Press": 7162,
      "▁\"మధ్య": 7163,
      "যাত্র": 7164,
      "▁Summit\")": 7165,
      "▁(1": 7166,
      "লিক": 7167,
      "▁[Oxford": 7168,
      "Am": 7169,
      "▁([help](./వర్గం:Harv_and_Sfn_template_errors": 7170,
      "শাসনিক": 7171,
      "▁[Asher": 7172,
      "▁(సా.శ.పూ.1200–సా.శ.పూ.": 7173,
      "ষদ": 7174,
      "▁began": 7175,
      "▁(సా.శ.పూ.3": 7176,
      "স্মাইলিং": 7177,
      "▁history": 7178,
      "হর": 7179,
      "▁mathema": 7180,
      "CS": 7181,
      "াট": 7182,
      "▁number": 7183,
      "▁2.": 7184,
      "ার্টি": 7185,
      "▁original](https://": 7186,
      "িত্": 7187,
      "▁pre": 7188,
      "Report": 7189,
      "িয়ন্ত্রণ": 7190,
      "▁sur": 7191,
      "Singh2009),": 7192,
      "০।": 7193,
      "▁term": 7194,
      "Stein1998),": 7195,
      "১]](./ভারত#cite_note-": 7196,
      "▁they": 7197,
      "TR": 7198,
      "▁Commissioner": 7199,
      "৩৪": 7200,
      "[[10": 7201,
      "৪৭": 7202,
      "-00": 7203,
      "[[120]](./भारत#cite_note-langoff-128)": 7204,
      "৬৫": 7205,
      "](./ग": 7206,
      "▁[e](./ప్రత్యేక:EditPage/మూస:": 7207,
      ".png": 7208,
      "](./द": 7209,
      "▁[t](./మూస_చర్చ:": 7210,
      "1970": 7211,
      "](./साँच": 7212,
      "▁[v](./మూస:": 7213,
      "2](./India#CITEREF": 7214,
      "](./पंजाब": 7215,
      "▁[కు": 7216,
      "](./पश्चिम": 7217,
      "▁[గ": 7218,
      "](./भारत#CITEREFSingh2009),": 7219,
      "▁[దక్షిణ": 7220,
      "](./भारत#CITEREFStein1998),": 7221,
      "▁[పాకిస్తాన్": 7222,
      "▁ক্ষেত্রে": 7223,
      "8-0)": 7224,
      "](./भारत#cite_ref-langoff": 7225,
      "▁[ముంబై": 7226,
      "▁রিজার্ভ": 7227,
      "AARC_summit": 7228,
      "](./भारत#cite_ref-pib": 7229,
      "▁[హిందూ": 7230,
      "▁ল": 7231,
      "Ludden": 7232,
      "](./भारत#cite_ref-langoff_": 7233,
      "▁[జమ్మూ": 7234,
      "▁হা": 7235,
      "Qu": 7236,
      "](./भारत#cite_ref-langoff_128": 7237,
      "▁[భారతదేశంలో": 7238,
      "▁৯": 7239,
      "](./O": 7240,
      "](./मध्य": 7241,
      "▁area": 7242,
      "▁\"চ": 7243,
      "_h": 7244,
      "_एशिया": 7245,
      "▁\"দক্ষিণ": 7246,
      "_l": 7247,
      "_राज्य": 7248,
      "▁mi": 7249,
      "▁\"আইএসবিএন": 7250,
      "_East_Asia_Summit": 7251,
      "a)": 7252,
      "▁sq": 7253,
      "▁\"মু": 7254,
      "a](./K": 7255,
      "ared": 7256,
      "▁Government": 7257,
      "alore": 7258,
      "▁అను": 7259,
      "▁India*": 7260,
      "aldives": 7261,
      "▁అనేక": 7262,
      "arak": 7263,
      "▁అభివృద్ధి": 7264,
      "▁St": 7265,
      "ancy": 7266,
      "ared/linkimages/": 7267,
      "▁ఆకుపచ్చ": 7268,
      "▁[জাতীয়": 7269,
      "angalore": 7270,
      "▁ఎక్కువగా": 7271,
      "▁[আইএসবিএন](./আইএসবিএন_(শনাক্তকারী)": 7272,
      "cb": 7273,
      "▁ఎన్నిక": 7274,
      "▁অভি": 7275,
      "artition": 7276,
      "chin": 7277,
      "▁ఎన్ను": 7278,
      "▁উন্নয়ন": 7279,
      "ball": 7280,
      "doc": 7281,
      "▁ఒకటి": 7282,
      "▁উপকূল": 7283,
      "bank": 7284,
      "feb": 7285,
      "▁కంపెనీ": 7286,
      "▁কাল": 7287,
      "cid": 7288,
      "glish": 7289,
      "▁కేంద్ర": 7290,
      "▁জনপ্রিয়": 7291,
      "cip": 7292,
      "ikidata": 7293,
      "▁కలిగి": 7294,
      "▁জনসংখ্যা": 7295,
      "eograph": 7296,
      "▁కారణంగా": 7297,
      "▁থা": 7298,
      "emocracy": 7299,
      "▁కార్య": 7300,
      "▁দিবস": 7301,
      "eries": 7302,
      "ing_": 7303,
      "▁కూడిన": 7304,
      "▁নয়": 7305,
      "erritory": 7306,
      "ingu": 7307,
      "▁కూడు": 7308,
      "▁পর্য": 7309,
      "ery": 7310,
      "inguistic": 7311,
      "▁గణ": 7312,
      "▁মোট": 7313,
      "flu": 7314,
      "▁చర్చ:": 7315,
      "▁যা": 7316,
      "formation": 7317,
      "llchin": 7318,
      "▁జరిగిన": 7319,
      "▁সংস্থা": 7320,
      "ick": 7321,
      "▁తన": 7322,
      "▁সমভূমি": 7323,
      "illa": 7324,
      "▁దినోత్సవ": 7325,
      "▁হিম": 7326,
      "inger": 7327,
      "nclm.nic.in/sh": 7328,
      "▁నది": 7329,
      "▁হিসে": 7330,
      "jec": 7331,
      "nclm.nic.in/shared/linkimages/": 7332,
      "▁నడిపించ": 7333,
      "▁১৬": 7334,
      "▁నిర్వ": 7335,
      "▁২০১৩": 7336,
      "lowing": 7337,
      "▁పద్ధ": 7338,
      "▁৩১": 7339,
      "mapu": 7340,
      "▁పైగా": 7341,
      "ning": 7342,
      "report": 7343,
      "▁పొ": 7344,
      "-১": 7345,
      "ocal": 7346,
      "site": 7347,
      "▁పరిశ్రమ": 7348,
      "ott": 7349,
      "▁పాత్ర": 7350,
      "olpert": 7351,
      "the_": 7352,
      "▁పాలన": 7353,
      ".৮": 7354,
      "otals": 7355,
      "ticl": 7356,
      "▁ప్రభుత్వ": 7357,
      "ountain": 7358,
      "ticle": 7359,
      "▁ప్రభుత్వం": 7360,
      ".png)": 7361,
      "ourt": 7362,
      "u_": 7363,
      "▁ప్రస్తుతం": 7364,
      ".uk/": 7365,
      "ple": 7366,
      "▁ప్రాచీన": 7367,
      "/page": 7368,
      "rahmapu": 7369,
      "▁బెంగాల్": 7370,
      "/pdf": 7371,
      "rdu": 7372,
      "y-": 7373,
      "▁భారతదేశపు": 7374,
      "/profile": 7375,
      "reek": 7376,
      "ंतर": 7377,
      "▁మతము\")": 7378,
      "170": 7379,
      "rganization": 7380,
      "ंग्रेज": 7381,
      "▁మతము\"),": 7382,
      "s_of_India": 7383,
      "ंपन": 7384,
      "▁మొదటి": 7385,
      "s](./M": 7386,
      "ईल": 7387,
      "▁రే": 7388,
      "ship": 7389,
      "को": 7390,
      "▁రాజ్యాలు": 7391,
      "99": 7392,
      "कालीन": 7393,
      "▁రోడ్": 7394,
      ":Search": 7395,
      "tice": 7396,
      "केन्द्र": 7397,
      "▁వర్": 7398,
      ":Search/ভারত": 7399,
      "umar": 7400,
      "ख्य": 7401,
      "▁వై": 7402,
      "FI": 7403,
      "undament": 7404,
      "गुप्त": 7405,
      "▁వారసత్వ": 7406,
      "IND": 7407,
      "urk": 7408,
      "घर": 7409,
      "▁వెబ్": 7410,
      "Oj": 7411,
      "–2": 7412,
      "चें": 7413,
      "▁వేగంగా": 7414,
      "PM": 7415,
      "▁land": 7416,
      "चेंज": 7417,
      "▁సర్వ": 7418,
      "Parliament": 7419,
      "▁\"Category:": 7420,
      "जापान": 7421,
      "▁సుల్తాన": 7422,
      "RO": 7423,
      "▁11": 7424,
      "तम": 7425,
      "▁సంవత్స": 7426,
      "Re": 7427,
      "▁Al": 7428,
      "तुल": 7429,
      "▁సంస్థ": 7430,
      "Tamil": 7431,
      "त्ति": 7432,
      "▁స్థా": 7433,
      "▁R.": 7434,
      "थियार": 7435,
      "\")1": 7436,
      "▁Raj": 7437,
      "द्यालय": 7438,
      "_n": 7439,
      "▁State": 7440,
      "धीरे": 7441,
      "_ক": 7442,
      "▁Times": 7443,
      "न्तर": 7444,
      "-01": 7445,
      "_চ": 7446,
      "▁York": 7447,
      "नागाल": 7448,
      "-22)": 7449,
      "_রাষ্ট্র": 7450,
      "▁groups": 7451,
      "नागालैंड": 7452,
      "-glan": 7453,
      "_সং": 7454,
      "▁lead": 7455,
      "प्राचीन": 7456,
      "-glance/": 7457,
      "_নদী": 7458,
      "▁non-": 7459,
      "फा": 7460,
      "-national-language-": 7461,
      "_শিল্প": 7462,
      "▁par": 7463,
      "बा": 7464,
      ".cms": 7465,
      "▁prime": 7466,
      "बंधीय": 7467,
      ".com/india/": 7468,
      "▁since": 7469,
      "भाजन": 7470,
      ".com/new": 7471,
      "▁used": 7472,
      "मार": 7473,
      ".com/news/": 7474,
      "रुणाचल": 7475,
      "anu": 7476,
      "रोहर": 7477,
      ".శ.)": 7478,
      "ashm": 7479,
      "र्ट": 7480,
      "/D": 7481,
      "-9\").": 7482,
      "र्श": 7483,
      "/L": 7484,
      ".[[4": 7485,
      "वर": 7486,
      "cial:Search/ভারত": 7487,
      "वियत": 7488,
      "/articles": 7489,
      "110": 7490,
      "स्व": 7491,
      "/articleshow": 7492,
      "dr": 7493,
      "2–": 7494,
      "संबर": 7495,
      "/articleshow/": 7496,
      "div": 7497,
      "हाँ": 7498,
      "04": 7499,
      "editor": 7500,
      "3/": 7501,
      "हित्य": 7502,
      "000)": 7503,
      "forma": 7504,
      "4/": 7505,
      "ाय": 7506,
      "5]](./India#cite_note-FOOTNOTE": 7507,
      "ारो": 7508,
      "7-1": 7509,
      "िबंधीय": 7510,
      "18)": 7511,
      "7/": 7512,
      "ियन": 7513,
      "18]](./భారతదేశం#cite_note-": 7514,
      "int": 7515,
      "Ar": 7516,
      "ृष": 7517,
      "18]](./భారతదేశం#cite_note-imf2": 7518,
      "Coll": 7519,
      "ृष्ण": 7520,
      "18]](./భారతదేశం#cite_note-imf2-22)": 7521,
      "lassical": 7522,
      "Indonesia": 7523,
      "ेंस": 7524,
      "1991": 7525,
      "library": 7526,
      "MF": 7527,
      "ेघालय": 7528,
      "2,": 7529,
      "Rowland": 7530,
      "ैदिक": 7531,
      "2](./భారతదేశం#cite_ref-": 7532,
      "miss": 7533,
      "Rowland1970": 7534,
      "ैनिक": 7535,
      "ोट": 7536,
      "2011religion": 7537,
      "](./Economy_of_": 7538,
      "ों_की_सूची?action=edit&redlink=1": 7539,
      "21)": 7540,
      "oe": 7541,
      "_g": 7542,
      "्त्र": 7543,
      "217": 7544,
      "p=`": 7545,
      "_and_D": 7546,
      "्रह": 7547,
      "2]](./భారతదేశం#cite_note-india.gov.in": 7548,
      "aury": 7549,
      "्लेट": 7550,
      "2]](./భారతదేశం#cite_note-india.gov.in-2)": 7551,
      "pecial:Search/ভারত": 7552,
      "ara": 7553,
      "▁,": 7554,
      "aran": 7555,
      "▁°": 7556,
      "5–సా.శ.": 7557,
      "serv": 7558,
      "asting": 7559,
      "▁रा": 7560,
      "50)": 7561,
      "times.com/": 7562,
      "aylor": 7563,
      "▁ला": 7564,
      "cis": 7565,
      "▁५": 7566,
      "xt_": 7567,
      "chitecture": 7568,
      "▁\"ड": 7569,
      "।[[৮": 7570,
      "city": 7571,
      "▁\"ह": 7572,
      "ংহ": 7573,
      "ecur": 7574,
      "▁\"पाकिस्तान\")": 7575,
      "আর": 7576,
      "ediev": 7577,
      "▁\"मध्य": 7578,
      "এম": 7579,
      "edieval": 7580,
      "কৃতিক": 7581,
      "emic": 7582,
      "▁1950": 7583,
      "ক্ষাদ্বীপ": 7584,
      "▁1998](./भारत#CITEREFStein1998),": 7585,
      "চক": 7586,
      "ests": 7587,
      "▁2009](./भारत#CITEREFSingh2009),": 7588,
      "ছু": 7589,
      "force": 7590,
      "জার": 7591,
      "ger": 7592,
      "টেক": 7593,
      "geograph": 7594,
      "▁CITEREFSingh2009": 7595,
      "টেমপ্": 7596,
      "▁CITEREFStein1998": 7597,
      "টেমপ্লে": 7598,
      "ios": 7599,
      "▁Linguistic": 7600,
      "টেমপ্লেট:": 7601,
      "iam": 7602,
      "▁Minorities": 7603,
      "থাইল্যান্ড–": 7604,
      "icial": 7605,
      "▁Tim": 7606,
      "থাপিছু": 7607,
      "ilitary": 7608,
      "▁Wikidata": 7609,
      "ধিন": 7610,
      "illen": 7611,
      "▁[Singh": 7612,
      "ধু": 7613,
      "iterac": 7614,
      "ন্য": 7615,
      "kim": 7616,
      "▁[गुजरात": 7617,
      "পার": 7618,
      "lec": 7619,
      "▁[प्र": 7620,
      "পিপি": 7621,
      "leg": 7622,
      "▁अमेर": 7623,
      "ব্রু": 7624,
      "nergy": 7625,
      "▁अर्थव्यवस्था": 7626,
      "বিদ": 7627,
      "o-op": 7628,
      "▁अलग": 7629,
      "বিদ্যালয়": 7630,
      "▁आक": 7631,
      "ব্দ": 7632,
      "onstituent": 7633,
      "▁आद": 7634,
      "ব্রুয়ারি": 7635,
      "overty": 7636,
      "▁उपमहाद्वीप": 7637,
      "মস": 7638,
      "pdf)": 7639,
      "▁कम": 7640,
      "মিশন": 7641,
      "ron": 7642,
      "▁किन": 7643,
      "যুক্তরাজ্য": 7644,
      "rote": 7645,
      "▁काम": 7646,
      "যুক্তরাষ্ট্র": 7647,
      "round": 7648,
      "▁जिन": 7649,
      "যোগিতা": 7650,
      "s](./C": 7651,
      "▁जनवरी": 7652,
      "রান": 7653,
      "s](./List_of_": 7654,
      "▁थे": 7655,
      "রুভূমি": 7656,
      "teenth": 7657,
      "▁देव": 7658,
      "রোপ": 7659,
      "thnic": 7660,
      "▁दोन": 7661,
      "লকাতা": 7662,
      "way": 7663,
      "▁दिसंबर": 7664,
      "লিশ": 7665,
      "west": 7666,
      "▁दृश्य": 7667,
      "শা": 7668,
      "xp": 7669,
      "▁नेतृत्व": 7670,
      "শ্মীর": 7671,
      "▁ed.).": 7672,
      "▁पाकिस्तान": 7673,
      "শিক্ষা": 7674,
      "▁(India)\")": 7675,
      "▁प्रधानमंत्री": 7676,
      "সিস": 7677,
      "▁प्रारम्भ": 7678,
      "স্তর": 7679,
      "▁बंगाल": 7680,
      "হে": 7681,
      "▁All": 7682,
      "▁बड़े": 7683,
      "হো": 7684,
      "▁C.": 7685,
      "▁भूमिका": 7686,
      "হিম": 7687,
      "▁Islands\")": 7688,
      "▁मंदिर\")": 7689,
      "হেরু": 7690,
      "▁River": 7691,
      "▁रक्षा": 7692,
      "ান](./": 7693,
      "▁[19": 7694,
      "▁लगभग": 7695,
      "ালম": 7696,
      "▁[c": 7697,
      "▁व्यवस्था": 7698,
      "ালুরু": 7699,
      "▁[t": 7700,
      "▁वर्षों": 7701,
      "ালয়ালম": 7702,
      "▁famil": 7703,
      "▁सभ्यता": 7704,
      "িত্তিতে": 7705,
      "▁his": 7706,
      "▁सह": 7707,
      "ীণ": 7708,
      "▁made": 7709,
      "▁स्तर": 7710,
      "ীব": 7711,
      "▁mar": 7712,
      "▁संस्थान": 7713,
      "ুরস্": 7714,
      "▁minister": 7715,
      "▁सिनेमा\"),": 7716,
      "ে।": 7717,
      "▁movement": 7718,
      "▁सेवा": 7719,
      "েরল": 7720,
      "▁official": 7721,
      "▁हाला": 7722,
      "০১": 7723,
      "▁power": 7724,
      "▁होती": 7725,
      "২৩": 7726,
      "▁tex": 7727,
      "▁१९९": 7728,
      "২৬": 7729,
      "\");": 7730,
      "২৮": 7731,
      "%7C": 7732,
      "৪)।": 7733,
      "%7c": 7734,
      "\")*,": 7735,
      "৪.": 7736,
      "-largest": 7737,
      "৫৯": 7738,
      "৭১": 7739,
      "-of-": 7740,
      ".ph": 7741,
      "109": 7742,
      "160": 7743,
      "130": 7744,
      "▁(ম": 7745,
      "4-3": 7746,
      "132": 7747,
      "4–": 7748,
      "BC": 7749,
      "42": 7750,
      "▁Sch": 7751,
      "5%": 7752,
      "▁[উ": 7753,
      "](./List_of_countries_by": 7754,
      "6),": 7755,
      "_J": 7756,
      "63": 7757,
      "▁[\"The": 7758,
      "_Comm": 7759,
      "▁[আর্কাইভকৃত](https://web.archive.org/web/2008": 7760,
      "_Indian_gen": 7761,
      "▁[আর্কাইভকৃত](https://www.webcitation.org/6174": 7762,
      "_Indian_general_": 7763,
      "EO": 7764,
      "▁অ্যান্ড": 7765,
      "_Indian_general_election": 7766,
      "▁অঞ্চলের": 7767,
      "_at_the": 7768,
      "WEO": 7769,
      "▁আন্দোলন": 7770,
      "akhand": 7771,
      "](./साँचा:": 7772,
      "▁ইন": 7773,
      "ams": 7774,
      "](./हिन्द": 7775,
      "▁উদারীকরণ": 7776,
      "anipur": 7777,
      "](./पूर्व": 7778,
      "▁উপমহাদেশ": 7779,
      "anoram": 7780,
      "](./महाराष्ट्र": 7781,
      "▁একাধিক": 7782,
      "apan": 7783,
      "](./साँचा_": 7784,
      "▁ঐতিহ্য": 7785,
      "cean": 7786,
      "](./साँचा_वार": 7787,
      "▁কর্ত": 7788,
      "cha": 7789,
      "](./साँचा_वार्ता:": 7790,
      "▁কাশ্মীর": 7791,
      "▁কেন্দ্রীয়": 7792,
      "eli": 7793,
      "▁খ্রি": 7794,
      "▁ডলার": 7795,
      "formatics": 7796,
      "▁থেকে](http://": 7797,
      "html).": 7798,
      "_en": 7799,
      "▁পরীক্ষা": 7800,
      "▁পূর্ব": 7801,
      "icob": 7802,
      "_ma": 7803,
      "▁প্রধানমন্ত্রী": 7804,
      "icobar": 7805,
      "_map": 7806,
      "▁ফেব্রুয়ারি": 7807,
      "iffer": 7808,
      "_के_अनुसार_देश": 7809,
      "▁বিভিন্ন": 7810,
      "illenni": 7811,
      "_न्या": 7812,
      "▁মার্কিন": 7813,
      "illennium": 7814,
      "_भारतीय_": 7815,
      "▁যুক্তরাষ্ট্র": 7816,
      "imach": 7817,
      "_राजवंश": 7818,
      "▁রাজনৈতিক": 7819,
      "inese": 7820,
      "_सूचना": 7821,
      "▁সংস্করণ": 7822,
      "a_1": 7823,
      "▁স্বাধীনতা": 7824,
      "lof": 7825,
      "▁১৮": 7826,
      "lurton": 7827,
      "▁২০২১": 7828,
      "ociety": 7829,
      "olon": 7830,
      "arli": 7831,
      "-S": 7832,
      "olitic": 7833,
      "opic": 7834,
      "atus": 7835,
      "ors": 7836,
      "-৬": 7837,
      "ouncil": 7838,
      "b)": 7839,
      "prov": 7840,
      "c=": 7841,
      ".svg/": 7842,
      "rade": 7843,
      "dition": 7844,
      ".svg.png)": 7845,
      "ravid": 7846,
      "/IND": 7847,
      "resent": 7848,
      "f/": 7849,
      "sub": 7850,
      "tandard": 7851,
      "history": 7852,
      "140": 7853,
      "trod": 7854,
      "619": 7855,
      "uard": 7856,
      "ucherry": 7857,
      "int:": 7858,
      "uducherry": 7859,
      "=`-এ": 7860,
      "ulti": 7861,
      "C&": 7862,
      "upta": 7863,
      "ustralia": 7864,
      "maint:": 7865,
      "History": 7866,
      "▁...": 7867,
      "ISS": 7868,
      "▁time": 7869,
      "ISSN": 7870,
      "▁urban": 7871,
      "▁\"United": 7872,
      "pib.nic.in/": 7873,
      "Offi": 7874,
      "▁2012.": 7875,
      "reli": 7876,
      "▁Economic": 7877,
      "sa": 7878,
      "](./চ": 7879,
      "▁GDP": 7880,
      "soon_": 7881,
      "](./দক্ষিণ": 7882,
      "▁General": 7883,
      "](./ফ": 7884,
      "▁Himalay": 7885,
      "](./ভারত_সরকার": 7886,
      "▁Kingdom": 7887,
      "](./ভারত#di": 7888,
      "▁Lank": 7889,
      "ticles": 7890,
      "](./ভারত#dik": 7891,
      "▁November": 7892,
      "](./ভারত#dikshit": 7893,
      "▁Publishing": 7894,
      "](./ভারত#dikshit),": 7895,
      "▁S.": 7896,
      "uran": 7897,
      "](./ভারতের_প্র": 7898,
      "▁Science": 7899,
      "url": 7900,
      "](./ভারতের_রাজ্য": 7901,
      "▁Tamil": 7902,
      "ंश": 7903,
      "](./ভারতের_স": 7904,
      "▁Valley": 7905,
      "ंडमान": 7906,
      "▁[Indo-": 7907,
      "ंपरा": 7908,
      "_তালিকা": 7909,
      "▁[d": 7910,
      "अरब": 7911,
      "_ফ": 7912,
      "▁[↑](./India#cite_ref-FOOTNOTEMetcalfMetcalf2006": 7913,
      "आईएस": 7914,
      "_আন্দোলন": 7915,
      "▁bas": 7916,
      "इन": 7917,
      "_ইউ": 7918,
      "▁country": 7919,
      "ईद": 7920,
      "_যুদ্ধ": 7921,
      "▁contrib": 7922,
      "ऍथ": 7923,
      "ad_": 7924,
      "▁eastern": 7925,
      "ऍथन": 7926,
      "▁employ": 7927,
      "ऍथनोल": 7928,
      "artzber": 7929,
      "▁influ": 7930,
      "ऍथनोलॉ": 7931,
      "▁left": 7932,
      "ऍथनोलॉग": 7933,
      "▁new": 7934,
      "ऑक्सफोर्ड": 7935,
      "atalogu": 7936,
      "▁painting": 7937,
      "कटिका": 7938,
      "▁prov": 7939,
      "कांक": 7940,
      "▁rem": 7941,
      "क्षण": 7942,
      "constitution": 7943,
      "▁summit": 7944,
      "क्षद्वीप": 7945,
      "cont": 7946,
      "▁though": 7947,
      "ख़": 7948,
      "dis": 7949,
      "▁them": 7950,
      "खनऊ": 7951,
      "▁western": 7952,
      "गध": 7953,
      "ems": 7954,
      "जल": 7955,
      "fo": 7956,
      "-h": 7957,
      "जिस्ट": 7958,
      "-0\").": 7959,
      "जयनगर": 7960,
      "gener": 7961,
      "-7\").": 7962,
      "जयपुर": 7963,
      "-98": 7964,
      "जिस्ट्र": 7965,
      "ha2014": 7966,
      ".\")": 7967,
      "जिस्ट्रार": 7968,
      "2007).": 7969,
      "ड़ो": 7970,
      "ताल": 7971,
      "its": 7972,
      "75": 7973,
      "तिब्बत": 7974,
      "known": 7975,
      "76": 7976,
      "तुल्य": 7977,
      "त्पत्ति": 7978,
      "ncy": 7979,
      "AARC_summits": 7980,
      "थम": 7981,
      "DikshitSchwartzberg2023": 7982,
      "थल": 7983,
      "oup": 7984,
      "IMF": 7985,
      "थाईल": 7986,
      "Ludden2014": 7987,
      "दल": 7988,
      "Provision": 7989,
      "दान": 7990,
      "द्वार": 7991,
      "pi": 7992,
      "SAARC_summits": 7993,
      "दाख": 7994,
      "pre": 7995,
      "](./List_of_SAARC_summits": 7996,
      "धिराज्य": 7997,
      "str": 7998,
      "]](./India#cite_note-4": 7999,
      "_O": 8000,
      "_BRICS_summit": 8001,
      "_Islands": 8002,
      "aharl": 8003,
      "wartzberg": 8004,
      "alit": 8005,
      "।[[৬": 8006,
      "anad": 8007,
      "ইতিহাস": 8008,
      "arty": 8009,
      "উট": 8010,
      "as,": 8011,
      "এনসাই": 8012,
      "athura": 8013,
      "এনসাইক্লো": 8014,
      "aves": 8015,
      "এনসাইক্লোপিডিয়া": 8016,
      "awaharl": 8017,
      "ওড়ি": 8018,
      "কক্ষ": 8019,
      "ectancy": 8020,
      "কগণ": 8021,
      "emale": 8022,
      "কলা": 8023,
      "emograph": 8024,
      "কশাল": 8025,
      "ency": 8026,
      "ক্রান্ত": 8027,
      "eserve": 8028,
      "গুলো": 8029,
      "etary": 8030,
      "ঘাট": 8031,
      "fficial": 8032,
      "ঙ্গেয়": 8033,
      "hrist": 8034,
      "চ্": 8035,
      "ihar": 8036,
      "জনেস": 8037,
      "ঞ্চলে": 8038,
      "ically": 8039,
      "ঞ্চা": 8040,
      "ikkim": 8041,
      "ট্": 8042,
      "iley": 8043,
      "ট্ট": 8044,
      "ড়া": 8045,
      "ison": 8046,
      "ড়ো": 8047,
      "iteracy": 8048,
      "ডারেশন": 8049,
      "iving": 8050,
      "ণাটক": 8051,
      "ling": 8052,
      "ণিপুরী": 8053,
      "lood": 8054,
      "তথ্য": 8055,
      "তামিলনা": 8056,
      "oard": 8057,
      "তামিলনাড়": 8058,
      "oint": 8059,
      "দিকে": 8060,
      "omason": 8061,
      "দ্যান": 8062,
      "ootball": 8063,
      "দ্রো": 8064,
      "orn": 8065,
      "দ্রোহ": 8066,
      "order": 8067,
      "ধা": 8068,
      "oreign": 8069,
      "ধিনায়": 8070,
      "oss": 8071,
      "ধিনায়ক": 8072,
      "ouse": 8073,
      "নাম": 8074,
      "overeign": 8075,
      "নোর": 8076,
      "pecial": 8077,
      "ন্তি": 8078,
      "rans": 8079,
      "ন্ধ্র": 8080,
      "raz": 8081,
      "ন্ধ্রপ্রদেশ": 8082,
      "rancis": 8083,
      "পাঞ্জাব": 8084,
      "resident": 8085,
      "প্রাচীন": 8086,
      "rishn": 8087,
      "ফস": 8088,
      "rown": 8089,
      "বু": 8090,
      "states": 8091,
      "বর্ষ": 8092,
      "uled": 8093,
      "বর্তী": 8094,
      "urch": 8095,
      "বাহী": 8096,
      "urn": 8097,
      "বীন্দ্র": 8098,
      "ved": 8099,
      "বেঙ্গালুরু": 8100,
      "vention": 8101,
      "ভূটান": 8102,
      "ward": 8103,
      "ময়": 8104,
      "worldbank": 8105,
      "মিক": 8106,
      "xchange": 8107,
      "মিয়ানমার": 8108,
      "–24": 8109,
      "মু": 8110,
      "▁40": 8111,
      "মো": 8112,
      "মিজ": 8113,
      "▁\"Th": 8114,
      "য়লা": 8115,
      "▁\"National": 8116,
      "য়াদিল্লি": 8117,
      "▁(199": 8118,
      "যুগ": 8119,
      "রবীন্দ্র": 8120,
      "রমাণু": 8121,
      "▁Assembly": 8122,
      "রাজনীতি": 8123,
      "▁By": 8124,
      "রাজ্যসভা": 8125,
      "র্ণাটক": 8126,
      "▁D.": 8127,
      "র্বো": 8128,
      "▁Hinduism": 8129,
      "র্মসূ": 8130,
      "▁India*](https://books.google.com/books?id=": 8131,
      "লাক্ষাদ্বীপ": 8132,
      "▁India](./G": 8133,
      "লিউড": 8134,
      "▁J.": 8135,
      "ষ্ঠী": 8136,
      "▁Modern": 8137,
      "স\")": 8138,
      "▁Mon": 8139,
      "সল": 8140,
      "▁Nehru": 8141,
      "সংসদ": 8142,
      "▁P.": 8143,
      "সলাম": 8144,
      "▁Persian": 8145,
      "স্টি": 8146,
      "▁This": 8147,
      "হারা": 8148,
      "▁[Government": 8149,
      "হায়": 8150,
      "▁[↑](./India#cite_ref-4": 8151,
      "হারাষ্ট্র": 8152,
      "▁economy": 8153,
      "ায়।": 8154,
      "▁far": 8155,
      "ারাঠি": 8156,
      "▁gre": 8157,
      "িকী": 8158,
      "▁life": 8159,
      "ীমান্ত": 8160,
      "▁man": 8161,
      "ুক্তি": 8162,
      "▁second": 8163,
      "ৃষি": 8164,
      "▁serv": 8165,
      "ৌর্য": 8166,
      "▁summits\")": 8167,
      "ৌলিক": 8168,
      "▁technology": 8169,
      "্যার": 8170,
      "▁women": 8171,
      "্যাস": 8172,
      "-le": 8173,
      "্রিকেট": 8174,
      "-1\").": 8175,
      "্রিটান": 8176,
      ".india": 8177,
      "৪।": 8178,
      ".[[3": 8179,
      "৬৬": 8180,
      "103": 8181,
      "৮৭": 8182,
      "2]](./India#cite_note-": 8183,
      "2001": 8184,
      "2002": 8185,
      "2011_India": 8186,
      "318": 8187,
      "4]](./India#cite_note-FOOTNOTE": 8188,
      "▁x": 8189,
      "7]](./India#cite_note-FOOTNOTE": 8190,
      "▁ট": 8191,
      "▁\"ফ": 8192,
      "▁\"সা": 8193,
      "MC": 8194,
      "▁2007](./ভারত#dikshit),": 8195,
      "MID": 8196,
      "▁Com": 8197,
      "MetcalfMetcalf2012": 8198,
      "▁India\"": 8199,
      "Provisional_P": 8200,
      "▁London": 8201,
      "Provisional_Population": 8202,
      "▁Republic": 8203,
      "Provisional_Population_T": 8204,
      "▁Schwartzberg": 8205,
      "Provisional_Population_Totals": 8206,
      "Provisional_Population_Totals_P": 8207,
      "Provisional_Population_Totals_Paper": 8208,
      "Provisional_Population_Totals_Paper_1": 8209,
      "▁[Dikshit": 8210,
      "Provisional_Population_Totals_Paper_1_of_": 8211,
      "▁[মহা": 8212,
      "Provisional_Population_Totals_Paper_1_of_2011_India": 8213,
      "▁অনুযায়ী": 8214,
      "▁আয়": 8215,
      "](./Category:": 8216,
      "▁ইংরেজি": 8217,
      "](./History_of_": 8218,
      "▁ইউনিভার্সিটি": 8219,
      "▁উচ্চ": 8220,
      "_Ch": 8221,
      "▁উৎস": 8222,
      "af": 8223,
      "▁এশিয়ার": 8224,
      "aur": 8225,
      "▁করুন": 8226,
      "a](./G": 8227,
      "▁কোটি": 8228,
      "aju": 8229,
      "▁কোম্পানি": 8230,
      "▁ক্রিকেট": 8231,
      "anta": 8232,
      "▁খ্রিষ্ট": 8233,
      "arath": 8234,
      "▁চাল": 8235,
      "aries": 8236,
      "▁জলবায়ু": 8237,
      "arlo": 8238,
      "▁টাকা": 8239,
      "arnatic": 8240,
      "▁থাকে": 8241,
      "atis": 8242,
      "▁দা": 8243,
      "ation,": 8244,
      "▁দশক": 8245,
      "casting": 8246,
      "▁দুই": 8247,
      "cess": 8248,
      "▁দেখা": 8249,
      "code": 8250,
      "▁দ্বীপপুঞ্জ": 8251,
      "cording": 8252,
      "▁নিক": 8253,
      "▁নীতি": 8254,
      "dish": 8255,
      "▁নিবন্ধ:": 8256,
      "ead": 8257,
      "▁পশ্চিম": 8258,
      "eology": 8259,
      "▁পর্বতমালা": 8260,
      "educ": 8261,
      "▁প্রচ": 8262,
      "endra": 8263,
      "▁বুদ্ধ": 8264,
      "entral_": 8265,
      "▁বর্তম": 8266,
      "exp": 8267,
      "▁বায়ু": 8268,
      "fir": 8269,
      "▁বিপ্লব": 8270,
      "gypt": 8271,
      "▁বিভাগ": 8272,
      "hief": 8273,
      "▁বিশেষ": 8274,
      "iber": 8275,
      "▁বিশ্বকাপ": 8276,
      "▁বৈদেশিক": 8277,
      "iary": 8278,
      "▁রাজনীতি": 8279,
      "ibcode": 8280,
      "▁রাষ্ট্রপতি": 8281,
      "icon": 8282,
      "▁শিল্প\")": 8283,
      "iger": 8284,
      "▁সদ": 8285,
      "igra": 8286,
      "▁সরকারের": 8287,
      "ighth": 8288,
      "▁স্বা": 8289,
      "ikhism": 8290,
      "▁স্থাপত্য": 8291,
      "industan": 8292,
      "▁হতে": 8293,
      "iodiversity": 8294,
      "▁হিন্দু": 8295,
      "ipp": 8296,
      "▁হিসেবে": 8297,
      "irector": 8298,
      "▁১০": 8299,
      "issing": 8300,
      "▁২৫": 8301,
      "itz": 8302,
      "▁২০১৬": 8303,
      "iterature": 8304,
      "▁২০১৮": 8305,
      "lag": 8306,
      "lav": 8307,
      "loth": 8308,
      "nown": 8309,
      "%E0%A6%B0": 8310,
      "ots": 8311,
      "%E0%A6%BF": 8312,
      "o-operation": 8313,
      "%E0%A7%8D%E0%A6%B": 8314,
      "ockey": 8315,
      "&l": 8316,
      "olence": 8317,
      "&source": 8318,
      "onsoon": 8319,
      "&source=": 8320,
      "oples": 8321,
      "ortheast": 8322,
      "-logo": 8323,
      "overnment_of_India": 8324,
      "pture": 8325,
      "-1-3": 8326,
      "phere": 8327,
      "-population": 8328,
      "qual": 8329,
      "-অধিনায়ক": 8330,
      "roadcasting": 8331,
      "-এর": 8332,
      "s](./A": 8333,
      ".fr": 8334,
      "temp": 8335,
      "th_BRICS_summit": 8336,
      ".৭": 8337,
      "uisine": 8338,
      "umbers": 8339,
      ".indiatimes.com/": 8340,
      "urrent": 8341,
      "/t": 8342,
      "vel": 8343,
      "/page/": 8344,
      "190": 8345,
      "yam": 8346,
      "214": 8347,
      "ynasty": 8348,
      "▁50": 8349,
      "40px-": 8350,
      "▁\"In": 8351,
      "540": 8352,
      "▁2022.": 8353,
      "▁36": 8354,
      "▁Civil": 8355,
      "93": 8356,
      "▁Punjab": 8357,
      "A_": 8358,
      "▁Press](./C": 8359,
      "Bio": 8360,
      "C_P": 8361,
      "▁Research": 8362,
      "Cl": 8363,
      "▁Rev": 8364,
      "▁[f": 8365,
      "C_PRO": 8366,
      "▁[v": 8367,
      "C_PROFI": 8368,
      "▁[![A": 8369,
      "C_PROFIL": 8370,
      "▁[Dyson": 8371,
      "Clé": 8372,
      "▁[National": 8373,
      "Clément": 8374,
      "▁[↑](./India#cite_ref-FOOTNOTEB": 8375,
      "Clémentin-": 8376,
      "▁add": 8377,
      "Clémentin-Oj": 8378,
      "▁billion": 8379,
      "Doi_(identifier)": 8380,
      "▁caus": 8381,
      "▁culture": 8382,
      "IAEX": 8383,
      "▁control": 8384,
      "LOC_PROFIL": 8385,
      "▁development": 8386,
      "NC": 8387,
      "▁human": 8388,
      "PK:14": 8389,
      "▁language\"),": 8390,
      "▁languages\")": 8391,
      "TH": 8392,
      "▁pop": 8393,
      "▁right": 8394,
      "▁tree": 8395,
      "](./নেপাল": 8396,
      "▁these": 8397,
      "](./প্র": 8398,
      "▁when": 8399,
      "](./বাংলাদেশ": 8400,
      "-50": 8401,
      "](./সা": 8402,
      "-D": 8403,
      "](./অক্সফোর্ড": 8404,
      "-R": 8405,
      "](./বিশেষ:বইয়ের_উৎস/8": 8406,
      "](./ভারতের_জ": 8407,
      "-th": 8408,
      "](./ভারতের_ভূ": 8409,
      "-90": 8410,
      "](http://books.google.com/books?id=": 8411,
      ".IN": 8412,
      "](https://archive.org/details/": 8413,
      ".](//upload.wikimedia.org/wikipedia/commons/thumb/": 8414,
      "](https://doi": 8415,
      "](https://doi.org/": 8416,
      ".[[40": 8417,
      "1]](./India#cite_note-": 8418,
      "_a_": 8419,
      "2]](./India#cite_note-FOOTNOTE": 8420,
      "3TR": 8421,
      "_un": 8422,
      "32)": 8423,
      "_বাহিনী": 8424,
      "3TRt": 8425,
      "_শিল্প?action=edit&redlink=1": 8426,
      "4]](./India#cite_note-": 8427,
      "a_te": 8428,
      "6–": 8429,
      "a_text_": 8430,
      "7C": 8431,
      "7]](./India#cite_note-": 8432,
      "aranth": 8433,
      "7_": 8434,
      "AS": 8435,
      "authors": 8436,
      "AAJ": 8437,
      "authors=`": 8438,
      "Dyson2018),": 8439,
      "brid": 8440,
      "For": 8441,
      "IF": 8442,
      "cise": 8443,
      "IUCN": 8444,
      "coauthors=`": 8445,
      "IMFWEO": 8446,
      "contin": 8447,
      "IMFWEO.IN": 8448,
      "International_": 8449,
      "dq": 8450,
      "ece": 8451,
      "Quote": 8452,
      "Quote:": 8453,
      "erit": 8454,
      "Uttarakhand": 8455,
      "eritage": 8456,
      "](./Th": 8457,
      "ernet": 8458,
      "](./National_": 8459,
      "ernet.in/": 8460,
      "](./Template:": 8461,
      "_38": 8462,
      "extr": 8463,
      "_Ass": 8464,
      "extra_text_": 8465,
      "_with": 8466,
      "files/": 8467,
      "a](./S": 8468,
      "from": 8469,
      "adra": 8470,
      "adras": 8471,
      "aking": 8472,
      "ildli": 8473,
      "alli": 8474,
      "arden": 8475,
      "astr": 8476,
      "atyam": 8477,
      "avi": 8478,
      "bour": 8479,
      "library/": 8480,
      "culpture": 8481,
      "data": 8482,
      "ndra": 8483,
      "eet": 8484,
      "odi": 8485,
      "egion": 8486,
      "etr": 8487,
      "ountri": 8488,
      "eck": 8489,
      "phe": 8490,
      "ed,": 8491,
      "rip": 8492,
      "ediff": 8493,
      "residen": 8494,
      "education": 8495,
      "rime": 8496,
      "emographics": 8497,
      "rofil": 8498,
      "erg": 8499,
      "s/india": 8500,
      "eter": 8501,
      "sey": 8502,
      "ffice": 8503,
      "hang": 8504,
      "hil": 8505,
      "ucle": 8506,
      "hmed": 8507,
      "handig": 8508,
      "handigarh": 8509,
      "wAAQBAJ&pg=PA": 8510,
      "ign_": 8511,
      "আই](./Doi_(identifier)": 8512,
      "imal": 8513,
      "কুল": 8514,
      "কেন্দ্রীয়": 8515,
      "ina](./": 8516,
      "ক্ষণাবেক্ষণ:": 8517,
      "ions": 8518,
      "খরান": 8519,
      "irth": 8520,
      "খরান-২": 8521,
      "istorical": 8522,
      "গণতন্ত্র": 8523,
      "itional": 8524,
      "গণমন": 8525,
      "ived": 8526,
      "গণমন-অধিনায়ক": 8527,
      "late_": 8528,
      "গুলিত": 8529,
      "lated": 8530,
      "গ্রহ": 8531,
      "lofk": 8532,
      "চিব": 8533,
      "ly,": 8534,
      "জনগণমন-অধিনায়ক": 8535,
      "most": 8536,
      "জিডিপি": 8537,
      "ociation": 8538,
      "ঞ্চলিক": 8539,
      "ডিওআই](./Doi_(identifier)": 8540,
      "ondon": 8541,
      "তাবাদ": 8542,
      "orm": 8543,
      "থে": 8544,
      "oro": 8545,
      "দারি": 8546,
      "orship": 8547,
      "ধর": 8548,
      "ortal:": 8549,
      "ধুন": 8550,
      "ources": 8551,
      "ধারণতন্ত্র": 8552,
      "ove": 8553,
      "ধুনিক": 8554,
      "ন।": 8555,
      "pic": 8556,
      "নার": 8557,
      "pecially": 8558,
      "ন্ব": 8559,
      "pura": 8560,
      "ন্তরীণ": 8561,
      "rain": 8562,
      "ন্দোলন\")": 8563,
      "পুরা": 8564,
      "ternal": 8565,
      "পূর্ণ": 8566,
      "ute": 8567,
      "ughal_": 8568,
      "ummer": 8569,
      "vey": 8570,
      "ymb": 8571,
      "▁Quote:": 8572,
      "▁el": 8573,
      "▁op": 8574,
      "▁z": 8575,
      "▁\"British": 8576,
      "▁\"Mughal": 8577,
      "▁\"Template:": 8578,
      "▁2007](./India#CITEREF": 8579,
      "▁2018](./India#CITEREFDyson2018),": 8580,
      "▁2023.": 8581,
      "▁35": 8582,
      "▁Buddhist": 8583,
      "▁Centre": 8584,
      "▁Comp": 8585,
      "▁Cooperation": 8586,
      "▁Chand": 8587,
      "▁Games": 8588,
      "▁India](./C": 8589,
      "▁M.": 8590,
      "▁Park": 8591,
      "▁Plateau": 8592,
      "▁[e": 8593,
      "▁[Ar": 8594,
      "▁[Ministry": 8595,
      "▁ago": 8596,
      "▁ass": 8597,
      "▁capit": 8598,
      "▁colle": 8599,
      "▁disc": 8600,
      "▁especially": 8601,
      "▁gen": 8602,
      "▁growth": 8603,
      "▁her": 8604,
      "▁hum": 8605,
      "▁inter": 8606,
      "▁increased": 8607,
      "▁milk": 8608,
      "▁mathematic": 8609,
      "▁name": 8610,
      "▁off": 8611,
      "▁remain": 8612,
      "▁sector": 8613,
      "▁sign": 8614,
      "▁stat": 8615,
      "▁through": 8616,
      "▁total": 8617,
      "▁work": 8618,
      "▁within": 8619,
      "*](https://web.archive.org/web/": 8620,
      "-and": 8621,
      "-k": 8622,
      "-r": 8623,
      "-3\").": 8624,
      "-30": 8625,
      "-415": 8626,
      ".svg.png": 8627,
      "/12": 8628,
      "00–": 8629,
      "198": 8630,
      "2_": 8631,
      "2010).": 8632,
      "5](./India#CITEREF": 8633,
      "5]](./India#cite_note-": 8634,
      "677": 8635,
      "6]](./India#cite_note-vatsyayan-lord": 8636,
      "6]](./India#cite_note-vatsyayan-lord-4": 8637,
      "9]](./India#cite_note-": 8638,
      "9]](./India#cite_note-FOOTNOTE": 8639,
      "China": 8640,
      "Encyclop": 8641,
      "](./World": 8642,
      "](./British": 8643,
      "](./Ch": 8644,
      "](./Special:BookSources/978-81": 8645,
      "]](./India#cite_note-Combined": 8646,
      "_&": 8647,
      "_2024": 8648,
      "_industry": 8649,
      "_432": 8650,
      "_Centre": 8651,
      "_Nadu": 8652,
      "_pro": 8653,
      "ax": 8654,
      "a_Empire": 8655,
      "ability": 8656,
      "ambridge_University_Press": 8657,
      "amil_Nadu": 8658,
      "ants": 8659,
      "angam": 8660,
      "ango": 8661,
      "arendra": 8662,
      "arly": 8663,
      "aro": 8664,
      "ars": 8665,
      "artment": 8666,
      "astal": 8667,
      "ator": 8668,
      "avidson": 8669,
      "bak": 8670,
      "cted": 8671,
      "ceu": 8672,
      "cheduled": 8673,
      "class": 8674,
      "cript": 8675,
      "ees": 8676,
      "eor": 8677
    },
    "merges": [
      [
        "n",
        "d"
      ],
      [
        "]",
        "("
      ],
      [
        "া",
        "র"
      ],
      [
        "i",
        "a"
      ],
      [
        "ा",
        "र"
      ],
      [
        "్",
        "ర"
      ],
      [
        ".",
        "/"
      ],
      [
        "▁",
        "["
      ],
      [
        "](",
        "./"
      ],
      [
        "▁",
        "क"
      ],
      [
        "▁",
        "\""
      ],
      [
        "্",
        "র"
      ],
      [
        "i",
        "n"
      ],
      [
        "्",
        "र"
      ],
      [
        "\"",
        ")"
      ],
      [
        "ভ",
        "ার"
      ],
      [
        "e",
        "r"
      ],
      [
        "▁",
        "|"
      ],
      [
        "ভার",
        "ত"
      ],
      [
        "nd",
        "ia"
      ],
      [
        "ా",
        "ర"
      ],
      [
        "য",
        "়"
      ],
      [
        "o",
        "n"
      ],
      [
        "भ",
        "ार"
      ],
      [
        "ా",
        "ల"
      ],
      [
        "I",
        "ndia"
      ],
      [
        "भार",
        "त"
      ],
      [
        "్",
        "య"
      ],
      [
        "t",
        "h"
      ],
      [
        "▁",
        "स"
      ],
      [
        "భ",
        "ార"
      ],
      [
        "ে",
        "র"
      ],
      [
        "t",
        "e"
      ],
      [
        "▁",
        "म"
      ],
      [
        "భార",
        "త"
      ],
      [
        "্",
        "য"
      ],
      [
        "्",
        "य"
      ],
      [
        "ద",
        "ే"
      ],
      [
        "t",
        "i"
      ],
      [
        "స",
        "్"
      ],
      [
        "▁",
        "স"
      ],
      [
        "దే",
        "శ"
      ],
      [
        "](./",
        "ভারত"
      ],
      [
        "a",
        "l"
      ],
      [
        "र",
        "ा"
      ],
      [
        "▁",
        "ప"
      ],
      [
        "ন",
        "্"
      ],
      [
        "a",
        "n"
      ],
      [
        "▁",
        "प"
      ],
      [
        "e",
        "d"
      ],
      [
        "র",
        "্"
      ],
      [
        "a",
        "r"
      ],
      [
        "స",
        "ా"
      ],
      [
        "ব",
        "ি"
      ],
      [
        "o",
        "r"
      ],
      [
        "2",
        "0"
      ],
      [
        "e",
        "s"
      ],
      [
        "े",
        "ं"
      ],
      [
        "ত",
        "ি"
      ],
      [
        "e",
        "n"
      ],
      [
        "ा",
        "न"
      ],
      [
        "న",
        "్"
      ],
      [
        "▁क",
        "े"
      ],
      [
        "▁",
        "*"
      ],
      [
        "o",
        "f"
      ],
      [
        "र",
        "्"
      ],
      [
        "ర",
        "్"
      ],
      [
        "▁",
        "প"
      ],
      [
        "i",
        "s"
      ],
      [
        "](./",
        "भारत"
      ],
      [
        "d",
        "i"
      ],
      [
        "th",
        "e"
      ],
      [
        "▁",
        "ह"
      ],
      [
        "i",
        "t"
      ],
      [
        "r",
        "e"
      ],
      [
        "▁",
        "a"
      ],
      [
        "्",
        "त"
      ],
      [
        "ల",
        "ు"
      ],
      [
        "া",
        "ন"
      ],
      [
        "ि",
        "क"
      ],
      [
        "ర",
        "ా"
      ],
      [
        "ক",
        "্"
      ],
      [
        "▁",
        "the"
      ],
      [
        "భారత",
        "దేశ"
      ],
      [
        "h",
        "t"
      ],
      [
        "य",
        "ा"
      ],
      [
        ".",
        "శ"
      ],
      [
        "▁",
        "of"
      ],
      [
        ".శ",
        "."
      ],
      [
        "o",
        "m"
      ],
      [
        "▁म",
        "ें"
      ],
      [
        "ల",
        "ో"
      ],
      [
        "](./",
        "India"
      ],
      [
        "సా",
        ".శ."
      ],
      [
        "o",
        "u"
      ],
      [
        "ी",
        "य"
      ],
      [
        "ti",
        "on"
      ],
      [
        "c",
        "i"
      ],
      [
        "▁",
        "अ"
      ],
      [
        "▁",
        "క"
      ],
      [
        "/",
        "/"
      ],
      [
        "త",
        "్ర"
      ],
      [
        "স",
        "্"
      ],
      [
        "](./India",
        "#"
      ],
      [
        "ాల",
        "ు"
      ],
      [
        "ী",
        "য়"
      ],
      [
        "ो",
        "ं"
      ],
      [
        "ర",
        "ి"
      ],
      [
        "▁",
        "("
      ],
      [
        "i",
        "c"
      ],
      [
        "క",
        "్"
      ],
      [
        "a",
        "s"
      ],
      [
        "t",
        "p"
      ],
      [
        "▁",
        "India"
      ],
      [
        "te",
        "_"
      ],
      [
        "ం",
        "ద"
      ],
      [
        ":",
        "//"
      ],
      [
        "व",
        "ि"
      ],
      [
        "ht",
        "tp"
      ],
      [
        "](./भारत",
        "#"
      ],
      [
        "▁",
        "వ"
      ],
      [
        "া",
        "ল"
      ],
      [
        "▁",
        "in"
      ],
      [
        "न",
        "ा"
      ],
      [
        "న",
        "ి"
      ],
      [
        "ি",
        "ক"
      ],
      [
        "l",
        "e"
      ],
      [
        "](./ভারত",
        "#"
      ],
      [
        "](./India#",
        "ci"
      ],
      [
        "ల",
        "్"
      ],
      [
        "](./India#ci",
        "te_"
      ],
      [
        "▁",
        "ज"
      ],
      [
        "భారతదేశ",
        "ం"
      ],
      [
        "▁",
        "অ"
      ],
      [
        "o",
        "o"
      ],
      [
        "्",
        "ष"
      ],
      [
        "ం",
        "గ"
      ],
      [
        "র",
        "া"
      ],
      [
        "▁",
        "p"
      ],
      [
        "_",
        "क"
      ],
      [
        "▁",
        "స"
      ],
      [
        "ত",
        "্র"
      ],
      [
        "i",
        "d"
      ],
      [
        "ा",
        "ल"
      ],
      [
        "a",
        "c"
      ],
      [
        "▁",
        "ম"
      ],
      [
        "O",
        "T"
      ],
      [
        "▁ह",
        "ै"
      ],
      [
        "▁",
        "మ"
      ],
      [
        "▁",
        "s"
      ],
      [
        "▁ప",
        "్ర"
      ],
      [
        "ব",
        "া"
      ],
      [
        "c",
        "h"
      ],
      [
        "ీ",
        "య"
      ],
      [
        "](./ভারত#",
        "ci"
      ],
      [
        "t",
        "r"
      ],
      [
        "▁",
        "द"
      ],
      [
        "](./ভারত#ci",
        "te_"
      ],
      [
        "20",
        "1"
      ],
      [
        "](./भारत#",
        "ci"
      ],
      [
        "ం",
        "డ"
      ],
      [
        "▁",
        "২"
      ],
      [
        "▁a",
        "nd"
      ],
      [
        "](./भारत#ci",
        "te_"
      ],
      [
        "l",
        "in"
      ],
      [
        "l",
        "a"
      ],
      [
        "त",
        "्र"
      ],
      [
        "r",
        "ed"
      ],
      [
        "▁",
        "ক"
      ],
      [
        "in",
        "g"
      ],
      [
        "रा",
        "ज"
      ],
      [
        "జ",
        "్య"
      ],
      [
        "en",
        "t"
      ],
      [
        "न",
        "्"
      ],
      [
        "▁",
        "చ"
      ],
      [
        "w",
        "w"
      ],
      [
        "=",
        "1"
      ],
      [
        "দ",
        "্"
      ],
      [
        "1",
        "9"
      ],
      [
        "े",
        "श"
      ],
      [
        "lin",
        "k"
      ],
      [
        "ট",
        "ি"
      ],
      [
        "t",
        "t"
      ],
      [
        "▁",
        "भारत"
      ],
      [
        "ి",
        "."
      ],
      [
        "di",
        "a"
      ],
      [
        "a",
        "m"
      ],
      [
        "?",
        "ac"
      ],
      [
        "হ",
        "া"
      ],
      [
        "▁",
        "A"
      ],
      [
        "ि",
        "या"
      ],
      [
        "?ac",
        "tion"
      ],
      [
        "▁",
        "c"
      ],
      [
        "औ",
        "र"
      ],
      [
        "?action",
        "="
      ],
      [
        "স",
        "া"
      ],
      [
        "e",
        "c"
      ],
      [
        "▁",
        "ब"
      ],
      [
        "&",
        "red"
      ],
      [
        "▁\"",
        "ভারত"
      ],
      [
        "-",
        "0"
      ],
      [
        "▁क",
        "ी"
      ],
      [
        "&red",
        "link"
      ],
      [
        "](",
        "http"
      ],
      [
        "▁",
        "f"
      ],
      [
        "ं",
        "ग"
      ],
      [
        "&redlink",
        "=1"
      ],
      [
        "▁",
        "ত"
      ],
      [
        "i",
        "v"
      ],
      [
        "?action=",
        "ed"
      ],
      [
        "ক্",
        "ষ"
      ],
      [
        "▁",
        "w"
      ],
      [
        "▁प",
        "्र"
      ],
      [
        "?action=ed",
        "it"
      ],
      [
        "▁",
        "উ"
      ],
      [
        "r",
        "a"
      ],
      [
        "ल",
        "ा"
      ],
      [
        "?action=edit",
        "&redlink=1"
      ],
      [
        "▁",
        "त"
      ],
      [
        "త",
        "ా"
      ],
      [
        "▁",
        "এ"
      ],
      [
        "oo",
        "k"
      ],
      [
        "మ",
        "ు"
      ],
      [
        "ার",
        "ি"
      ],
      [
        "्",
        "व"
      ],
      [
        "న",
        "ా"
      ],
      [
        "ের",
        "_"
      ],
      [
        "u",
        "s"
      ],
      [
        "్",
        "ట"
      ],
      [
        "g",
        "/"
      ],
      [
        "n",
        "o"
      ],
      [
        "▁",
        "न"
      ],
      [
        "త",
        "ి"
      ],
      [
        "ভ",
        "া"
      ],
      [
        "▁",
        "S"
      ],
      [
        "भ",
        "ा"
      ],
      [
        "▁",
        "ভারত"
      ],
      [
        "▁",
        "b"
      ],
      [
        "▁स",
        "े"
      ],
      [
        "త",
        "్"
      ],
      [
        "▁প",
        "্র"
      ],
      [
        ")",
        "."
      ],
      [
        "-",
        "1"
      ],
      [
        "స",
        "ి"
      ],
      [
        "a",
        "t"
      ],
      [
        "▁",
        "और"
      ],
      [
        "ক",
        "া"
      ],
      [
        "u",
        "r"
      ],
      [
        "▁क",
        "ा"
      ],
      [
        "▁",
        "ব"
      ],
      [
        "p",
        "s"
      ],
      [
        "*",
        "*"
      ],
      [
        "ে",
        "শ"
      ],
      [
        "is",
        "t"
      ],
      [
        "_",
        "स"
      ],
      [
        "▁২",
        "০"
      ],
      [
        "a",
        "tion"
      ],
      [
        "▁(",
        "సా.శ."
      ],
      [
        "▁",
        "ও"
      ],
      [
        "h",
        "tt"
      ],
      [
        "त",
        "ा"
      ],
      [
        "ు",
        "లు"
      ],
      [
        "▁",
        "ন"
      ],
      [
        "▁",
        "m"
      ],
      [
        "20",
        "0"
      ],
      [
        "▁",
        "రా"
      ],
      [
        "i",
        "l"
      ],
      [
        "्",
        "ट"
      ],
      [
        "▁*",
        "*"
      ],
      [
        "দ্",
        "ধ"
      ],
      [
        "▁",
        "1"
      ],
      [
        "య",
        "ా"
      ],
      [
        ".",
        "or"
      ],
      [
        "▁",
        "t"
      ],
      [
        "్ర",
        "ా"
      ],
      [
        "ত",
        "া"
      ],
      [
        "–",
        "సా.శ."
      ],
      [
        "g",
        "e"
      ],
      [
        "▁",
        "అ"
      ],
      [
        "▁",
        "জ"
      ],
      [
        "htt",
        "ps"
      ],
      [
        "▁\"",
        "भारत"
      ],
      [
        "s",
        "://"
      ],
      [
        "o",
        "l"
      ],
      [
        "▁",
        "व"
      ],
      [
        "e",
        "_"
      ],
      [
        ".or",
        "g/"
      ],
      [
        "https",
        "://"
      ],
      [
        "स",
        "्त"
      ],
      [
        "ి",
        "క"
      ],
      [
        "w",
        "e"
      ],
      [
        "i",
        "g"
      ],
      [
        "త",
        "ం"
      ],
      [
        "▁",
        "আ"
      ],
      [
        "▁",
        "C"
      ],
      [
        "राज",
        "्य"
      ],
      [
        "▁",
        "হ"
      ],
      [
        "7",
        "8"
      ],
      [
        "▁",
        "•"
      ],
      [
        "జ్య",
        "ం"
      ],
      [
        "ি",
        "য়"
      ],
      [
        "e",
        "t"
      ],
      [
        "क",
        "्ष"
      ],
      [
        "ి",
        "న"
      ],
      [
        ")",
        "।"
      ],
      [
        "re",
        "f"
      ],
      [
        "ि",
        "त"
      ],
      [
        "ন্",
        "দ"
      ],
      [
        "a",
        "d"
      ],
      [
        "্",
        "ব"
      ],
      [
        "te",
        "-"
      ],
      [
        "▁",
        "P"
      ],
      [
        "न्",
        "द"
      ],
      [
        "జ",
        "ా"
      ],
      [
        "ক",
        "ে"
      ],
      [
        "[",
        "["
      ],
      [
        "]",
        "](./India#cite_"
      ],
      [
        "▁",
        "आ"
      ],
      [
        "ం",
        "చ"
      ],
      [
        "I",
        "n"
      ],
      [
        "](./India#cite_",
        "ref"
      ],
      [
        "క",
        "ు"
      ],
      [
        "া",
        "ত"
      ],
      [
        "](./India#cite_ref",
        "-"
      ],
      [
        "प",
        "ु"
      ],
      [
        "](./",
        "భారతదేశం"
      ],
      [
        "]](./India#cite_",
        "no"
      ],
      [
        "ष",
        "ा"
      ],
      [
        "న",
        "ు"
      ],
      [
        "ৃ",
        "তি"
      ],
      [
        "]](./India#cite_no",
        "te-"
      ],
      [
        "त",
        "ि"
      ],
[...]
